{
  "version": "1.0",
  "truncation": null,
  "padding": null,
  "added_tokens": [
    {
      "id": 0,
      "content": "<s>",
      "single_word": false,
      "lstrip": false,
      "rstrip": false,
      "normalized": false,
      "special": true
    },
    {
      "id": 1,
      "content": "<pad>",
      "single_word": false,
      "lstrip": false,
      "rstrip": false,
      "normalized": false,
      "special": true
    },
    {
      "id": 2,
      "content": "<unk>",
      "single_word": false,
      "lstrip": false,
      "rstrip": false,
      "normalized": false,
      "special": true
    },
    {
      "id": 3,
      "content": "</s>",
      "single_word": false,
      "lstrip": false,
      "rstrip": false,
      "normalized": false,
      "special": true
    },
    {
      "id": 4,
      "content": "<mask>",
      "single_word": false,
      "lstrip": false,
      "rstrip": false,
      "normalized": false,
      "special": true
    }
  ],
  "normalizer": {
    "type": "Sequence",
    "normalizers": [
      {
        "type": "NFD"
      },
      {
        "type": "StripAccents"
      },
      {
        "type": "Lowercase"
      },
      {
        "type": "Replace",
        "pattern": {
          "Regex": "[0-9!@#$%^&*()_+{}\\[\\]:;<>,.?~\\-'\"]"
        },
        "content": ""
      }
    ]
  },
  "pre_tokenizer": {
    "type": "ByteLevel",
    "add_prefix_space": false,
    "trim_offsets": true,
    "use_regex": true
  },
  "post_processor": {
    "type": "Sequence",
    "processors": [
      {
        "type": "ByteLevel",
        "add_prefix_space": true,
        "trim_offsets": false,
        "use_regex": true
      },
      {
        "type": "TemplateProcessing",
        "single": [
          {
            "SpecialToken": {
              "id": "<s>",
              "type_id": 0
            }
          },
          {
            "Sequence": {
              "id": "A",
              "type_id": 0
            }
          },
          {
            "SpecialToken": {
              "id": "</s>",
              "type_id": 0
            }
          }
        ],
        "pair": [
          {
            "Sequence": {
              "id": "A",
              "type_id": 0
            }
          },
          {
            "Sequence": {
              "id": "B",
              "type_id": 1
            }
          }
        ],
        "special_tokens": {
          "</s>": {
            "id": "</s>",
            "ids": [
              3
            ],
            "tokens": [
              "</s>"
            ]
          },
          "<s>": {
            "id": "<s>",
            "ids": [
              0
            ],
            "tokens": [
              "<s>"
            ]
          }
        }
      }
    ]
  },
  "decoder": {
    "type": "ByteLevel",
    "add_prefix_space": true,
    "trim_offsets": true,
    "use_regex": true
  },
  "model": {
    "type": "BPE",
    "dropout": null,
    "unk_token": "<unk>",
    "continuing_subword_prefix": null,
    "end_of_word_suffix": null,
    "fuse_unk": false,
    "byte_fallback": false,
    "vocab": {
      "<s>": 0,
      "<pad>": 1,
      "<unk>": 2,
      "</s>": 3,
      "<mask>": 4,
      "/": 5,
      "=": 6,
      "\\": 7,
      "`": 8,
      "a": 9,
      "b": 10,
      "c": 11,
      "d": 12,
      "e": 13,
      "f": 14,
      "g": 15,
      "h": 16,
      "i": 17,
      "j": 18,
      "k": 19,
      "l": 20,
      "m": 21,
      "n": 22,
      "o": 23,
      "p": 24,
      "q": 25,
      "r": 26,
      "s": 27,
      "t": 28,
      "u": 29,
      "v": 30,
      "w": 31,
      "x": 32,
      "y": 33,
      "z": 34,
      "|": 35,
      "¡": 36,
      "¢": 37,
      "£": 38,
      "¤": 39,
      "¥": 40,
      "¦": 41,
      "§": 42,
      "¨": 43,
      "©": 44,
      "ª": 45,
      "«": 46,
      "¬": 47,
      "®": 48,
      "¯": 49,
      "°": 50,
      "±": 51,
      "²": 52,
      "³": 53,
      "´": 54,
      "µ": 55,
      "¶": 56,
      "·": 57,
      "¸": 58,
      "¹": 59,
      "º": 60,
      "»": 61,
      "¼": 62,
      "½": 63,
      "¾": 64,
      "¿": 65,
      "Â": 66,
      "Ã": 67,
      "Ä": 68,
      "Å": 69,
      "Æ": 70,
      "Ç": 71,
      "È": 72,
      "É": 73,
      "Ê": 74,
      "Ë": 75,
      "Í": 76,
      "Î": 77,
      "Ï": 78,
      "Ð": 79,
      "Ñ": 80,
      "Ò": 81,
      "Ó": 82,
      "Ô": 83,
      "Õ": 84,
      "Ö": 85,
      "×": 86,
      "Ø": 87,
      "Ù": 88,
      "Ú": 89,
      "Û": 90,
      "Ü": 91,
      "Ý": 92,
      "Þ": 93,
      "ß": 94,
      "à": 95,
      "á": 96,
      "â": 97,
      "ã": 98,
      "ä": 99,
      "å": 100,
      "æ": 101,
      "ç": 102,
      "è": 103,
      "é": 104,
      "ê": 105,
      "î": 106,
      "ï": 107,
      "ð": 108,
      "ó": 109,
      "ô": 110,
      "ĉ": 111,
      "Ċ": 112,
      "Ġ": 113,
      "ġ": 114,
      "Ģ": 115,
      "ģ": 116,
      "Ĥ": 117,
      "ĥ": 118,
      "Ħ": 119,
      "ħ": 120,
      "Ĩ": 121,
      "ĩ": 122,
      "Ī": 123,
      "ī": 124,
      "Ĭ": 125,
      "ĭ": 126,
      "Į": 127,
      "į": 128,
      "İ": 129,
      "ı": 130,
      "Ĳ": 131,
      "ĳ": 132,
      "Ĵ": 133,
      "ĵ": 134,
      "Ķ": 135,
      "ķ": 136,
      "ĸ": 137,
      "Ĺ": 138,
      "ĺ": 139,
      "Ļ": 140,
      "ļ": 141,
      "Ľ": 142,
      "ľ": 143,
      "Ŀ": 144,
      "ŀ": 145,
      "Ł": 146,
      "ł": 147,
      "Ń": 148,
      "Ġt": 149,
      "Ġa": 150,
      "in": 151,
      "er": 152,
      "Ġo": 153,
      "Ġth": 154,
      "re": 155,
      "on": 156,
      "Ġc": 157,
      "Ġthe": 158,
      "Ġs": 159,
      "en": 160,
      "at": 161,
      "an": 162,
      "es": 163,
      "ed": 164,
      "Ġin": 165,
      "Ġp": 166,
      "it": 167,
      "Ġf": 168,
      "or": 169,
      "al": 170,
      "Ġw": 171,
      "Ġan": 172,
      "Ġof": 173,
      "Ġb": 174,
      "ion": 175,
      "ar": 176,
      "is": 177,
      "Ġm": 178,
      "Ġd": 179,
      "Ġand": 180,
      "ing": 181,
      "Ġre": 182,
      "ent": 183,
      "ro": 184,
      "ĠĠ": 185,
      "ic": 186,
      "Ġto": 187,
      "as": 188,
      "ur": 189,
      "Ġl": 190,
      "om": 191,
      "ct": 192,
      "Ġh": 193,
      "il": 194,
      "Ġe": 195,
      "Ġn": 196,
      "us": 197,
      "un": 198,
      "et": 199,
      "em": 200,
      "el": 201,
      "ation": 202,
      "Ġg": 203,
      "Ġcom": 204,
      "iv": 205,
      "ol": 206,
      "Ġas": 207,
      "le": 208,
      "Ġfor": 209,
      "Ġst": 210,
      "ut": 211,
      "ch": 212,
      "ul": 213,
      "id": 214,
      "ce": 215,
      "im": 216,
      "Ġcon": 217,
      "st": 218,
      "th": 219,
      "Ġon": 220,
      "ers": 221,
      "ec": 222,
      "Ġpro": 223,
      "ig": 224,
      "ter": 225,
      "Ġcomp": 226,
      "Ġex": 227,
      "ly": 228,
      "qu": 229,
      "Ġour": 230,
      "Ġis": 231,
      "ment": 232,
      "ay": 233,
      "ir": 234,
      "ies": 235,
      "ot": 236,
      "ab": 237,
      "est": 238,
      "Ġinc": 239,
      "Ġr": 240,
      "Ġv": 241,
      "Ġor": 242,
      "am": 243,
      "ith": 244,
      "os": 245,
      "Ġwe": 246,
      "ill": 247,
      "ial": 248,
      "Ġbe": 249,
      "ow": 250,
      "ect": 251,
      "Ġwh": 252,
      "ad": 253,
      "Ġwith": 254,
      "ated": 255,
      "ate": 256,
      "Ġthat": 257,
      "Ġsu": 258,
      "ĠĠĠĠ": 259,
      "if": 260,
      "Ġco": 261,
      "Ġun": 262,
      "ity": 263,
      "Ġal": 264,
      "ber": 265,
      "Ġy": 266,
      "ain": 267,
      "ag": 268,
      "Ġde": 269,
      "Ġby": 270,
      "ement": 271,
      "oc": 272,
      "res": 273,
      "ver": 274,
      "ess": 275,
      "ts": 276,
      "Ġit": 277,
      "Ġwas": 278,
      "Ġare": 279,
      "Ġsh": 280,
      "Ġj": 281,
      "Ġat": 282,
      "Ġch": 283,
      "per": 284,
      "and": 285,
      "red": 286,
      "tr": 287,
      "end": 288,
      "rom": 289,
      "ive": 290,
      "any": 291,
      "ve": 292,
      "Ġac": 293,
      "ort": 294,
      "ear": 295,
      "pp": 296,
      "ud": 297,
      "Ġres": 298,
      "Ġfrom": 299,
      "um": 300,
      "ere": 301,
      "ue": 302,
      "ac": 303,
      "Ġad": 304,
      "ions": 305,
      "anc": 306,
      "ens": 307,
      "od": 308,
      "ant": 309,
      "ember": 310,
      "Ġnot": 311,
      "oun": 312,
      "act": 313,
      "Ġcompany": 314,
      "Ġus": 315,
      "ip": 316,
      "ap": 317,
      "Ġpr": 318,
      "ations": 319,
      "able": 320,
      "Ġk": 321,
      "ance": 322,
      "ther": 323,
      "Ġfin": 324,
      "Ġmar": 325,
      "Ġass": 326,
      "Ġper": 327,
      "Ġtr": 328,
      "ib": 329,
      "uct": 330,
      "ard": 331,
      "art": 332,
      "Ġdec": 333,
      "Ġexp": 334,
      "ich": 335,
      "op": 336,
      "Ġpl": 337,
      "fer": 338,
      "Ġse": 339,
      "iz": 340,
      "Ġcomm": 341,
      "Ġam": 342,
      "ang": 343,
      "ities": 344,
      "ans": 345,
      "ition": 346,
      "igh": 347,
      "ff": 348,
      "Ġyear": 349,
      "ust": 350,
      "ure": 351,
      "ist": 352,
      "Ġle": 353,
      "Ġha": 354,
      "der": 355,
      "ome": 356,
      "Ġne": 357,
      "Ġcont": 358,
      "Ġacc": 359,
      "ire": 360,
      "Ġinter": 361,
      "ary": 362,
      "Ġrep": 363,
      "Ġdis": 364,
      "pt": 365,
      "ase": 366,
      "âĢ": 367,
      "illion": 368,
      "ore": 369,
      "Ġfinanc": 370,
      "ug": 371,
      "Ġag": 372,
      "Ġwhich": 373,
      "Ġother": 374,
      "se": 375,
      "Ġoper": 376,
      "ock": 377,
      "lud": 378,
      "Ġapp": 379,
      "Ġstat": 380,
      "Ġhe": 381,
      "Ġmillion": 382,
      "are": 383,
      "up": 384,
      "Ġcons": 385,
      "Ġhave": 386,
      "Ġfinancial": 387,
      "ely": 388,
      "all": 389,
      "ie": 390,
      "duct": 391,
      "for": 392,
      "Ġmay": 393,
      "ign": 394,
      "og": 395,
      "Ġser": 396,
      "ments": 397,
      "Ġim": 398,
      "Ġrec": 399,
      "Ġcl": 400,
      "Ġinclud": 401,
      "Ġqu": 402,
      "ak": 403,
      "ased": 404,
      "Ġstock": 405,
      "low": 406,
      "Ġthis": 407,
      "age": 408,
      "Ġreg": 409,
      "Ġpart": 410,
      "Ġsec": 411,
      "ements": 412,
      "ice": 413,
      "ell": 414,
      "uld": 415,
      "Ġdecember": 416,
      "ical": 417,
      "Ġsp": 418,
      "ets": 419,
      "Ġact": 420,
      "Ġsub": 421,
      "tain": 422,
      "ia": 423,
      "Ġind": 424,
      "ors": 425,
      "ax": 426,
      "Ġman": 427,
      "Ġwere": 428,
      "ous": 429,
      "Ġab": 430,
      "Ġinv": 431,
      "ult": 432,
      "Ġits": 433,
      "ong": 434,
      "Ġimp": 435,
      "Ġmark": 436,
      "Ġint": 437,
      "Ġval": 438,
      "ount": 439,
      "ish": 440,
      "form": 441,
      "erm": 442,
      "Ġen": 443,
      "vel": 444,
      "ren": 445,
      "ility": 446,
      "ine": 447,
      "so": 448,
      "Ġproduct": 449,
      "Ġrel": 450,
      "Ġnet": 451,
      "Ġunder": 452,
      "Ġrev": 453,
      "Ġso": 454,
      "ating": 455,
      "Ġno": 456,
      "ĠâĢ": 457,
      "Ġgo": 458,
      "ĠĊ": 459,
      "ual": 460,
      "Ġlo": 461,
      "lo": 462,
      "Ġwill": 463,
      "Ġserv": 464,
      "Ġar": 465,
      "Ġi": 466,
      "ks": 467,
      "Ġli": 468,
      "ugh": 469,
      "Ġbus": 470,
      "old": 471,
      "ĠĠĠ": 472,
      "ater": 473,
      "ord": 474,
      "ence": 475,
      "ash": 476,
      "Ġall": 477,
      "iness": 478,
      "air": 479,
      "bl": 480,
      "Ġbusiness": 481,
      "Ġpre": 482,
      "Ġprov": 483,
      "Ġtax": 484,
      "Ġbo": 485,
      "ents": 486,
      "Ġnew": 487,
      "ast": 488,
      "Ġro": 489,
      "ings": 490,
      "Ġcost": 491,
      "ach": 492,
      "ian": 493,
      "Ġend": 494,
      "Ġhas": 495,
      "Ġalso": 496,
      "oss": 497,
      "ail": 498,
      "Ġincome": 499,
      "ffect": 500,
      "uring": 501,
      "enc": 502,
      "Ġoff": 503,
      "su": 504,
      "Ġthese": 505,
      "ific": 506,
      "our": 507,
      "ates": 508,
      "Ġadd": 509,
      "Ġest": 510,
      "ĠâĢĵ": 511,
      "ight": 512,
      "Ġgro": 513,
      "Ġrequ": 514,
      "Ġany": 515,
      "Ġcap": 516,
      "eral": 517,
      "Ġsal": 518,
      "ory": 519,
      "Ġover": 520,
      "ide": 521,
      "Ġte": 522,
      "Ġincre": 523,
      "Ġreport": 524,
      "Ġpur": 525,
      "Ġinterest": 526,
      "Ġcash": 527,
      "und": 528,
      "Ġgen": 529,
      "Ġequ": 530,
      "ices": 531,
      "Ġmarket": 532,
      "Ġfe": 533,
      "Ġinvest": 534,
      "Ġme": 535,
      "Ġhis": 536,
      "Ġtim": 537,
      "Ġvalue": 538,
      "Ġsuch": 539,
      "Ġout": 540,
      "Ġassets": 541,
      "Ġappro": 542,
      "Ġup": 543,
      "ized": 544,
      "por": 545,
      "Ġfil": 546,
      "ou": 547,
      "Ġwor": 548,
      "lect": 549,
      "ited": 550,
      "ass": 551,
      "str": 552,
      "ge": 553,
      "irect": 554,
      "Ġexpens": 555,
      "tal": 556,
      "Ġloss": 557,
      "aw": 558,
      "Ġem": 559,
      "urren": 560,
      "Ġfir": 561,
      "out": 562,
      "Ġform": 563,
      "ied": 564,
      "ame": 565,
      "av": 566,
      "ital": 567,
      "Ġev": 568,
      "Ġtrans": 569,
      "Ġagre": 570,
      "ack": 571,
      "its": 572,
      "Ġstatements": 573,
      "Ġdisc": 574,
      "uc": 575,
      "Ġdirect": 576,
      "ty": 577,
      "Ġmanag": 578,
      "ject": 579,
      "Ġcommon": 580,
      "Ġoperations": 581,
      "ict": 582,
      "ange": 583,
      "Ġcan": 584,
      "Ġif": 585,
      "Ġsecur": 586,
      "Ġpres": 587,
      "Ġaddition": 588,
      "ertain": 589,
      "Ġtheir": 590,
      "ond": 591,
      "Ġbr": 592,
      "Ġreven": 593,
      "Ġyears": 594,
      "Ġcol": 595,
      "ose": 596,
      "Ġpay": 597,
      "ĠĠĠĠĠĠĠĠ": 598,
      "iod": 599,
      "Ġmo": 600,
      "Ġthere": 601,
      "arter": 602,
      "Ġcurren": 603,
      "ward": 604,
      "olid": 605,
      "ative": 606,
      "Ġtotal": 607,
      "Ġduring": 608,
      "Ġperiod": 609,
      "orpor": 610,
      "ef": 611,
      "Ġfirst": 612,
      "ould": 613,
      "Ġthan": 614,
      "ational": 615,
      "ok": 616,
      "ares": 617,
      "wn": 618,
      "Ġcould": 619,
      "Ġresp": 620,
      "Ġgr": 621,
      "Ġent": 622,
      "velop": 623,
      "Ġaf": 624,
      "Ġshare": 625,
      "Ġeffect": 626,
      "Ġdep": 627,
      "==": 628,
      "Ġcompanys": 629,
      "ired": 630,
      "Ġincluding": 631,
      "Ġbeen": 632,
      "her": 633,
      "Ġone": 634,
      "Ġhad": 635,
      "arr": 636,
      "rol": 637,
      "Ġbut": 638,
      "ures": 639,
      "Ġended": 640,
      "Ġdo": 641,
      "Ġdes": 642,
      "Ġyou": 643,
      "Ġquarter": 644,
      "Ġcontr": 645,
      "Ġterm": 646,
      "Ġdevelop": 647,
      "rough": 648,
      "Ġconsolid": 649,
      "ee": 650,
      "cess": 651,
      "Ġstr": 652,
      "Ġcontin": 653,
      "Ġmore": 654,
      "Ġshares": 655,
      "Ġfol": 656,
      "Ġear": 657,
      "Ġsign": 658,
      "the": 659,
      "Ġaccount": 660,
      "ior": 661,
      "gr": 662,
      "itt": 663,
      "Ġcust": 664,
      "own": 665,
      "hip": 666,
      "ilities": 667,
      "les": 668,
      "Ġcustom": 669,
      "ace": 670,
      "Ġcapital": 671,
      "Ġfollow": 672,
      "iss": 673,
      "Ġdr": 674,
      "uary": 675,
      "Ġrelated": 676,
      "ree": 677,
      "Ġacqu": 678,
      "Ġ|": 679,
      "Ġmon": 680,
      "ibut": 681,
      "Ġtime": 682,
      "Ġplan": 683,
      "ubl": 684,
      "Ġconsolidated": 685,
      "Ġoperating": 686,
      "Ġinto": 687,
      "ident": 688,
      "Ġissu": 689,
      "io": 690,
      "Ġresult": 691,
      "Ġtw": 692,
      "Ġthrough": 693,
      "ons": 694,
      "Ġcurrent": 695,
      "Ġcertain": 696,
      "ade": 697,
      "ank": 698,
      "Ġsc": 699,
      "Ġhigh": 700,
      "Ġbec": 701,
      "Ġadv": 702,
      "Ġregul": 703,
      "Ġnon": 704,
      "ily": 705,
      "Ġsecurities": 706,
      "Ġcosts": 707,
      "Ġfair": 708,
      "Ġproducts": 709,
      "Ġsales": 710,
      "loy": 711,
      "erc": 712,
      "olog": 713,
      "ately": 714,
      "Ġbel": 715,
      "Ġann": 716,
      "Ġpol": 717,
      "ults": 718,
      "Ġgeneral": 719,
      "Ġliab": 720,
      "isc": 721,
      "uth": 722,
      "eric": 723,
      "Ġsy": 724,
      "pr": 725,
      "Ġintern": 726,
      "urn": 727,
      "Ġris": 728,
      "Ġbased": 729,
      "oin": 730,
      "Ġcoun": 731,
      "Ġwould": 732,
      "Ġcred": 733,
      "Ġfut": 734,
      "Ġben": 735,
      "Ġrece": 736,
      "Ġsupp": 737,
      "istr": 738,
      "Ġservices": 739,
      "Ġafter": 740,
      "Ġfr": 741,
      "Ġemp": 742,
      "eld": 743,
      "Ġresults": 744,
      "ey": 745,
      "Ġret": 746,
      "ite": 747,
      "Ġbas": 748,
      "ible": 749,
      "Ġwell": 750,
      "Ġdef": 751,
      "ious": 752,
      "Ġcontrol": 753,
      "Ġplay": 754,
      "Ġfuture": 755,
      "Ġgu": 756,
      "ferred": 757,
      "Ġagreement": 758,
      "Ġrecord": 759,
      "Ġsch": 760,
      "Ġoffic": 761,
      "ants": 762,
      "Ġthey": 763,
      "orn": 764,
      "ences": 765,
      "Ġrate": 766,
      "Ġ||": 767,
      "Ġdet": 768,
      "Ġrem": 769,
      "Ġph": 770,
      "ake": 771,
      "ise": 772,
      "Ġmanagement": 773,
      "Ġexpect": 774,
      "arg": 775,
      "Ġshe": 776,
      "we": 777,
      "aterial": 778,
      "Ġestim": 779,
      "Ġdue": 780,
      "br": 781,
      "Ġopt": 782,
      "ustr": 783,
      "inc": 784,
      "Ġdiv": 785,
      "ues": 786,
      "ounts": 787,
      "Ġperform": 788,
      "ively": 789,
      "Ġcredit": 790,
      "Ġinform": 791,
      "Ġmaterial": 792,
      "ile": 793,
      "Ġnum": 794,
      "tern": 795,
      "ection": 796,
      "Ġwhen": 797,
      "bt": 798,
      "aus": 799,
      "itions": 800,
      "Ġpurch": 801,
      "Ġpubl": 802,
      "Ġdistr": 803,
      "Ġsignific": 804,
      "ix": 805,
      "Ġemploy": 806,
      "Ġown": 807,
      "Ġbet": 808,
      "Ġcontract": 809,
      "Ġfac": 810,
      "ys": 811,
      "Ġsignificant": 812,
      "amp": 813,
      "Ġbenef": 814,
      "Ġmat": 815,
      "Ġinformation": 816,
      "Ġrespect": 817,
      "ex": 818,
      "Ġnor": 819,
      "erg": 820,
      "Ġrevenue": 821,
      "ision": 822,
      "Ġcr": 823,
      "land": 824,
      "Ġprovid": 825,
      "Ġproper": 826,
      "Ġcompl": 827,
      "cr": 828,
      "Ġtwo": 829,
      "Ġadditional": 830,
      "ecut": 831,
      "Ġspec": 832,
      "Ġchang": 833,
      "af": 834,
      "aid": 835,
      "Ġabout": 836,
      "Ġav": 837,
      "gin": 838,
      "Ġmin": 839,
      "Ġaccounting": 840,
      "ics": 841,
      "cent": 842,
      "ved": 843,
      "xim": 844,
      "Ġloc": 845,
      "Ġprim": 846,
      "Ġsome": 847,
      "ress": 848,
      "Ġwork": 849,
      "ases": 850,
      "Ġreal": 851,
      "chn": 852,
      "Ġapproxim": 853,
      "ued": 854,
      "Ġpe": 855,
      "Ġpar": 856,
      "Ġitem": 857,
      "ason": 858,
      "ogn": 859,
      "Ġprice": 860,
      "Ġeach": 861,
      "Ġlong": 862,
      "Ġcond": 863,
      "ferences": 864,
      "Ġincrease": 865,
      "Ġwho": 866,
      "Ġactiv": 867,
      "Ġnotes": 868,
      "ild": 869,
      "Ġred": 870,
      "oci": 871,
      "lish": 872,
      "iscal": 873,
      "Ġamount": 874,
      "Ġfiscal": 875,
      "Ġher": 876,
      "Ġstates": 877,
      "ined": 878,
      "Ġequity": 879,
      "ep": 880,
      "gan": 881,
      "olders": 882,
      "ld": 883,
      "Ġmet": 884,
      "verage": 885,
      "Ġsee": 886,
      "Ġfollowing": 887,
      "vern": 888,
      "Ġpat": 889,
      "Ġbu": 890,
      "Ġunited": 891,
      "Ġcorpor": 892,
      "Ġrequire": 893,
      "Ġtechn": 894,
      "Ġexpense": 895,
      "Ġbal": 896,
      "Ġreceiv": 897,
      "Ġameric": 898,
      "Ġexecut": 899,
      "ower": 900,
      "Ġmain": 901,
      "stem": 902,
      "Ġport": 903,
      "con": 904,
      "Ġob": 905,
      "Ġvar": 906,
      "Ġapproximately": 907,
      "Ġdel": 908,
      "ization": 909,
      "Ġjun": 910,
      "ss": 911,
      "ared": 912,
      "Ġnumber": 913,
      "ost": 914,
      "Ġdif": 915,
      "Ġused": 916,
      "ound": 917,
      "Ġdevelopment": 918,
      "Ġcompens": 919,
      "pe": 920,
      "Ġmed": 921,
      "anding": 922,
      "ke": 923,
      "ett": 924,
      "Ġsubject": 925,
      "ified": 926,
      "lic": 927,
      "âĢĻ": 928,
      "Ġhow": 929,
      "Ġsystem": 930,
      "Ġgovern": 931,
      "Ġcent": 932,
      "Ġelect": 933,
      "Ġstate": 934,
      "Ġrecogn": 935,
      "Ġsubs": 936,
      "Ġfund": 937,
      "Ġcompet": 938,
      "Ġlaw": 939,
      "Ġlim": 940,
      "Ġfo": 941,
      "Ġgre": 942,
      "Ġgrow": 943,
      "ween": 944,
      "Ġbank": 945,
      "Ġjan": 946,
      "Ġexpenses": 947,
      "ery": 948,
      "Ġins": 949,
      "Ġcompensation": 950,
      "one": 951,
      "Ġthose": 952,
      "ird": 953,
      "Ġimpact": 954,
      "Ġbetween": 955,
      "Ġliabilities": 956,
      "ivers": 957,
      "Ġchanges": 958,
      "icip": 959,
      "ath": 960,
      "Ġtable": 961,
      "ays": 962,
      "Ġeng": 963,
      "Ġdebt": 964,
      "Ġkn": 965,
      "als": 966,
      "Ġcustomers": 967,
      "Ġprof": 968,
      "Ġearn": 969,
      "gram": 970,
      "Ġflow": 971,
      "Ġloans": 972,
      "Ġfore": 973,
      "Ġmarch": 974,
      "cept": 975,
      "Ġdate": 976,
      "ause": 977,
      "Ġacquis": 978,
      "member": 979,
      "urance": 980,
      "ind": 981,
      "ople": 982,
      "Ġprinc": 983,
      "Ġprogram": 984,
      "ference": 985,
      "Ġel": 986,
      "ered": 987,
      "Ġpublic": 988,
      "Ġgood": 989,
      "Ġannual": 990,
      "Ġexch": 991,
      "ives": 992,
      "Ġrisk": 993,
      "ric": 994,
      "Ġprincip": 995,
      "Ġbro": 996,
      "Ġrequired": 997,
      "references": 998,
      "ork": 999,
      "Ġagain": 1000,
      "ĠĠĠĠĠĠ": 1001,
      "Ġfact": 1002,
      "fore": 1003,
      "ata": 1004,
      "Ġwhere": 1005,
      "Ġjanuary": 1006,
      "Ġsecond": 1007,
      "ional": 1008,
      "Ġed": 1009,
      "ub": 1010,
      "Ġloan": 1011,
      "Ġclass": 1012,
      "ool": 1013,
      "arily": 1014,
      "Ġpos": 1015,
      "Ġservice": 1016,
      "ning": 1017,
      "Ġreporting": 1018,
      "Ġjune": 1019,
      "man": 1020,
      "Ġmod": 1021,
      "Ġassoci": 1022,
      "Ġinvestment": 1023,
      "ah": 1024,
      "cc": 1025,
      "Ġavail": 1026,
      "Ġpers": 1027,
      "iew": 1028,
      "ances": 1029,
      "standing": 1030,
      "idi": 1031,
      "Ġlevel": 1032,
      "ially": 1033,
      "Ġboard": 1034,
      "Ġinst": 1035,
      "Ġlin": 1036,
      "uss": 1037,
      "Ġop": 1038,
      "Ġaward": 1039,
      "oint": 1040,
      "Ġbasis": 1041,
      "ology": 1042,
      "Ġincluded": 1043,
      "Ġthird": 1044,
      "Ġfl": 1045,
      "Ġexchange": 1046,
      "ees": 1047,
      "Ġref": 1048,
      "Ġdeterm": 1049,
      "Ġmade": 1050,
      "Ġallow": 1051,
      "ier": 1052,
      "Ġhist": 1053,
      "holders": 1054,
      "Ġthree": 1055,
      "Ġgroup": 1056,
      "Ġuse": 1057,
      "ceed": 1058,
      "ced": 1059,
      "Ġtransact": 1060,
      "Ġaffect": 1061,
      "Ġbl": 1062,
      "Ġfour": 1063,
      "Ġsubsidi": 1064,
      "Ġext": 1065,
      "Ġsept": 1066,
      "Ġdirectors": 1067,
      "ths": 1068,
      "Ġbelie": 1069,
      "Ġnote": 1070,
      "Ġchar": 1071,
      "ient": 1072,
      "Ġexecutive": 1073,
      "over": 1074,
      "ands": 1075,
      "pl": 1076,
      "ury": 1077,
      "Ġseptember": 1078,
      "Ġissued": 1079,
      "ination": 1080,
      "ick": 1081,
      "Ġrestr": 1082,
      "Ġfed": 1083,
      "ince": 1084,
      "ale": 1085,
      "Ġapplic": 1086,
      "ph": 1087,
      "Ġindustr": 1088,
      "Ġobl": 1089,
      "Ġz": 1090,
      "Ġmost": 1091,
      "pos": 1092,
      "ended": 1093,
      "Ġma": 1094,
      "ball": 1095,
      "ablish": 1096,
      "Ġthen": 1097,
      "Ġadj": 1098,
      "Ġupon": 1099,
      "====": 1100,
      "Ġinclude": 1101,
      "Ġactivities": 1102,
      "Ġcarr": 1103,
      "ife": 1104,
      "ties": 1105,
      "Ġdesign": 1106,
      "ont": 1107,
      "Ġdistribut": 1108,
      "Ġbalance": 1109,
      "Ġfilm": 1110,
      "Ġperformance": 1111,
      "Ġoutstanding": 1112,
      "Ġconsid": 1113,
      "ured": 1114,
      "Ġprimarily": 1115,
      "ize": 1116,
      "Ġoblig": 1117,
      "Ġcal": 1118,
      "ink": 1119,
      "ving": 1120,
      "uf": 1121,
      "hib": 1122,
      "ability": 1123,
      "min": 1124,
      "Ġii": 1125,
      "Ġstand": 1126,
      "Ġprior": 1127,
      "orts": 1128,
      "Ġonly": 1129,
      "Ġvol": 1130,
      "Ġadvers": 1131,
      "te": 1132,
      "ically": 1133,
      "ateg": 1134,
      "ton": 1135,
      "Ġstud": 1136,
      "Ġpurchase": 1137,
      "Ġincreased": 1138,
      "ership": 1139,
      "Ġlosses": 1140,
      "ists": 1141,
      "ief": 1142,
      "Ġnational": 1143,
      "aap": 1144,
      "Ġavailable": 1145,
      "Ġincorpor": 1146,
      "ission": 1147,
      "Ġjo": 1148,
      "Ġgrowth": 1149,
      "Ġestablish": 1150,
      "row": 1151,
      "Ġaud": 1152,
      "Ġremain": 1153,
      "ural": 1154,
      "Ġatt": 1155,
      "Ġproperty": 1156,
      "los": 1157,
      "Ġboth": 1158,
      "Ġchange": 1159,
      "led": 1160,
      "ft": 1161,
      "Ġcomplet": 1162,
      "Ġsm": 1163,
      "Ġdata": 1164,
      "Ġdecre": 1165,
      "Ġleg": 1166,
      "Ġfederal": 1167,
      "ough": 1168,
      "lement": 1169,
      "Ġworld": 1170,
      "Ġrates": 1171,
      "Ġpartn": 1172,
      "Ġprev": 1173,
      "erv": 1174,
      "Ġdem": 1175,
      "ights": 1176,
      "Ġrevenues": 1177,
      "aim": 1178,
      "Ġren": 1179,
      "Ġmus": 1180,
      "Ġregistr": 1181,
      "Ġrecorded": 1182,
      "aries": 1183,
      "Ġ/": 1184,
      "atory": 1185,
      "Ġadjust": 1186,
      "Ġofficer": 1187,
      "Ġprocess": 1188,
      "Ġunivers": 1189,
      "az": 1190,
      "Ġteam": 1191,
      "Ġprovide": 1192,
      "Ġfiled": 1193,
      "Ġpresent": 1194,
      "ĠĠĠĠĠ": 1195,
      "Ġwr": 1196,
      "ars": 1197,
      "ov": 1198,
      "Ġrepres": 1199,
      "Ġjust": 1200,
      "alth": 1201,
      "ces": 1202,
      "Ġsim": 1203,
      "ert": 1204,
      "Ġdeferred": 1205,
      "ying": 1206,
      "Ġtre": 1207,
      "Ġaccord": 1208,
      "Ġpeople": 1209,
      "Ġproject": 1210,
      "ĊĊ": 1211,
      "Ġcall": 1212,
      "ful": 1213,
      "ames": 1214,
      "Ġwithin": 1215,
      "Ġinternal": 1216,
      "Ġschool": 1217,
      "ins": 1218,
      "Ġability": 1219,
      "Ġcommerc": 1220,
      "aph": 1221,
      "Ġqual": 1222,
      "Ġseg": 1223,
      "Ġaverage": 1224,
      "uly": 1225,
      "Ġwhile": 1226,
      "ular": 1227,
      "Ġrespectively": 1228,
      "Ġearnings": 1229,
      "Ġcompan": 1230,
      "Ġrele": 1231,
      "Ġexper": 1232,
      "ufact": 1233,
      "Ġgrant": 1234,
      "term": 1235,
      "earch": 1236,
      "Ġful": 1237,
      "Ġamerican": 1238,
      "uthor": 1239,
      "Ġamounts": 1240,
      "Ġmeas": 1241,
      "Ġinf": 1242,
      "bruary": 1243,
      "Ġoct": 1244,
      "ield": 1245,
      "itut": 1246,
      "com": 1247,
      "Ġmanufact": 1248,
      "Ġoptions": 1249,
      "arm": 1250,
      "ret": 1251,
      "ards": 1252,
      "Ġnov": 1253,
      "Ġcontinue": 1254,
      "Ġterms": 1255,
      "ines": 1256,
      "ober": 1257,
      "Ġcompanies": 1258,
      "Ġfebruary": 1259,
      "uation": 1260,
      "Ġexpected": 1261,
      "Ġcommun": 1262,
      "Ġbeing": 1263,
      "Ġbefore": 1264,
      "ever": 1265,
      "Ġprincipal": 1266,
      "Ġsuc": 1267,
      "Ġeffective": 1268,
      "Ġoffer": 1269,
      "vert": 1270,
      "Ġinit": 1271,
      "Ġseries": 1272,
      "iven": 1273,
      "ends": 1274,
      "Ġagainst": 1275,
      "Ġcommercial": 1276,
      "Ġless": 1277,
      "Ġcour": 1278,
      "Ġreturn": 1279,
      "Ġdivid": 1280,
      "inal": 1281,
      "Ġoctober": 1282,
      "rec": 1283,
      "Ġocc": 1284,
      "Ġacquisition": 1285,
      "Ġsen": 1286,
      "Ġnat": 1287,
      "isting": 1288,
      "Ġbecause": 1289,
      "cl": 1290,
      "Ġclaim": 1291,
      "Ġsing": 1292,
      "Ġant": 1293,
      "Ġfoot": 1294,
      "Ġpolic": 1295,
      "Ġsol": 1296,
      "Ġthem": 1297,
      "Ġgenerally": 1298,
      "Ġassum": 1299,
      "Ġinvestments": 1300,
      "Ġgovernment": 1301,
      "Ġapr": 1302,
      "ev": 1303,
      "Ġtrad": 1304,
      "ergy": 1305,
      "Ġstatement": 1306,
      "Ġart": 1307,
      "Ġheld": 1308,
      "Ġgain": 1309,
      "Ġinternational": 1310,
      "ether": 1311,
      "Ġaug": 1312,
      "Ġlead": 1313,
      "Ġpot": 1314,
      "Ġwhat": 1315,
      "Ġapril": 1316,
      "ina": 1317,
      "Ġsouth": 1318,
      "Ġcompared": 1319,
      "emb": 1320,
      "Ġauthor": 1321,
      "Ġsever": 1322,
      "Ġasset": 1323,
      "Ġrequirements": 1324,
      "Ġback": 1325,
      "he": 1326,
      "Ġder": 1327,
      "Ġjuly": 1328,
      "Ġexhib": 1329,
      "ister": 1330,
      "Ġmake": 1331,
      "ator": 1332,
      "Ġmany": 1333,
      "Ġsale": 1334,
      "Ġbor": 1335,
      "Ġtaxes": 1336,
      "Ġty": 1337,
      "Ġforeign": 1338,
      "Ġcre": 1339,
      "way": 1340,
      "round": 1341,
      "uro": 1342,
      "Ġair": 1343,
      "Ġecon": 1344,
      "Ġnow": 1345,
      "Ġuniversity": 1346,
      "Ġeconom": 1347,
      "Ġreference": 1348,
      "Ġthink": 1349,
      "Ġincorporated": 1350,
      "Ġaugust": 1351,
      "iron": 1352,
      "line": 1353,
      "Ġsupport": 1354,
      "Ġsum": 1355,
      "urch": 1356,
      "Ġpursu": 1357,
      "Ġorgan": 1358,
      "Ġrestrict": 1359,
      "hn": 1360,
      "Ġfacility": 1361,
      "ipment": 1362,
      "Ġimpro": 1363,
      "Ġnorth": 1364,
      "iation": 1365,
      "Ġpresident": 1366,
      "bs": 1367,
      "ium": 1368,
      "Ġhold": 1369,
      "Ġsince": 1370,
      "ik": 1371,
      "Ġlease": 1372,
      "Ġresearch": 1373,
      "Ġimpair": 1374,
      "els": 1375,
      "Ġgas": 1376,
      "Ġcor": 1377,
      "Ġperson": 1378,
      "Ġsuccess": 1379,
      "Ġlife": 1380,
      "Ġchief": 1381,
      "Ġcar": 1382,
      "Ġsell": 1383,
      "based": 1384,
      "Ġhealth": 1385,
      "ages": 1386,
      "Ġnovember": 1387,
      "Ġfactors": 1388,
      "enn": 1389,
      "ential": 1390,
      "Ġdisclos": 1391,
      "urther": 1392,
      "Ġcomb": 1393,
      "Ġbenefit": 1394,
      "val": 1395,
      "ogr": 1396,
      "ety": 1397,
      "Ġsw": 1398,
      "da": 1399,
      "ience": 1400,
      "Ġinstr": 1401,
      "Ġusg": 1402,
      "ann": 1403,
      "Ġge": 1404,
      "Ġemployees": 1405,
      "Ġbuild": 1406,
      "Ġorig": 1407,
      "reg": 1408,
      "Ġhowever": 1409,
      "Ġrecognized": 1410,
      "ouse": 1411,
      "Ġconn": 1412,
      "jor": 1413,
      "ternal": 1414,
      "Ġsubst": 1415,
      "Ġcontents": 1416,
      "ry": 1417,
      "itive": 1418,
      "Ġamort": 1419,
      "xt": 1420,
      "Ġrights": 1421,
      "ival": 1422,
      "Ġcustomer": 1423,
      "Ġadmin": 1424,
      "endent": 1425,
      "Ġflows": 1426,
      "Ġcommitt": 1427,
      "Ġline": 1428,
      "Ġmarkets": 1429,
      "Ġinsurance": 1430,
      "hod": 1431,
      "Ġequipment": 1432,
      "Ġlic": 1433,
      "Ġproceed": 1434,
      "Ġfound": 1435,
      "Ġsur": 1436,
      "ffic": 1437,
      "Ġsent": 1438,
      "Ġsubsidiaries": 1439,
      "ern": 1440,
      "ark": 1441,
      "Ġestimated": 1442,
      "Ġcity": 1443,
      "Ġaccounts": 1444,
      "duc": 1445,
      "Ġpaid": 1446,
      "Ġrepresent": 1447,
      "Ġexerc": 1448,
      "ised": 1449,
      "Ġlast": 1450,
      "Ġorder": 1451,
      "iver": 1452,
      "Ġunt": 1453,
      "Ġprot": 1454,
      "Ġusing": 1455,
      "Ġgener": 1456,
      "Ġdescr": 1457,
      "Ġpercent": 1458,
      "Ġlicens": 1459,
      "Ġdirector": 1460,
      "Ġcare": 1461,
      "Ġhistor": 1462,
      "Ġpayments": 1463,
      "Ġdiffer": 1464,
      "Ġbelieve": 1465,
      "eng": 1466,
      "Ġenv": 1467,
      "port": 1468,
      "Ġcorporation": 1469,
      "Ġpursuant": 1470,
      "vers": 1471,
      "Ġmajor": 1472,
      "Ġfurther": 1473,
      "Ġeval": 1474,
      "Ġtechnology": 1475,
      "Ġmr": 1476,
      "Ġuntil": 1477,
      "Ġvarious": 1478,
      "Ġusgaap": 1479,
      "Ġplans": 1480,
      "Ġindic": 1481,
      "Ġopp": 1482,
      "Ġseason": 1483,
      "Ġfam": 1484,
      "Ġreceived": 1485,
      "Ġdown": 1486,
      "Ġmaintain": 1487,
      "iate": 1488,
      "ograph": 1489,
      "Ġsumm": 1490,
      "Ġcondition": 1491,
      "Ġwar": 1492,
      "sp": 1493,
      "Ġsame": 1494,
      "Ġneed": 1495,
      "Ġenviron": 1496,
      "ra": 1497,
      "Ġstrateg": 1498,
      "Ġforward": 1499,
      "Ġobligations": 1500,
      "ew": 1501,
      "Ġagreements": 1502,
      "ood": 1503,
      "Ġpower": 1504,
      "ling": 1505,
      "Ġimpairment": 1506,
      "cy": 1507,
      "Ġwarr": 1508,
      "ification": 1509,
      "Ġla": 1510,
      "Ġregulatory": 1511,
      "Ġconc": 1512,
      "ending": 1513,
      "par": 1514,
      "opt": 1515,
      "ley": 1516,
      "Ġmeet": 1517,
      "Ġconditions": 1518,
      "ps": 1519,
      "Ġmethod": 1520,
      "fol": 1521,
      "Ġindep": 1522,
      "Ġsection": 1523,
      "Ġproduction": 1524,
      "Ġarr": 1525,
      "ensive": 1526,
      "Ġassociated": 1527,
      "Ġsenior": 1528,
      "Ġadministr": 1529,
      "Ġopen": 1530,
      "Ġlater": 1531,
      "Ġdiscuss": 1532,
      "Ġparty": 1533,
      "Ġindustry": 1534,
      "Ġprovided": 1535,
      "Ġeuro": 1536,
      "Ġliability": 1537,
      "Âł": 1538,
      "Ġfootball": 1539,
      "uments": 1540,
      "Ġtest": 1541,
      "Ġut": 1542,
      "Ġanal": 1543,
      "iving": 1544,
      "de": 1545,
      "Ġbegin": 1546,
      "Ġreview": 1547,
      "aking": 1548,
      "Ġfees": 1549,
      "ency": 1550,
      "Ġtel": 1551,
      "Ġposition": 1552,
      "Ġenvironment": 1553,
      "Ġhim": 1554,
      "Ġplayers": 1555,
      "Ġrest": 1556,
      "ather": 1557,
      "Ġcontinued": 1558,
      "Ġlimited": 1559,
      "Ġsett": 1560,
      "Ġshort": 1561,
      "Ġderiv": 1562,
      "ten": 1563,
      "Ġtransactions": 1564,
      "Ġcontracts": 1565,
      "oll": 1566,
      "Ġamong": 1567,
      "Ġunits": 1568,
      "Ġcoll": 1569,
      "Ġcurrently": 1570,
      "Ġunc": 1571,
      "Ġattr": 1572,
      "Ġreason": 1573,
      "by": 1574,
      "quent": 1575,
      "Ġalb": 1576,
      "Ġthous": 1577,
      "Ġconsum": 1578,
      "Ġcollect": 1579,
      "Ġq": 1580,
      "Ġclos": 1581,
      "Ġinstitut": 1582,
      "uk": 1583,
      "Ġborrow": 1584,
      "struct": 1585,
      "ished": 1586,
      "ulated": 1587,
      "Ġident": 1588,
      "Ġlower": 1589,
      "Ġlinks": 1590,
      "Ġregard": 1591,
      "Ġpop": 1592,
      "uch": 1593,
      "Ġenergy": 1594,
      "Ġestimates": 1595,
      "Ġadopt": 1596,
      "ware": 1597,
      "Ġoption": 1598,
      "uce": 1599,
      "ually": 1600,
      "Ġincur": 1601,
      "Ġobtain": 1602,
      "ven": 1603,
      "Ġdid": 1604,
      "Ġquest": 1605,
      "Ġsold": 1606,
      "Ġmonths": 1607,
      "Ġsystems": 1608,
      "Ġstockholders": 1609,
      "Ġreflect": 1610,
      "Ġlocal": 1611,
      "Ġvery": 1612,
      "isions": 1613,
      "Ġsel": 1614,
      "Ġcountr": 1615,
      "Ġhigher": 1616,
      "Ġcontain": 1617,
      "Ġx": 1618,
      "Ġsegment": 1619,
      "Ġregulations": 1620,
      "Ġborn": 1621,
      "bal": 1622,
      "Ġincludes": 1623,
      "ross": 1624,
      "Ġexhibit": 1625,
      "Ġknown": 1626,
      "Ġmargin": 1627,
      "external": 1628,
      "Ġseveral": 1629,
      "ule": 1630,
      "Ġnext": 1631,
      "Ġparticip": 1632,
      "Ġlike": 1633,
      "Ġpotential": 1634,
      "Ġcounty": 1635,
      "Ġhere": 1636,
      "Ġpost": 1637,
      "Ġsubstant": 1638,
      "Ġrelations": 1639,
      "Ġll": 1640,
      "Ġright": 1641,
      "Ġaff": 1642,
      "not": 1643,
      "Ġjohn": 1644,
      "Ġdepos": 1645,
      "bo": 1646,
      "Ġprevious": 1647,
      "other": 1648,
      "Ġday": 1649,
      "Ġcorporate": 1650,
      "Ġlaws": 1651,
      "Ġmil": 1652,
      "Ġevent": 1653,
      "Ġportfol": 1654,
      "Ġreported": 1655,
      "Ġbelow": 1656,
      "Ġprices": 1657,
      "Ġacquired": 1658,
      "ves": 1659,
      "Ġever": 1660,
      "ilar": 1661,
      "Ġlongterm": 1662,
      "arge": 1663,
      "Ġbenefits": 1664,
      "Ġwin": 1665,
      "Ġprom": 1666,
      "Ġfail": 1667,
      "Ġsmall": 1668,
      "Ġrisks": 1669,
      "Ġfinal": 1670,
      "Ġdecrease": 1671,
      "Ġmort": 1672,
      "Ġarea": 1673,
      "Ġtrust": 1674,
      "Ġaccr": 1675,
      "ness": 1676,
      "will": 1677,
      "Ġfacilities": 1678,
      "Ġsentence": 1679,
      "sh": 1680,
      "Ġmid": 1681,
      "Ġset": 1682,
      "work": 1683,
      "Ġcommission": 1684,
      "iance": 1685,
      "Ġyork": 1686,
      "iter": 1687,
      "Ġaudit": 1688,
      "Ġdoes": 1689,
      "Ġassess": 1690,
      "Ġshow": 1691,
      "ptions": 1692,
      "Ġcommittee": 1693,
      "ention": 1694,
      "Ġclaims": 1695,
      "ients": 1696,
      "Ġdated": 1697,
      "Ġgross": 1698,
      "Ġlist": 1699,
      "Ġhel": 1700,
      "Ġpreferred": 1701,
      "Ġconf": 1702,
      "Ġperiods": 1703,
      "ters": 1704,
      "Ġgoing": 1705,
      "ism": 1706,
      "Ġfinancing": 1707,
      "Ġdescrib": 1708,
      "ove": 1709,
      "Ġexisting": 1710,
      "Ġcontribut": 1711,
      "inated": 1712,
      "ĊĠ": 1713,
      "Ġyour": 1714,
      "Ġconsider": 1715,
      "Ġsimilar": 1716,
      "Ġpayment": 1717,
      "Ġlab": 1718,
      "quid": 1719,
      "Ġpriv": 1720,
      "Ġestablished": 1721,
      "Ġneg": 1722,
      "Ġofficers": 1723,
      "Ġstart": 1724,
      "Ġeurope": 1725,
      "Ġdistrict": 1726,
      "ili": 1727,
      "Ġindependent": 1728,
      "Ġawards": 1729,
      "Ġname": 1730,
      "Ġexc": 1731,
      "Ġinvent": 1732,
      "ru": 1733,
      "Ġformer": 1734,
      "Ġconstruct": 1735,
      "Ġeconomic": 1736,
      "Ġguid": 1737,
      "Ġthousands": 1738,
      "Ġproperties": 1739,
      "ron": 1740,
      "Ġfull": 1741,
      "Ġhome": 1742,
      "Ġinvol": 1743,
      "Ġbir": 1744,
      "Ġes": 1745,
      "ulation": 1746,
      "Ġsecurity": 1747,
      "ai": 1748,
      "Ġevents": 1749,
      "irc": 1750,
      "alf": 1751,
      "ague": 1752,
      "Ġhead": 1753,
      "oking": 1754,
      "greg": 1755,
      "Ġarm": 1756,
      "Ġable": 1757,
      "Ġportfolio": 1758,
      "ension": 1759,
      "Ġbecame": 1760,
      "Ġearly": 1761,
      "Ġnatural": 1762,
      "Ġwhether": 1763,
      "Ġvari": 1764,
      "Ġmemb": 1765,
      "Ġmarketing": 1766,
      "Ġclin": 1767,
      "Ġliquid": 1768,
      "Ġwom": 1769,
      "bur": 1770,
      "Ġfunds": 1771,
      "Ġfive": 1772,
      "Ġmusic": 1773,
      "err": 1774,
      "itical": 1775,
      "ner": 1776,
      "ires": 1777,
      "Ġalbum": 1778,
      "Ġoil": 1779,
      "att": 1780,
      "Ġresour": 1781,
      "ixed": 1782,
      "Ġconvert": 1783,
      "amed": 1784,
      "Ġcharg": 1785,
      "Ġestate": 1786,
      "Ġmult": 1787,
      "Ġprofess": 1788,
      "Ġglo": 1789,
      "Ġproduc": 1790,
      "ules": 1791,
      "unct": 1792,
      "Ġcanad": 1793,
      "ising": 1794,
      "ortun": 1795,
      "Ġstandards": 1796,
      "Ġbre": 1797,
      "ring": 1798,
      "Ġbase": 1799,
      "Ġland": 1800,
      "Ġshould": 1801,
      "Ġhouse": 1802,
      "Ġprem": 1803,
      "Ġcirc": 1804,
      "lex": 1805,
      "Ġlarg": 1806,
      "li": 1807,
      "Ġmortg": 1808,
      "Ġinstruments": 1809,
      "ivid": 1810,
      "Ġprofit": 1811,
      "Ġbest": 1812,
      "Ġapplicable": 1813,
      "Ġdistribution": 1814,
      "Ġlocated": 1815,
      "put": 1816,
      "Ġlarge": 1817,
      "Ġwest": 1818,
      "Ġconsist": 1819,
      "ected": 1820,
      "ipt": 1821,
      "Ġoriginal": 1822,
      "Ġchamp": 1823,
      "iam": 1824,
      "ime": 1825,
      "Ġadversely": 1826,
      "Ġvi": 1827,
      "oper": 1828,
      "go": 1829,
      "Ġconduct": 1830,
      "atives": 1831,
      "Ġrecover": 1832,
      "Ġaustr": 1833,
      "Ġfourth": 1834,
      "reh": 1835,
      "anch": 1836,
      "Ġopportun": 1837,
      "Ġadverse": 1838,
      "ocus": 1839,
      "ral": 1840,
      "imum": 1841,
      "ott": 1842,
      "Ġspecial": 1843,
      "Ġabove": 1844,
      "Ġsk": 1845,
      "Ġfamily": 1846,
      "Ġallowance": 1847,
      "Ġamortization": 1848,
      "Ġweight": 1849,
      "Ġsl": 1850,
      "Ġgoodwill": 1851,
      "Ġsong": 1852,
      "Ġtop": 1853,
      "Ġplac": 1854,
      "Ġdil": 1855,
      "Ġlimit": 1856,
      "Ġarrang": 1857,
      "Ġdividends": 1858,
      "Ġaccordance": 1859,
      "Ġlegal": 1860,
      "Ġdifferent": 1861,
      "ians": 1862,
      "Ġpartic": 1863,
      "Ġbar": 1864,
      "Ġplace": 1865,
      "yn": 1866,
      "Ġrun": 1867,
      "yal": 1868,
      "Ġproced": 1869,
      "Ġportion": 1870,
      "med": 1871,
      "Ġbeginning": 1872,
      "ably": 1873,
      "Ġconnection": 1874,
      "Ġfocus": 1875,
      "ecess": 1876,
      "rehensive": 1877,
      "Ġdemand": 1878,
      "Ġdoll": 1879,
      "hips": 1880,
      "Ġtyp": 1881,
      "Ġaggreg": 1882,
      "co": 1883,
      "Ġdetermined": 1884,
      "ane": 1885,
      "egr": 1886,
      "Ġkey": 1887,
      "Ġoccur": 1888,
      "Ġdescribed": 1889,
      "Ġjud": 1890,
      "Ġindivid": 1891,
      "aff": 1892,
      "Ġvolum": 1893,
      "Ġtit": 1894,
      "Ġexcept": 1895,
      "part": 1896,
      "Ġpolicies": 1897,
      "Ġsour": 1898,
      "Ġevalu": 1899,
      "Ġamended": 1900,
      "Ġdeath": 1901,
      "Ġdays": 1902,
      "Ġcourt": 1903,
      "Ġsoft": 1904,
      "Ġregarding": 1905,
      "Ġunit": 1906,
      "Ġrestricted": 1907,
      "Ġamend": 1908,
      "ave": 1909,
      "Ġfeat": 1910,
      "Ġmember": 1911,
      "Ġllc": 1912,
      "hol": 1913,
      "Ġposs": 1914,
      "Ġintang": 1915,
      "be": 1916,
      "Ġcomprehensive": 1917,
      "Ġach": 1918,
      "Ġmembers": 1919,
      "icing": 1920,
      "Ġleague": 1921,
      "Ġcompon": 1922,
      "ption": 1923,
      "year": 1924,
      "Ġtake": 1925,
      "Ġturn": 1926,
      "Ġpayable": 1927,
      "asing": 1928,
      "ution": 1929,
      "ived": 1930,
      "Ġglobal": 1931,
      "Ġaccept": 1932,
      "Ġcarrying": 1933,
      "Ġgerm": 1934,
      "Ġcle": 1935,
      "Ġrat": 1936,
      "Ġrecent": 1937,
      "Ġentered": 1938,
      "Ġequival": 1939,
      "Ġparticular": 1940,
      "Ġoffice": 1941,
      "Ġmeasure": 1942,
      "Ġclinical": 1943,
      "Ġclub": 1944,
      "Ġgreat": 1945,
      "Ġprovides": 1946,
      "of": 1947,
      "alk": 1948,
      "Ġoffs": 1949,
      "uted": 1950,
      "Ġquestion": 1951,
      "Ġir": 1952,
      "encies": 1953,
      "Ġpa": 1954,
      "Ġstre": 1955,
      "Ġsaf": 1956,
      "Ġexperience": 1957,
      "Ġintegr": 1958,
      "Ġmortgage": 1959,
      "Ġwithout": 1960,
      "Ġrespons": 1961,
      "Ġresources": 1962,
      "Ġregister": 1963,
      "Ġbroad": 1964,
      "ables": 1965,
      "Ġshareholders": 1966,
      "rel": 1967,
      "Ġserved": 1968,
      "Ġcover": 1969,
      "Ġnear": 1970,
      "ify": 1971,
      "Ġbillion": 1972,
      "Ġassumptions": 1973,
      "bert": 1974,
      "Ġgranted": 1975,
      "Ġbrit": 1976,
      "less": 1977,
      "Ġdefined": 1978,
      "Ġknow": 1979,
      "Ġtown": 1980,
      "Ġstrong": 1981,
      "¿½": 1982,
      "ï¿½": 1983,
      "Ġpract": 1984,
      "sequent": 1985,
      "Ġachie": 1986,
      "Ġep": 1987,
      "duction": 1988,
      "Ġissuance": 1989,
      "ories": 1990,
      "Ġcolle": 1991,
      "gress": 1992,
      "Ġeven": 1993,
      "acy": 1994,
      "Ġhed": 1995,
      "aint": 1996,
      "Ġtransaction": 1997,
      "Ġadministrative": 1998,
      "day": 1999,
      "Ġpoint": 2000,
      "Ġvaluation": 2001,
      "Ġwater": 2002,
      "Ġexercise": 2003,
      "Ġdev": 2004,
      "ĠĠĠĠĠĠĠ": 2005,
      "Ġmanufacturing": 2006,
      "Ġtarg": 2007,
      "Ġvers": 2008,
      "Ġcompleted": 2009,
      "Ġaut": 2010,
      "son": 2011,
      "Ġaccording": 2012,
      "Ġconstruction": 2013,
      "Ġprocedures": 2014,
      "Ġproceeds": 2015,
      "uel": 2016,
      "Ġuncertain": 2017,
      "Ġevery": 2018,
      "âĢĵ": 2019,
      "though": 2020,
      "Ġgames": 2021,
      "Ġfixed": 2022,
      "yl": 2023,
      "pro": 2024,
      "Ġengine": 2025,
      "Ġaccess": 2026,
      "Ġsched": 2027,
      "Ġpass": 2028,
      "Ġwon": 2029,
      "ument": 2030,
      "Ġaggregate": 2031,
      "iting": 2032,
      "ators": 2033,
      "Ġfre": 2034,
      "Ġparties": 2035,
      "Ġking": 2036,
      "Ġaustral": 2037,
      "Ġanalys": 2038,
      "Ġsix": 2039,
      "Ġindividual": 2040,
      "ither": 2041,
      "Ġprograms": 2042,
      "Ġvot": 2043,
      "Ġfollows": 2044,
      "Ġlow": 2045,
      "Ġsuper": 2046,
      "Ġcontrols": 2047,
      "ri": 2048,
      "aren": 2049,
      "Ġreduc": 2050,
      "Ġcommit": 2051,
      "Ġra": 2052,
      "Ġalthough": 2053,
      "Ġtrial": 2054,
      "ck": 2055,
      "Ġaround": 2056,
      "igation": 2057,
      "Ġmill": 2058,
      "Ġworking": 2059,
      "Ġenter": 2060,
      "Ġweighted": 2061,
      "acks": 2062,
      "Ġmy": 2063,
      "Ġbi": 2064,
      "Ġincent": 2065,
      "Ġdecl": 2066,
      "Ġcand": 2067,
      "Ġsuccessful": 2068,
      "Ġinitial": 2069,
      "Ġste": 2070,
      "Ġimport": 2071,
      "Ġvest": 2072,
      "reciation": 2073,
      "thers": 2074,
      "Ġapproval": 2075,
      "Ġpet": 2076,
      "Ġsingle": 2077,
      "Ġamerica": 2078,
      "Ġcurrency": 2079,
      "Ġmust": 2080,
      "Ġincurred": 2081,
      "ms": 2082,
      "Ġanticip": 2083,
      "Ġmonth": 2084,
      "Ġchampions": 2085,
      "iet": 2086,
      "ae": 2087,
      "Ġsoc": 2088,
      "Ġther": 2089,
      "Ġdisclosure": 2090,
      "Ġcontinu": 2091,
      "Ġreserv": 2092,
      "Ġeduc": 2093,
      "Ġfile": 2094,
      "Ġremaining": 2095,
      "Ġcert": 2096,
      "Ġsoftware": 2097,
      "Ġguidance": 2098,
      "Ġowned": 2099,
      "side": 2100,
      "Ġreleased": 2101,
      "Ġaccrued": 2102,
      "Ġaccom": 2103,
      "Ġsat": 2104,
      "Ġlik": 2105,
      "arant": 2106,
      "ne": 2107,
      "Ġlevels": 2108,
      "Ġdom": 2109,
      "Ġregistrant": 2110,
      "Ġhelp": 2111,
      "Ġten": 2112,
      "int": 2113,
      "Ġdivision": 2114,
      "Ġbook": 2115,
      "back": 2116,
      "Ġperm": 2117,
      "Ġpast": 2118,
      "Ġnecess": 2119,
      "Ġeff": 2120,
      "Ġbecome": 2121,
      "Ġstill": 2122,
      "Ġprivate": 2123,
      "ino": 2124,
      "Ġroyal": 2125,
      "Ġactual": 2126,
      "Ġtem": 2127,
      "Ġleases": 2128,
      "Ġtreat": 2129,
      "let": 2130,
      "Ġhum": 2131,
      "Ġwhol": 2132,
      "Ġnamed": 2133,
      "wh": 2134,
      "Ġprep": 2135,
      "Ġdeb": 2136,
      "ibility": 2137,
      "Ġpreviously": 2138,
      "Ġtrain": 2139,
      "Ġalong": 2140,
      "Ġarch": 2141,
      "Ġbuilding": 2142,
      "Ġemployee": 2143,
      "Ġhistory": 2144,
      "Ġconsidered": 2145,
      "Ġdepart": 2146,
      "Ġanalysis": 2147,
      "ucture": 2148,
      "iforn": 2149,
      "Ġrange": 2150,
      "Ġintangible": 2151,
      "Ġacquisitions": 2152,
      "ison": 2153,
      "Ġcandid": 2154,
      "aft": 2155,
      "Ġannoun": 2156,
      "Ġgiven": 2157,
      "erve": 2158,
      "Ġchild": 2159,
      "Ġoffset": 2160,
      "lying": 2161,
      "Ġdam": 2162,
      "Ġrad": 2163,
      "fficient": 2164,
      "apan": 2165,
      "vement": 2166,
      "Ġoverall": 2167,
      "ute": 2168,
      "Ġmuch": 2169,
      "Ġcy": 2170,
      "Ġgame": 2171,
      "app": 2172,
      "Ġownership": 2173,
      "Ġcompliance": 2174,
      "ittle": 2175,
      "Ġpo": 2176,
      "Ġattribut": 2177,
      "Ġtechnolog": 2178,
      "Ġcase": 2179,
      "cast": 2180,
      "ler": 2181,
      "Ġcamp": 2182,
      "Ġcaliforn": 2183,
      "Ġmodel": 2184,
      "Ġenvironmental": 2185,
      "lation": 2186,
      "Ġretail": 2187,
      "Ġcharact": 2188,
      "Ġimplement": 2189,
      "Ġchr": 2190,
      "itor": 2191,
      "========": 2192,
      "Ġspecific": 2193,
      "Ġresulting": 2194,
      "Ġpartnership": 2195,
      "pany": 2196,
      "Ġeast": 2197,
      "Ġtak": 2198,
      "ym": 2199,
      "Ġmatur": 2200,
      "anks": 2201,
      "Ġmag": 2202,
      "uck": 2203,
      "Ġsubsequent": 2204,
      "Ġanother": 2205,
      "Ġdrug": 2206,
      "Ġrepl": 2207,
      "Ġreports": 2208,
      "Ġguarant": 2209,
      "ĠĠĊ": 2210,
      "Ġeither": 2211,
      "nel": 2212,
      "eck": 2213,
      "hing": 2214,
      "Ġcenter": 2215,
      "irement": 2216,
      "Ġbusinesses": 2217,
      "Ġbegan": 2218,
      "Ġprovision": 2219,
      "Ġprovisions": 2220,
      "Ġread": 2221,
      "Ġlittle": 2222,
      "Ġcalifornia": 2223,
      "Ġcalc": 2224,
      "Ġcapac": 2225,
      "Ġinventory": 2226,
      "Ġwarrants": 2227,
      "Ġpark": 2228,
      "Ġmatters": 2229,
      "evision": 2230,
      "Ġway": 2231,
      "Ġreceivable": 2232,
      "ds": 2233,
      "Ġrepurch": 2234,
      "aster": 2235,
      "itted": 2236,
      "poses": 2237,
      "Ġjoin": 2238,
      "Ġreduce": 2239,
      "Ġbeh": 2240,
      "Ġsupply": 2241,
      "Ġplayed": 2242,
      "Ġsqu": 2243,
      "Ġexpos": 2244,
      "Ġill": 2245,
      "itten": 2246,
      "Ġrequires": 2247,
      "itors": 2248,
      "Ġfilms": 2249,
      "Ġquarterly": 2250,
      "read": 2251,
      "Ġcharge": 2252,
      "sue": 2253,
      "yle": 2254,
      "Ġpred": 2255,
      "Ġsaid": 2256,
      "Ġwee": 2257,
      "Ġbritish": 2258,
      "ob": 2259,
      "avor": 2260,
      "Ġhistorical": 2261,
      "Ġsubsidiary": 2262,
      "Ġvill": 2263,
      "Ġsf": 2264,
      "ilt": 2265,
      "sel": 2266,
      "Ġdoc": 2267,
      "Ġchurch": 2268,
      "Ġsepar": 2269,
      "Ġcalled": 2270,
      "Ġve": 2271,
      "itures": 2272,
      "Ġreasonable": 2273,
      "cil": 2274,
      "Ġsan": 2275,
      "Ġalloc": 2276,
      "eler": 2277,
      "Ġcollege": 2278,
      "Ġpurposes": 2279,
      "Ġbirths": 2280,
      "Ġmedical": 2281,
      "Ġpolicy": 2282,
      "Ġord": 2283,
      "que": 2284,
      "Ġareas": 2285,
      "Ġcombination": 2286,
      "wards": 2287,
      "oints": 2288,
      "umulated": 2289,
      "Ġincentive": 2290,
      "Ġvir": 2291,
      "Ġquality": 2292,
      "century": 2293,
      "col": 2294,
      "Ġnetwork": 2295,
      "enced": 2296,
      "Ġiii": 2297,
      "Ġdepreciation": 2298,
      "Ġdiff": 2299,
      "Ġcause": 2300,
      "Ġsheet": 2301,
      "ï¿½ï¿½": 2302,
      "off": 2303,
      "Ġdiscount": 2304,
      "Ġpercentage": 2305,
      "Ġmaterially": 2306,
      "Ġplant": 2307,
      "Ġfield": 2308,
      "Ġconst": 2309,
      "Ġreserves": 2310,
      "Ġpen": 2311,
      "ille": 2312,
      "Ġgeor": 2313,
      "Ġvice": 2314,
      "Ġsit": 2315,
      "Ġgains": 2316,
      "osp": 2317,
      "au": 2318,
      "holder": 2319,
      "Ġaffected": 2320,
      "ipp": 2321,
      "Ġtimes": 2322,
      "Ġapproved": 2323,
      "Ġlit": 2324,
      "Ġexpend": 2325,
      "Ġconsumer": 2326,
      "Ġwebs": 2327,
      "Ġutil": 2328,
      "wor": 2329,
      "Ġretain": 2330,
      "Ġderivative": 2331,
      "Ġhol": 2332,
      "Ġadjusted": 2333,
      "omet": 2334,
      "Ġjapan": 2335,
      "ĠĠĠĠĠĠĠĠĠĠ": 2336,
      "Ġcharges": 2337,
      "Ġmean": 2338,
      "Ġrevol": 2339,
      "Ġget": 2340,
      "Ġstation": 2341,
      "equ": 2342,
      "Ġtrade": 2343,
      "Ġassurance": 2344,
      "Ġtarget": 2345,
      "Ġactivity": 2346,
      "ones": 2347,
      "Ġrules": 2348,
      "Ġexcess": 2349,
      "Ġbill": 2350,
      "Ġrail": 2351,
      "emic": 2352,
      "Ġgold": 2353,
      "Ġgl": 2354,
      "Ġequivalents": 2355,
      "ung": 2356,
      "Ġassociation": 2357,
      "Ġhand": 2358,
      "Ġconvertible": 2359,
      "Ġpress": 2360,
      "Ġregistered": 2361,
      "Ġoffering": 2362,
      "see": 2363,
      "Ġgreater": 2364,
      "ama": 2365,
      "Ġcareer": 2366,
      "Ġmer": 2367,
      "itic": 2368,
      "ges": 2369,
      "Ġmanagements": 2370,
      "ography": 2371,
      "ana": 2372,
      "Ġthings": 2373,
      "Ġsfas": 2374,
      "americ": 2375,
      "Ġpartners": 2376,
      "wr": 2377,
      "utions": 2378,
      "Ġpatent": 2379,
      "atic": 2380,
      "ense": 2381,
      "Ġhy": 2382,
      "Ġroad": 2383,
      "Ġcompetition": 2384,
      "Ġcommunity": 2385,
      "Ġmich": 2386,
      "Ġplat": 2387,
      "icult": 2388,
      "ĠâĢĶ": 2389,
      "wise": 2390,
      "Ġmerg": 2391,
      "Ġcompar": 2392,
      "rop": 2393,
      "ats": 2394,
      "Ġstandard": 2395,
      "Ġwritten": 2396,
      "Ġexclud": 2397,
      "Ġtra": 2398,
      "Ġtelevision": 2399,
      "Ġinterests": 2400,
      "Ġlook": 2401,
      "Ġprimary": 2402,
      "Ġrom": 2403,
      "Ġage": 2404,
      "Ġhar": 2405,
      "Ġpoints": 2406,
      "Ġincreases": 2407,
      "Ġyes": 2408,
      "Ġprofessional": 2409,
      "Ġlicense": 2410,
      "Ġdiscussion": 2411,
      "looking": 2412,
      "Ġrelating": 2413,
      "idential": 2414,
      "Ġdeliv": 2415,
      "Ġequal": 2416,
      "Ġreceive": 2417,
      "Ġlikely": 2418,
      "Ġconvers": 2419,
      "Ġspace": 2420,
      "Ġriver": 2421,
      "Ġamendment": 2422,
      "Ġaccumulated": 2423,
      "ering": 2424,
      "Ġappear": 2425,
      "Ġreserve": 2426,
      "lor": 2427,
      "ford": 2428,
      "Ġmot": 2429,
      "Ġsignificantly": 2430,
      "Ġhalf": 2431,
      "Ġdispos": 2432,
      "Ġexamp": 2433,
      "ese": 2434,
      "Ġcompetitive": 2435,
      "Ġaction": 2436,
      "Ġacross": 2437,
      "Ġisland": 2438,
      "Ġdav": 2439,
      "Ġdifficult": 2440,
      "ĠĠĠĠĠĠĠĠĠ": 2441,
      "oph": 2442,
      "aged": 2443,
      "Ġrule": 2444,
      "Ġfas": 2445,
      "na": 2446,
      "ham": 2447,
      "Ġcapacity": 2448,
      "ores": 2449,
      "Ġforwardlooking": 2450,
      "Ġpricing": 2451,
      "Ġpromot": 2452,
      "Ġthank": 2453,
      "care": 2454,
      "Ġside": 2455,
      "Ġsubstantial": 2456,
      "Ġcannot": 2457,
      "Ġsettlement": 2458,
      "rench": 2459,
      "Ġvolume": 2460,
      "Ġvis": 2461,
      "Ġexpress": 2462,
      "Ġliquidity": 2463,
      "Ġdiluted": 2464,
      "unch": 2465,
      "Ġchina": 2466,
      "ico": 2467,
      "Ġreally": 2468,
      "alized": 2469,
      "Ġcircum": 2470,
      "Ġregulation": 2471,
      "Ġherein": 2472,
      "Ġpension": 2473,
      "Ġfunct": 2474,
      "Ġfree": 2475,
      "Ġmatch": 2476,
      "Ġdi": 2477,
      "Ġang": 2478,
      "Ġselling": 2479,
      "Ġstrategy": 2480,
      "ining": 2481,
      "izes": 2482,
      "Ġdesigned": 2483,
      "Ġnecessary": 2484,
      "Ġden": 2485,
      "Ġimportant": 2486,
      "Ġopin": 2487,
      "Ġthough": 2488,
      "angu": 2489,
      "Ġvalues": 2490,
      "Ġpurchased": 2491,
      "iption": 2492,
      "Ġphys": 2493,
      "dr": 2494,
      "Ġdou": 2495,
      "me": 2496,
      "Ġsite": 2497,
      "idge": 2498,
      "Ġintro": 2499,
      "enture": 2500,
      "Ġannounced": 2501,
      "Ġtex": 2502,
      "Ġmor": 2503,
      "Ġjoint": 2504,
      "atively": 2505,
      "Ġcontinuing": 2506,
      "Ġtitle": 2507,
      "Ġprob": 2508,
      "uther": 2509,
      "Ġpresented": 2510,
      "Ġmaterials": 2511,
      "Ġpersonnel": 2512,
      "Ġsolutions": 2513,
      "aud": 2514,
      "Ġmiss": 2515,
      "Ġmaking": 2516,
      "Ġsafety": 2517,
      "Ġotherwise": 2518,
      "Ġblack": 2519,
      "Ġconsult": 2520,
      "Ġwebsite": 2521,
      "sc": 2522,
      "Ġtechnologies": 2523,
      "Ġarrangements": 2524,
      "Ġwilliam": 2525,
      "Ġcountry": 2526,
      "Ġmax": 2527,
      "american": 2528,
      "Ġok": 2529,
      "Ġadjustments": 2530,
      "Ġcentral": 2531,
      "Ġcommunic": 2532,
      "Ġdepartment": 2533,
      "Ġreduction": 2534,
      "Ġexpenditures": 2535,
      "Ġmultip": 2536,
      "Ġtrading": 2537,
      "Ġmal": 2538,
      "Ġreduced": 2539,
      "Ġestimate": 2540,
      "Ġbanks": 2541,
      "atch": 2542,
      "estern": 2543,
      "Ġce": 2544,
      "Ġsubm": 2545,
      "Ġextent": 2546,
      "Ġothers": 2547,
      "Ġkind": 2548,
      "Ġlib": 2549,
      "Ġdeposits": 2550,
      "idence": 2551,
      "Ġpopulation": 2552,
      "Ġdig": 2553,
      "itary": 2554,
      "Ġpropos": 2555,
      "Ġtransport": 2556,
      "Ġcateg": 2557,
      "Ġelectric": 2558,
      "Ġefforts": 2559,
      "ects": 2560,
      "Ġchrist": 2561,
      "ene": 2562,
      "Ġdecreased": 2563,
      "Ġrefer": 2564,
      "Ġexceed": 2565,
      "Ġcode": 2566,
      "hold": 2567,
      "Ġpublished": 2568,
      "Ġcanada": 2569,
      "Ġson": 2570,
      "Ġhaving": 2571,
      "people": 2572,
      "Ġreach": 2573,
      "mal": 2574,
      "Ġstaff": 2575,
      "Ġcircumst": 2576,
      "Ġacceler": 2577,
      "Ġregistrants": 2578,
      "Ġfirm": 2579,
      "Ġuk": 2580,
      "Ġdeveloped": 2581,
      "Ġadopted": 2582,
      "ma": 2583,
      "Ġunion": 2584,
      "ublic": 2585,
      "ody": 2586,
      "Ġcanc": 2587,
      "Ġtook": 2588,
      "ger": 2589,
      "Ġcharacter": 2590,
      "Ġbuilt": 2591,
      "izations": 2592,
      "Ġoutside": 2593,
      "uis": 2594,
      "Ġsay": 2595,
      "Ġruss": 2596,
      "Ġrelationships": 2597,
      "acc": 2598,
      "itch": 2599,
      "Ġafric": 2600,
      "Ġfew": 2601,
      "Ġterr": 2602,
      "Ġmun": 2603,
      "Ġtren": 2604,
      "Ġold": 2605,
      "Ġchair": 2606,
      "Ġrecognition": 2607,
      "Ġattributable": 2608,
      "Ġforth": 2609,
      "bit": 2610,
      "Ġitems": 2611,
      "Ġstreet": 2612,
      "Ġcountries": 2613,
      "Ġcircumstances": 2614,
      "Ġopportunities": 2615,
      "Ġ//": 2616,
      "iff": 2617,
      "Ġlet": 2618,
      "ael": 2619,
      "ios": 2620,
      "Ġopinion": 2621,
      "Ġappropr": 2622,
      "Ġwant": 2623,
      "Ġcomput": 2624,
      "Ġleast": 2625,
      "Ġplus": 2626,
      "Ġpossible": 2627,
      "Ġpremium": 2628,
      "Ġfee": 2629,
      "Ġmedic": 2630,
      "Ġded": 2631,
      "Ġdollars": 2632,
      "Ġjudg": 2633,
      "Ġholders": 2634,
      "Ġwomen": 2635,
      "lier": 2636,
      "Ġprojects": 2637,
      "lu": 2638,
      "Ġactions": 2639,
      "ĠĊĊ": 2640,
      "Ġunable": 2641,
      "Ġconting": 2642,
      "Ġvide": 2643,
      "ondon": 2644,
      "oks": 2645,
      "Ġunre": 2646,
      "Ġnonc": 2647,
      "Ġdecline": 2648,
      "Ġlitigation": 2649,
      "abor": 2650,
      "Ġissue": 2651,
      "Ġcult": 2652,
      "Ġplatform": 2653,
      "Ġsocial": 2654,
      "Ġobs": 2655,
      "Ġer": 2656,
      "Ġwarrant": 2657,
      "Ġcommitments": 2658,
      "Ġlabor": 2659,
      "Ġfda": 2660,
      "Ġminimum": 2661,
      "Ġenglish": 2662,
      "ara": 2663,
      "jo": 2664,
      "party": 2665,
      "Ġflo": 2666,
      "Ġship": 2667,
      "Ġoften": 2668,
      "Ġratio": 2669,
      "Ġcaus": 2670,
      "Ġband": 2671,
      "inary": 2672,
      "Ġrecords": 2673,
      "Ġtog": 2674,
      "Ġtherefore": 2675,
      "ape": 2676,
      "Ġcompos": 2677,
      "mp": 2678,
      "vest": 2679,
      "Ġsav": 2680,
      "Ġiniti": 2681,
      "Ġyoun": 2682,
      "Ġalign": 2683,
      "vements": 2684,
      "Ġcollater": 2685,
      "Ġhuman": 2686,
      "Ġbasic": 2687,
      "Ġmis": 2688,
      "Ġdetermine": 2689,
      "Ġhot": 2690,
      "Ġlat": 2691,
      "ani": 2692,
      "going": 2693,
      "Ġaccompany": 2694,
      "Ġexample": 2695,
      "ull": 2696,
      "erson": 2697,
      "puts": 2698,
      "Ġdon": 2699,
      "gen": 2700,
      "ored": 2701,
      "izing": 2702,
      "clus": 2703,
      "Ġaddress": 2704,
      "Ġcomponents": 2705,
      "Ġprinciples": 2706,
      "Ġeducation": 2707,
      "Ġfailure": 2708,
      "Ġentities": 2709,
      "Ġemployment": 2710,
      "to": 2711,
      "Ġlot": 2712,
      "Ġcentury": 2713,
      "Ġfully": 2714,
      "Ġchall": 2715,
      "Ġapplications": 2716,
      "Ġadvert": 2717,
      "Ġsecured": 2718,
      "eal": 2719,
      "Ġtogether": 2720,
      "inued": 2721,
      "akes": 2722,
      "Ġexpand": 2723,
      "Ġcur": 2724,
      "Ġple": 2725,
      "Ġspe": 2726,
      "Ġlondon": 2727,
      "Ġhear": 2728,
      "Ġbrand": 2729,
      "Ġregion": 2730,
      "ged": 2731,
      "lied": 2732,
      "Ġdetail": 2733,
      "ony": 2734,
      "arters": 2735,
      "xy": 2736,
      "Ġciv": 2737,
      "Ġcop": 2738,
      "ises": 2739,
      "omm": 2740,
      "Ġreplac": 2741,
      "Ġrelease": 2742,
      "Ġeas": 2743,
      "Ġfavor": 2744,
      "Ġaccompanying": 2745,
      "ems": 2746,
      "Ġholding": 2747,
      "Ġapproach": 2748,
      "Ġstor": 2749,
      "Ġpatients": 2750,
      "Ġaltern": 2751,
      "Ġpositions": 2752,
      "Ġaffili": 2753,
      "Ġborrowings": 2754,
      "itional": 2755,
      "Ġeuropean": 2756,
      "Ġtexas": 2757,
      "Ġmc": 2758,
      "umb": 2759,
      "iveness": 2760,
      "uthern": 2761,
      "Ġobligation": 2762,
      "Ġbig": 2763,
      "Ġtoday": 2764,
      "Ġfinance": 2765,
      "Ġled": 2766,
      "ze": 2767,
      "Ġsil": 2768,
      "Ġentity": 2769,
      "Ġautom": 2770,
      "augh": 2771,
      "Ġlegis": 2772,
      "Ġprotection": 2773,
      "Ġmajority": 2774,
      "Ġcup": 2775,
      "umn": 2776,
      "Ġnav": 2777,
      "Ġput": 2778,
      "Ġsubstantially": 2779,
      "Ġbenefic": 2780,
      "ourn": 2781,
      "Ġcandidates": 2782,
      "Ġobject": 2783,
      "head": 2784,
      "Ġseek": 2785,
      "Ġconversion": 2786,
      "Ġlines": 2787,
      "aps": 2788,
      "Ġview": 2789,
      "Ġapplication": 2790,
      "Ġtalk": 2791,
      "Ġstep": 2792,
      "mark": 2793,
      "ift": 2794,
      "Ġtreatment": 2795,
      "Ġforce": 2796,
      "Ġcontractual": 2797,
      "Ġadequ": 2798,
      "ault": 2799,
      "Ġbur": 2800,
      "Ġcompetitors": 2801,
      "Ġrock": 2802,
      "Ġindicate": 2803,
      "Ġital": 2804,
      "Ġpersonal": 2805,
      "cont": 2806,
      "Ġchildren": 2807,
      "Ġdividend": 2808,
      "Ġlight": 2809,
      "hist": 2810,
      "Ġdeg": 2811,
      "Ġcarry": 2812,
      "porary": 2813,
      "Ġelection": 2814,
      "Ġviol": 2815,
      "Ġholdings": 2816,
      "Ġthats": 2817,
      "Ġconsideration": 2818,
      "Ġincreasing": 2819,
      "Ġphil": 2820,
      "Ġadoption": 2821,
      "Ġindian": 2822,
      "Ġpharm": 2823,
      "Ġhosp": 2824,
      "Ġdiscont": 2825,
      "burg": 2826,
      "Ġfrench": 2827,
      "Ġdied": 2828,
      "Ġcheck": 2829,
      "Ġcomplete": 2830,
      "Ġsupplement": 2831,
      "Ġinstitutions": 2832,
      "Ġsouthern": 2833,
      "anced": 2834,
      "Ġpolitical": 2835,
      "tenance": 2836,
      "Ġoperation": 2837,
      "Ġclosing": 2838,
      "ground": 2839,
      "Ġjur": 2840,
      "Ġpip": 2841,
      "Ġintel": 2842,
      "Ġissues": 2843,
      "Ġarmy": 2844,
      "Ġvillage": 2845,
      "Ġbetter": 2846,
      "after": 2847,
      "Ġmeeting": 2848,
      "Ġcross": 2849,
      "Ġvict": 2850,
      "Ġrich": 2851,
      "Ġrestruct": 2852,
      "Ġmaintenance": 2853,
      "Ġund": 2854,
      "dom": 2855,
      "ective": 2856,
      "Ġoperate": 2857,
      "Ġcouncil": 2858,
      "Ġleft": 2859,
      "imate": 2860,
      "sk": 2861,
      "Ġdirectly": 2862,
      "Ġadvis": 2863,
      "Ġindex": 2864,
      "Ġspecies": 2865,
      "Ġmac": 2866,
      "Ġsufficient": 2867,
      "Ġchann": 2868,
      "Ġfasb": 2869,
      "Ġsoci": 2870,
      "Ġu": 2871,
      "Ġupd": 2872,
      "Ġsegments": 2873,
      "Ġtrack": 2874,
      "isf": 2875,
      "Ġfood": 2876,
      "Ġdeposit": 2877,
      "ope": 2878,
      "Ġacad": 2879,
      "Ġdisclosures": 2880,
      "ania": 2881,
      "ca": 2882,
      "Ġlaunch": 2883,
      "Ġassist": 2884,
      "Ġens": 2885,
      "Ġhon": 2886,
      "Ġeffects": 2887,
      "ging": 2888,
      "Ġmedia": 2889,
      "iring": 2890,
      "Ġperformed": 2891,
      "Ġadditionally": 2892,
      "Ġattract": 2893,
      "Ġvolat": 2894,
      "Ġdeal": 2895,
      "bor": 2896,
      "Ġmex": 2897,
      "Ġthroughout": 2898,
      "Ġpal": 2899,
      "Ġinvestors": 2900,
      "Ġassessment": 2901,
      "eth": 2902,
      "Ġmass": 2903,
      "Ġcollabor": 2904,
      "ned": 2905,
      "issions": 2906,
      "Ġappoint": 2907,
      "Ġplayer": 2908,
      "Ġrenew": 2909,
      "Ġcell": 2910,
      "Ġnature": 2911,
      "Ġsyn": 2912,
      "Ġgreen": 2913,
      "Ġactive": 2914,
      "hic": 2915,
      "Ġproduced": 2916,
      "Ġbit": 2917,
      "Ġcourse": 2918,
      "Ġexperi": 2919,
      "aur": 2920,
      "Ġvo": 2921,
      "related": 2922,
      "Ġtreas": 2923,
      "Ġlate": 2924,
      "Ġdefin": 2925,
      "Ġgerman": 2926,
      "Ġvideo": 2927,
      "Ġiv": 2928,
      "Ġfunding": 2929,
      "Ġinn": 2930,
      "Ġappropriate": 2931,
      "Ġmanufactur": 2932,
      "Ġtypically": 2933,
      "Ġhospital": 2934,
      "ida": 2935,
      "Ġrepurchase": 2936,
      "Ġasc": 2937,
      "Ġlonger": 2938,
      "Ġsources": 2939,
      "Ġmaturity": 2940,
      "Ġmight": 2941,
      "illed": 2942,
      "Ġsigned": 2943,
      "Ġsus": 2944,
      "Ġtype": 2945,
      "Ġclear": 2946,
      "iction": 2947,
      "Ġretirement": 2948,
      "Ġhard": 2949,
      "ban": 2950,
      "Ġround": 2951,
      "Ġmerger": 2952,
      "ature": 2953,
      "uations": 2954,
      "ras": 2955,
      "Ġjourn": 2956,
      "ides": 2957,
      "Ġneeds": 2958,
      "Ġweek": 2959,
      "Ġintellect": 2960,
      "Ġstrategic": 2961,
      "Ġult": 2962,
      "Ġfluct": 2963,
      "Ġfuel": 2964,
      "Ġpartner": 2965,
      "Ġlt": 2966,
      "Ġenh": 2967,
      "Ġaccepted": 2968,
      "Ġwal": 2969,
      "Ġyield": 2970,
      "Ġresulted": 2971,
      "Ġcard": 2972,
      "emp": 2973,
      "Ġofficial": 2974,
      "eep": 2975,
      "Ġintellectual": 2976,
      "Ġprevent": 2977,
      "Ġstockbased": 2978,
      "Ġevaluation": 2979,
      "Ġstar": 2980,
      "Ġgrad": 2981,
      "Ġaustralia": 2982,
      "Ġworks": 2983,
      "Ġregistration": 2984,
      "ĠĊĠĊ": 2985,
      "Ġtaken": 2986,
      "Ġenc": 2987,
      "Ġwestern": 2988,
      "Ġvehic": 2989,
      "anguage": 2990,
      "Ġeth": 2991,
      "Ġmilitary": 2992,
      "Ġcivil": 2993,
      "icipal": 2994,
      "Ġauthorized": 2995,
      "Ġelected": 2996,
      "Ġstudies": 2997,
      "iers": 2998,
      "Ġap": 2999,
      "Ġhighly": 3000,
      "Ġrealized": 3001,
      "Ġwind": 3002,
      "ll": 3003,
      "Ġpret": 3004,
      "Ġindustrial": 3005,
      "operator": 3006,
      "Ġpurchases": 3007,
      "aging": 3008,
      "Ġprogress": 3009,
      "isd": 3010,
      "Ġsatisf": 3011,
      "vent": 3012,
      "fr": 3013,
      "Ġcoverage": 3014,
      "Ġbelieves": 3015,
      "ville": 3016,
      "Ġshortterm": 3017,
      "emed": 3018,
      "Ġtransfer": 3019,
      "Ġcases": 3020,
      "Ġgot": 3021,
      "Ġstudy": 3022,
      "Ġsomet": 3023,
      "Ġcollateral": 3024,
      "Ġstyle": 3025,
      "Ġyoung": 3026,
      "Ġdu": 3027,
      "Ġmix": 3028,
      "empt": 3029,
      "ha": 3030,
      "elf": 3031,
      "Ġmem": 3032,
      "Ġsecret": 3033,
      "Ġresidential": 3034,
      "Ġdist": 3035,
      "ways": 3036,
      "Ġwhite": 3037,
      "Ġmultiple": 3038,
      "Ġpartially": 3039,
      "ike": 3040,
      "Ġpenn": 3041,
      "Ġnom": 3042,
      "living": 3043,
      "arch": 3044,
      "eline": 3045,
      "ustain": 3046,
      "Ġgroups": 3047,
      "ming": 3048,
      "field": 3049,
      "ask": 3050,
      "Ġcam": 3051,
      "Ġsummary": 3052,
      "Ġcast": 3053,
      "fe": 3054,
      "Ġelectron": 3055,
      "lies": 3056,
      "Ġfall": 3057,
      "Ġprosp": 3058,
      "Ġorganization": 3059,
      "Ġdavid": 3060,
      "oth": 3061,
      "Ġunderlying": 3062,
      "Ġteams": 3063,
      "Ġcreated": 3064,
      "Ġpatents": 3065,
      "Ġtro": 3066,
      "Ġadjustment": 3067,
      "Ġradio": 3068,
      "Ġcoup": 3069,
      "Ġweve": 3070,
      "lin": 3071,
      "Ġmeasures": 3072,
      "Ġchampionship": 3073,
      "Ġinstall": 3074,
      "Ġsummer": 3075,
      "Ġconference": 3076,
      "unt": 3077,
      "Ġhost": 3078,
      "Ġtur": 3079,
      "Ġrole": 3080,
      "Ġdocument": 3081,
      "rupt": 3082,
      "Ġquant": 3083,
      "Ġbond": 3084,
      "Ġproviding": 3085,
      "Ġunrealized": 3086,
      "Ġemerg": 3087,
      "Ġmoney": 3088,
      "Ġnone": 3089,
      "view": 3090,
      "ifying": 3091,
      "Ġrepublic": 3092,
      "Ġlargest": 3093,
      "Ġdiscussed": 3094,
      "inations": 3095,
      "Ġjurisd": 3096,
      "wide": 3097,
      "thern": 3098,
      "Ġmunicipal": 3099,
      "Ġdiscontinued": 3100,
      "Ġstage": 3101,
      "Ġentire": 3102,
      "Ġwashing": 3103,
      "Ġsustain": 3104,
      "Ġearned": 3105,
      "Ġbrok": 3106,
      "Ġet": 3107,
      "Ġchairman": 3108,
      "Ġrestructuring": 3109,
      "Ġgrand": 3110,
      "Ġjames": 3111,
      "inate": 3112,
      "Ġcomplex": 3113,
      "ox": 3114,
      "omes": 3115,
      "Ġstated": 3116,
      "Ġalle": 3117,
      "Ġrestated": 3118,
      "igned": 3119,
      "istics": 3120,
      "Ġdivers": 3121,
      "Ġdigital": 3122,
      "Ġengland": 3123,
      "Ġtiming": 3124,
      "Ġmens": 3125,
      "Ġsheets": 3126,
      "Ġpenal": 3127,
      "Ġtraining": 3128,
      "Ġtermination": 3129,
      "attle": 3130,
      "Ġaccordingly": 3131,
      "Ġthirdparty": 3132,
      "ney": 3133,
      "Ġstores": 3134,
      "Ġeffectiveness": 3135,
      "Ġdecision": 3136,
      "sec": 3137,
      "comm": 3138,
      "Ġgive": 3139,
      "Ġamortized": 3140,
      "Ġcertific": 3141,
      "Ġexposure": 3142,
      "Ġorganizations": 3143,
      "Ġque": 3144,
      "eg": 3145,
      "ament": 3146,
      "Ġinflu": 3147,
      "rew": 3148,
      "Ġdeliver": 3149,
      "Ġclassified": 3150,
      "Ġfind": 3151,
      "Ġmoved": 3152,
      "Ġcoach": 3153,
      "Ġcombined": 3154,
      "craft": 3155,
      "Ġongoing": 3156,
      "Ġol": 3157,
      "Ġbanking": 3158,
      "Ġcritical": 3159,
      "Ġwashington": 3160,
      "Ġcapt": 3161,
      "Ġproxy": 3162,
      "Ġnormal": 3163,
      "Ġimmed": 3164,
      "Ġmen": 3165,
      "thcentury": 3166,
      "Ġelim": 3167,
      "Ġresponsible": 3168,
      "Ġnegative": 3169,
      "ops": 3170,
      "eter": 3171,
      "Ġfem": 3172,
      "Ġadvertising": 3173,
      "Ġreim": 3174,
      "Ġselected": 3175,
      "west": 3176,
      "Ġaccounted": 3177,
      "ica": 3178,
      "Ġproceedings": 3179,
      "Ġmention": 3180,
      "sw": 3181,
      "Ġthom": 3182,
      "Ġtour": 3183,
      "Ġclients": 3184,
      "Ġonce": 3185,
      "Ġstructure": 3186,
      "Ġrevolving": 3187,
      "Ġthanks": 3188,
      "entures": 3189,
      "Ġhous": 3190,
      "Ġmillions": 3191,
      "inter": 3192,
      "Ġcro": 3193,
      "ams": 3194,
      "illing": 3195,
      "Ġcanadian": 3196,
      "eum": 3197,
      "Ġprotect": 3198,
      "asons": 3199,
      "Ġabs": 3200,
      "Ġflor": 3201,
      "Ġindia": 3202,
      "Ġvariety": 3203,
      "Ġhall": 3204,
      "Ġdegree": 3205,
      "Ġstarted": 3206,
      "Ġur": 3207,
      "Ġparticularly": 3208,
      "Ġrepresents": 3209,
      "Ġstore": 3210,
      "Ġinvolved": 3211,
      "Ġrating": 3212,
      "Ġregular": 3213,
      "Ġrestrictions": 3214,
      "Ġreturns": 3215,
      "Ġdut": 3216,
      "Ġsports": 3217,
      "Ġmale": 3218,
      "Ġentit": 3219,
      "Ġsquare": 3220,
      "ago": 3221,
      "Ġgenerated": 3222,
      "ude": 3223,
      "Ġtrials": 3224,
      "Ġdelivery": 3225,
      "Ġasu": 3226,
      "estic": 3227,
      "han": 3228,
      "Ġmanage": 3229,
      "Ġoly": 3230,
      "Ġcat": 3231,
      "Ġcore": 3232,
      "itative": 3233,
      "Ġstatus": 3234,
      "Ġquot": 3235,
      "wood": 3236,
      "Ġreimbur": 3237,
      "ĠĠĠĠĠĠĠĠĠĠĠĠĠĠĠĠ": 3238,
      "Ġje": 3239,
      "Ġliving": 3240,
      "Ġkingdom": 3241,
      "tt": 3242,
      "Ġnorthern": 3243,
      "Ġfar": 3244,
      "Ġconcern": 3245,
      "Ġtransition": 3246,
      "isod": 3247,
      "Ġagreed": 3248,
      "onse": 3249,
      "Ġfrance": 3250,
      "Ġopportunity": 3251,
      "Ġcollection": 3252,
      "ba": 3253,
      "Ġprepar": 3254,
      "lass": 3255,
      "Ġolymp": 3256,
      "kn": 3257,
      "Ġlisted": 3258,
      "Ġnovel": 3259,
      "Ġagencies": 3260,
      "Ġcame": 3261,
      "pec": 3262,
      "Ġwa": 3263,
      "Ġhill": 3264,
      "Ġface": 3265,
      "Ġleading": 3266,
      "emy": 3267,
      "dle": 3268,
      "Ġtesting": 3269,
      "Ġrepay": 3270,
      "ansion": 3271,
      "ountain": 3272,
      "Ġphase": 3273,
      "Ġinvesting": 3274,
      "Ġcontained": 3275,
      "Ġearlier": 3276,
      "Ġharm": 3277,
      "Ġdeaths": 3278,
      "history": 3279,
      "ender": 3280,
      "Ġca": 3281,
      "Ġdistributions": 3282,
      "ours": 3283,
      "ades": 3284,
      "Ġrequest": 3285,
      "Ġanticipated": 3286,
      "Ġrac": 3287,
      "Ġseen": 3288,
      "Ġclose": 3289,
      "Ġwood": 3290,
      "Ġlive": 3291,
      "Ġrecon": 3292,
      "den": 3293,
      "ique": 3294,
      "Ġcome": 3295,
      "Ġovers": 3296,
      "erous": 3297,
      "ius": 3298,
      "eful": 3299,
      "Ġanaly": 3300,
      "Ġmargins": 3301,
      "Ġpaul": 3302,
      "Ġchem": 3303,
      "pose": 3304,
      "Ġjoined": 3305,
      "Ġcum": 3306,
      "Ġarg": 3307,
      "ration": 3308,
      "ele": 3309,
      "Ġeg": 3310,
      "Ġcommand": 3311,
      "reng": 3312,
      "play": 3313,
      "Ġpositive": 3314,
      "Ġokay": 3315,
      "Ġsect": 3316,
      "Ġsociety": 3317,
      "Ġconsistent": 3318,
      "Ġfire": 3319,
      "Ġcolor": 3320,
      "color": 3321,
      "Ġengineering": 3322,
      "Ġhealthcare": 3323,
      "nt": 3324,
      "utical": 3325,
      "Ġbon": 3326,
      "arks": 3327,
      "Ġregional": 3328,
      "ush": 3329,
      "Ġver": 3330,
      "Ġpage": 3331,
      "Ġcomponent": 3332,
      "Ġmanager": 3333,
      "Ġenterpr": 3334,
      "Ġoccup": 3335,
      "Ġconclud": 3336,
      "Ġspecified": 3337,
      "Ġcho": 3338,
      "ump": 3339,
      "Ġpan": 3340,
      "Ġcomply": 3341,
      "Ġbuildings": 3342,
      "Ġbat": 3343,
      "Ġsun": 3344,
      "ivity": 3345,
      "Ġvolatility": 3346,
      "Ġreceivables": 3347,
      "Ġconsists": 3348,
      "Ġground": 3349,
      "Ġrobert": 3350,
      "Ġvariable": 3351,
      "Ġstreng": 3352,
      "Ġrob": 3353,
      "right": 3354,
      "Ġho": 3355,
      "Ġcovered": 3356,
      "Ġexclus": 3357,
      "Ġwent": 3358,
      "Ġaccelerated": 3359,
      "Ġcoven": 3360,
      "Ġlouis": 3361,
      "Ġcommod": 3362,
      "Ġcriter": 3363,
      "ster": 3364,
      "Ġlos": 3365,
      "Ġsn": 3366,
      "Ġmur": 3367,
      "Ġscience": 3368,
      "Ġbalances": 3369,
      "Ġstory": 3370,
      "Ġimprovements": 3371,
      "itz": 3372,
      "Ġagency": 3373,
      "ological": 3374,
      "Ġnever": 3375,
      "Ġhor": 3376,
      "Ġplaces": 3377,
      "Ġpredict": 3378,
      "atr": 3379,
      "Ġonline": 3380,
      "Ġdiscover": 3381,
      "Ġdelay": 3382,
      "Ġinputs": 3383,
      "Ġlost": 3384,
      "Ġpractices": 3385,
      "Ġuses": 3386,
      "Ġresponse": 3387,
      "Ġeffic": 3388,
      "ulative": 3389,
      "iment": 3390,
      "Ġebit": 3391,
      "Ġsound": 3392,
      "Ġworked": 3393,
      "Ġchalleng": 3394,
      "Ġparen": 3395,
      "Ġfri": 3396,
      "Ġps": 3397,
      "Ġfranc": 3398,
      "Ġsource": 3399,
      "Ġseven": 3400,
      "Ġauthorities": 3401,
      "Ġsize": 3402,
      "Ġid": 3403,
      "Ġconducted": 3404,
      "Ġinj": 3405,
      "ls": 3406,
      "ites": 3407,
      "Ġtraditional": 3408,
      "Ġlives": 3409,
      "Ġgermany": 3410,
      "aceutical": 3411,
      "ots": 3412,
      "Ġfif": 3413,
      "Ġspons": 3414,
      "ened": 3415,
      "Ġpersons": 3416,
      "orning": 3417,
      "Ġdomestic": 3418,
      "Ġaffiliates": 3419,
      "Ġtaking": 3420,
      "Ġfarm": 3421,
      "Ġrap": 3422,
      "Ġmeasurement": 3423,
      "Ġbey": 3424,
      "Ġcounter": 3425,
      "duce": 3426,
      "action": 3427,
      "Ġidentified": 3428,
      "Ġrecovery": 3429,
      "sour": 3430,
      "Ġpresentation": 3431,
      "vid": 3432,
      "Ġacquire": 3433,
      "Ġepisod": 3434,
      "Ġadministration": 3435,
      "Ġprobl": 3436,
      "Ġexam": 3437,
      "outh": 3438,
      "Ġfel": 3439,
      "Ġmuseum": 3440,
      "bers": 3441,
      "Ġfront": 3442,
      "Ġseparate": 3443,
      "Ġcompr": 3444,
      "come": 3445,
      "Ġrede": 3446,
      "Ġtravel": 3447,
      "Ġpack": 3448,
      "Ġdollar": 3449,
      "Ġrepresented": 3450,
      "Ġmob": 3451,
      "Ġenfor": 3452,
      "Ġimprove": 3453,
      "Ġqualified": 3454,
      "ietary": 3455,
      "aring": 3456,
      "ston": 3457,
      "Ġcriteria": 3458,
      "Ġexcluding": 3459,
      "ening": 3460,
      "Ġsar": 3461,
      "nes": 3462,
      "Ġstatut": 3463,
      "Ġcas": 3464,
      "Ġcath": 3465,
      "bi": 3466,
      "Ġpolitic": 3467,
      "Ġdefic": 3468,
      "Ġtechnical": 3469,
      "bc": 3470,
      "Ġstruct": 3471,
      "Ġgaap": 3472,
      "liers": 3473,
      "Ġexpansion": 3474,
      "Ġsem": 3475,
      "ya": 3476,
      "bu": 3477,
      "Ġham": 3478,
      "Ġreimburs": 3479,
      "Ġmic": 3480,
      "Ġimm": 3481,
      "Ġvirgin": 3482,
      "Ġeight": 3483,
      "ada": 3484,
      "house": 3485,
      "Ġbg": 3486,
      "Ġlimitations": 3487,
      "Ġproposed": 3488,
      "istic": 3489,
      "time": 3490,
      "anish": 3491,
      "Ġappointed": 3492,
      "Ġstudents": 3493,
      "rest": 3494,
      "Ġbud": 3495,
      "ocr": 3496,
      "Ġweak": 3497,
      "ble": 3498,
      "Ġsummar": 3499,
      "Ġschedule": 3500,
      "Ġtaxable": 3501,
      "gest": 3502,
      "Ġcomes": 3503,
      "Ġsuppliers": 3504,
      "Ġcontributions": 3505,
      "Ġdriven": 3506,
      "Ġnas": 3507,
      "Ġresol": 3508,
      "Ġmexico": 3509,
      "Ġartic": 3510,
      "Ġopened": 3511,
      "Ġsym": 3512,
      "thing": 3513,
      "ii": 3514,
      "rect": 3515,
      "Ġheav": 3516,
      "ta": 3517,
      "Ġversion": 3518,
      "Ġindicated": 3519,
      "la": 3520,
      "Ġframe": 3521,
      "Ġcit": 3522,
      "works": 3523,
      "Ġinterp": 3524,
      "Ġanim": 3525,
      "Ġfather": 3526,
      "Ġdise": 3527,
      "Ġorders": 3528,
      "Ġreturned": 3529,
      "Ġoperational": 3530,
      "Ġevidence": 3531,
      "Ġbranch": 3532,
      "Ġsho": 3533,
      "Ġpropr": 3534,
      "Ġmarr": 3535,
      "iters": 3536,
      "reek": 3537,
      "Ġber": 3538,
      "iately": 3539,
      "Ġinher": 3540,
      "Ġassumed": 3541,
      "apt": 3542,
      "Ġtreasury": 3543,
      "Ġparts": 3544,
      "vant": 3545,
      "Ġbeneficial": 3546,
      "Ġgeneration": 3547,
      "Ġmorning": 3548,
      "Ġentitled": 3549,
      "Ġsavings": 3550,
      "Ġaircraft": 3551,
      "uled": 3552,
      "entially": 3553,
      "||": 3554,
      "Ġtypes": 3555,
      "Ġexplor": 3556,
      "Ġdest": 3557,
      "Ġunf": 3558,
      "Ġsaw": 3559,
      "Ġsmaller": 3560,
      "rastr": 3561,
      "Ġmonitor": 3562,
      "ols": 3563,
      "Ġtransportation": 3564,
      "Ġstrength": 3565,
      "Ġending": 3566,
      "ga": 3567,
      "Ġcontinues": 3568,
      "Ġrent": 3569,
      "Ġcoast": 3570,
      "Ġinternet": 3571,
      "Ġbeyond": 3572,
      "Ġjournal": 3573,
      "emption": 3574,
      "berg": 3575,
      "Ġcarol": 3576,
      "ĠĠĠĠĠĠĠĠĠĠĠĠ": 3577,
      "Ġadded": 3578,
      "Ġdifferences": 3579,
      "Ġsuccessfully": 3580,
      "Ġfranch": 3581,
      "Ġfc": 3582,
      "Ġmodern": 3583,
      "Ġderivatives": 3584,
      "Ġexperienced": 3585,
      "Ġprofitability": 3586,
      "Ġmichael": 3587,
      "Ġcompletion": 3588,
      "Ġnews": 3589,
      "aired": 3590,
      "Ġrecently": 3591,
      "Ġconcent": 3592,
      "Ġmentioned": 3593,
      "Ġsongs": 3594,
      "Ġuncertainties": 3595,
      "Ġcompete": 3596,
      "Ġinde": 3597,
      "cle": 3598,
      "Ġyet": 3599,
      "Ġmerch": 3600,
      "Ġgeorge": 3601,
      "Ġexpectations": 3602,
      "Ġlooking": 3603,
      "Ġmart": 3604,
      "rote": 3605,
      "Ġserve": 3606,
      "Ġstockholder": 3607,
      "Ġfeatures": 3608,
      "ote": 3609,
      "ona": 3610,
      "ead": 3611,
      "Ġltd": 3612,
      "onom": 3613,
      "Ġebitda": 3614,
      "Ġauthority": 3615,
      "most": 3616,
      "Ġrecognize": 3617,
      "Ġinfrastr": 3618,
      "Ġmaximum": 3619,
      "Ġarchit": 3620,
      "pite": 3621,
      "ception": 3622,
      "Ġsa": 3623,
      "Ġproprietary": 3624,
      "Ġsam": 3625,
      "Ġcaused": 3626,
      "Ġcontains": 3627,
      "Ġmad": 3628,
      "tra": 3629,
      "Ġflorida": 3630,
      "Ġschools": 3631,
      "Ġip": 3632,
      "Ġuseful": 3633,
      "Ġprocessing": 3634,
      "Ġreflected": 3635,
      "Ġcovid": 3636,
      "Ġball": 3637,
      "Ġrang": 3638,
      "Ġachieve": 3639,
      "Ġclosed": 3640,
      "Ġdraw": 3641,
      "Ġath": 3642,
      "Ġdeduct": 3643,
      "Ġtv": 3644,
      "Ġbul": 3645,
      "Ġtrends": 3646,
      "Ġlog": 3647,
      "ero": 3648,
      "Ġaustralian": 3649,
      "Ġelig": 3650,
      "itar": 3651,
      "Ġmountain": 3652,
      "Ġyo": 3653,
      "Ġwells": 3654,
      "Ġformed": 3655,
      "Ġstra": 3656,
      "Ġword": 3657,
      "Ġfavorable": 3658,
      "Ġdepend": 3659,
      "Ġalternative": 3660,
      "Ġavailability": 3661,
      "Ġunless": 3662,
      "ï¿½ï¿½ï¿½ï¿½": 3663,
      "Ġwil": 3664,
      "Ġsens": 3665,
      "Ġrelationship": 3666,
      "Ġrestaur": 3667,
      "Ġmedal": 3668,
      "fo": 3669,
      "Ġshows": 3670,
      "Ġom": 3671,
      "Ġgenerate": 3672,
      "Ġdefault": 3673,
      "Ġbay": 3674,
      "Ġphot": 3675,
      "Ġlp": 3676,
      "Ġmanufacturers": 3677,
      "resp": 3678,
      "Ġtimely": 3679,
      "Ġextended": 3680,
      "Ġexist": 3681,
      "Ġappe": 3682,
      "Ġlocation": 3683,
      "Ġtom": 3684,
      "Ġalbums": 3685,
      "Ġgeograph": 3686,
      "Ġintended": 3687,
      "Ġimpacted": 3688,
      "Ġrelative": 3689,
      "Ġstations": 3690,
      "Ġagent": 3691,
      "Ġrespective": 3692,
      "ij": 3693,
      "Ġhapp": 3694,
      "Ġmeasured": 3695,
      "Ġinterpret": 3696,
      "Ġpopular": 3697,
      "Ġinfrastructure": 3698,
      "Ġfocused": 3699,
      "ishing": 3700,
      "Ġstorage": 3701,
      "Ġactually": 3702,
      "ias": 3703,
      "Ġminor": 3704,
      "Ġadequate": 3705,
      "Ġmel": 3706,
      "Ġoh": 3707,
      "Ġcharged": 3708,
      "Ġmeaning": 3709,
      "Ġowners": 3710,
      "Ġthre": 3711,
      "use": 3712,
      "Ġtal": 3713,
      "hood": 3714,
      "Ġpharmaceutical": 3715,
      "Ġpac": 3716,
      "Ġfiler": 3717,
      "Ġadvant": 3718,
      "Ġapplied": 3719,
      "inese": 3720,
      "Ġmarried": 3721,
      "Ġmary": 3722,
      "Ġsug": 3723,
      "Ġbgcolor": 3724,
      "Ġinsp": 3725,
      "Ġjose": 3726,
      "Ġrental": 3727,
      "Ġess": 3728,
      "Ġinstitute": 3729,
      "Ġconnect": 3730,
      "ula": 3731,
      "Ġcorp": 3732,
      "Ġlake": 3733,
      "Ġrd": 3734,
      "ready": 3735,
      "Ġvoc": 3736,
      "Ġresid": 3737,
      "Ġintroduc": 3738,
      "Ġcapitalized": 3739,
      "Ġgoods": 3740,
      "urring": 3741,
      "Ġbooks": 3742,
      "osed": 3743,
      "Ġventure": 3744,
      "ado": 3745,
      "Ġnumerous": 3746,
      "sch": 3747,
      "Ġreferred": 3748,
      "ota": 3749,
      "down": 3750,
      "umni": 3751,
      "Ġdefe": 3752,
      "Ġchap": 3753,
      "Ġleverage": 3754,
      "Ġoriginally": 3755,
      "olic": 3756,
      "Ġlocations": 3757,
      "Ġinnov": 3758,
      "Ġevaluating": 3759,
      "lia": 3760,
      "Ġmiddle": 3761,
      "Ġcreate": 3762,
      "cription": 3763,
      "Ġreasonably": 3764,
      "Ġscient": 3765,
      "Ġfort": 3766,
      "Ġquick": 3767,
      "Ġproviders": 3768,
      "fil": 3769,
      "Ġfest": 3770,
      "Ġgoal": 3771,
      "Ġcommunications": 3772,
      "âĢĶ": 3773,
      "Ġweb": 3774,
      "Ġgoals": 3775,
      "Ġminister": 3776,
      "Ġanticipate": 3777,
      "lant": 3778,
      "ww": 3779,
      "Ġtransm": 3780,
      "Ġsr": 3781,
      "Ġbuy": 3782,
      "Ġchannel": 3783,
      "Ġvoting": 3784,
      "iously": 3785,
      "aign": 3786,
      "Ġcategory": 3787,
      "Ġdirected": 3788,
      "Ġwall": 3789,
      "azil": 3790,
      "Ġdrive": 3791,
      "Ġparticipants": 3792,
      "Ġsusp": 3793,
      "lands": 3794,
      "Ġmanaged": 3795,
      "Ġvesting": 3796,
      "Ġpenalties": 3797,
      "retion": 3798,
      "Ġreform": 3799,
      "control": 3800,
      "Ġesc": 3801,
      "Ġcoal": 3802,
      "Ġlarger": 3803,
      "ally": 3804,
      "Ġunderwr": 3805,
      "emn": 3806,
      "Ġdeemed": 3807,
      "Ġchanged": 3808,
      "Ġdates": 3809,
      "etting": 3810,
      "bted": 3811,
      "Ġalready": 3812,
      "pa": 3813,
      "Ġindividuals": 3814,
      "Ġgeorg": 3815,
      "Ġmach": 3816,
      "emember": 3817,
      "airs": 3818,
      "abilities": 3819,
      "Ġcontent": 3820,
      "Ġye": 3821,
      "Ġpipeline": 3822,
      "Ġdeveloping": 3823,
      "Ġthomas": 3824,
      "Ġrather": 3825,
      "Ġresponsibility": 3826,
      "Ġfle": 3827,
      "Ġcontingent": 3828,
      "mon": 3829,
      "yr": 3830,
      "hen": 3831,
      "Ġrace": 3832,
      "Ġversus": 3833,
      "Ġdebut": 3834,
      "Ġmove": 3835,
      "organ": 3836,
      "Ġlove": 3837,
      "Ġmaybe": 3838,
      "ari": 3839,
      "Ġprovince": 3840,
      "Ġangel": 3841,
      "imes": 3842,
      "Ġawarded": 3843,
      "eas": 3844,
      "Ġmaster": 3845,
      "Ġhen": 3846,
      "Ġdependent": 3847,
      "ald": 3848,
      "Ġensure": 3849,
      "Ġwrote": 3850,
      "Ġsites": 3851,
      "owned": 3852,
      "Ġprocesses": 3853,
      "Ġdespite": 3854,
      "Ġvolumes": 3855,
      "Ġattempt": 3856,
      "etic": 3857,
      "Ġseeing": 3858,
      "Ġtor": 3859,
      "Ġfluctuations": 3860,
      "pre": 3861,
      "Ġletter": 3862,
      "Ġbehalf": 3863,
      "Ġke": 3864,
      "Ġobtained": 3865,
      "Ġjudgment": 3866,
      "Ġcumulative": 3867,
      "Ġindebted": 3868,
      "Ġrevers": 3869,
      "omb": 3870,
      "ids": 3871,
      "ream": 3872,
      "ka": 3873,
      "Ġpreparation": 3874,
      "Ġthus": 3875,
      "ided": 3876,
      "Ġlear": 3877,
      "Ġattack": 3878,
      "Ġcovenants": 3879,
      "Ġconstitut": 3880,
      "iqu": 3881,
      "chan": 3882,
      "Ġdont": 3883,
      "ste": 3884,
      "elines": 3885,
      "Ġrailway": 3886,
      "Ġhedge": 3887,
      "Ġimmediately": 3888,
      "iana": 3889,
      "Ġask": 3890,
      "Ġindebtedness": 3891,
      "mer": 3892,
      "Ġfrank": 3893,
      "Ġoffices": 3894,
      "Ġnegot": 3895,
      "ple": 3896,
      "Ġteach": 3897,
      "Ġroom": 3898,
      "Ġwomens": 3899,
      "ket": 3900,
      "qual": 3901,
      "hl": 3902,
      "Ġpolice": 3903,
      "Ġgir": 3904,
      "Ġoccurred": 3905,
      "Ġindustries": 3906,
      "Ġinherent": 3907,
      "Ġfounded": 3908,
      "Ġtemporary": 3909,
      "Ġgovernance": 3910,
      "lim": 3911,
      "Ġele": 3912,
      "Ġquarters": 3913,
      "ffer": 3914,
      "Ġstraight": 3915,
      "Ġimprovement": 3916,
      "Ġdemon": 3917,
      "Ġfiling": 3918,
      "Ġvary": 3919,
      "Ġfinished": 3920,
      "aker": 3921,
      "Ġmonthly": 3922,
      "Ġscott": 3923,
      "Ġcampaign": 3924,
      "Ġmanner": 3925,
      "Ġplaced": 3926,
      "notes": 3927,
      "Ġmeans": 3928,
      "des": 3929,
      "ky": 3930,
      "âĢĿ": 3931,
      "ledge": 3932,
      "Ġinvestor": 3933,
      "Ġinitiatives": 3934,
      "no": 3935,
      "lived": 3936,
      "Ġhistoric": 3937,
      "Ġeastern": 3938,
      "Ġplease": 3939,
      "Ġaudits": 3940,
      "Ġremained": 3941,
      "ester": 3942,
      "ano": 3943,
      "Ġdesignated": 3944,
      "Ġsets": 3945,
      "place": 3946,
      "Ġusgaapf": 3947,
      "Ġdefend": 3948,
      "Ġarchitect": 3949,
      "Ġupdate": 3950,
      "Ġbody": 3951,
      "Ġreclass": 3952,
      "Ġshall": 3953,
      "Ġsubord": 3954,
      "urrent": 3955,
      "Ġbattle": 3956,
      "Ġblock": 3957,
      "oming": 3958,
      "Ġimpaired": 3959,
      "Ġbad": 3960,
      "Ġspecif": 3961,
      "insurance": 3962,
      "Ġcommunities": 3963,
      "Ġmont": 3964,
      "Ġgall": 3965,
      "Ġremed": 3966,
      "cs": 3967,
      "Ġlanguage": 3968,
      "Ġconserv": 3969,
      "Ġnight": 3970,
      "Ġchinese": 3971,
      "Ġdescription": 3972,
      "iency": 3973,
      "Ġobserv": 3974,
      "oring": 3975,
      "Ġpand": 3976,
      "interest": 3977,
      "Ġcomputer": 3978,
      "ifications": 3979,
      "Ġquestions": 3980,
      "get": 3981,
      "respond": 3982,
      "Ġcomparable": 3983,
      "Ġinvestig": 3984,
      "airval": 3985,
      "iated": 3986,
      "Ġwhose": 3987,
      "Ġeffectively": 3988,
      "uit": 3989,
      "Ġeligible": 3990,
      "Ġdaugh": 3991,
      "Ġpurpose": 3992,
      "Ġcoming": 3993,
      "ensus": 3994,
      "Ġide": 3995,
      "Ġwid": 3996,
      "Ġms": 3997,
      "Ġtowns": 3998,
      "Ġ========": 3999,
      "Ġasia": 4000,
      "Ġnoted": 4001,
      "Ġworldwide": 4002,
      "Ġvirginia": 4003,
      "Ġtwel": 4004,
      "Ġindemn": 4005,
      "Ġintend": 4006,
      "Ġcut": 4007,
      "Ġaway": 4008,
      "Ġbroadcast": 4009,
      "Ġpaper": 4010,
      "ength": 4011,
      "Ġdoing": 4012,
      "Ġforces": 4013,
      "Ġremains": 4014,
      "Ġtourn": 4015,
      "Ġself": 4016,
      "Ġcorrespond": 4017,
      "Ġcongress": 4018,
      "Ġchain": 4019,
      "ĠâĢľ": 4020,
      "Ġvote": 4021,
      "Ġwholly": 4022,
      "Ġsecretary": 4023,
      "inn": 4024,
      "Ġalex": 4025,
      "Ġoperated": 4026,
      "Ġbring": 4027,
      "Ġreb": 4028,
      "Ġmagaz": 4029,
      "Ġimproved": 4030,
      "Ġasp": 4031,
      "Ġshown": 4032,
      "iture": 4033,
      "Ġallocated": 4034,
      "Ġadvanced": 4035,
      "Ġafrica": 4036,
      "Ġroman": 4037,
      "Ġna": 4038,
      "Ġcd": 4039,
      "Ġgrowing": 4040,
      "employ": 4041,
      "Ġjapanese": 4042,
      "Ġconv": 4043,
      "aware": 4044,
      "Ġinterim": 4045,
      "more": 4046,
      "etters": 4047,
      "dic": 4048,
      "Ġnegatively": 4049,
      "Ġkore": 4050,
      "Ġmatter": 4051,
      "oma": 4052,
      "Ġcarryfor": 4053,
      "Ġdur": 4054,
      "Ġcorrect": 4055,
      "Ġnd": 4056,
      "Ġsubsequently": 4057,
      "Ġspread": 4058,
      "Ġredemption": 4059,
      "Ġwhole": 4060,
      "Ġrank": 4061,
      "Ġnotice": 4062,
      "Ġmand": 4063,
      "ylv": 4064,
      "Ġdeclared": 4065,
      "Ġfurn": 4066,
      "Ġkeep": 4067,
      "Ġproduce": 4068,
      "Ġdevices": 4069,
      "Ġarts": 4070,
      "Ġliter": 4071,
      "amb": 4072,
      "Ġmicro": 4073,
      "Ġinitially": 4074,
      "Ġfa": 4075,
      "Ġpractice": 4076,
      "Ġcharles": 4077,
      "erved": 4078,
      "Ġvia": 4079,
      "road": 4080,
      "Ġblo": 4081,
      "Ġrein": 4082,
      "mar": 4083,
      "Ġcarried": 4084,
      "Ġdemonstr": 4085,
      "Ġslow": 4086,
      "Ġbasket": 4087,
      "liament": 4088,
      "Ġcommodity": 4089,
      "Ġdone": 4090,
      "Ġcorn": 4091,
      "Ġbrown": 4092,
      "ancy": 4093,
      "used": 4094,
      "Ġspecifically": 4095,
      "hi": 4096,
      "Ġdemocr": 4097,
      "Ġacademy": 4098,
      "ucle": 4099,
      "cement": 4100,
      "agn": 4101,
      "ictions": 4102,
      "Ġlonglived": 4103,
      "Ġsmith": 4104,
      "Ġentergy": 4105,
      "Ġframework": 4106,
      "Ġbrazil": 4107,
      "Ġintegrated": 4108,
      "Ġfootballers": 4109,
      "Ġcalculated": 4110,
      "ught": 4111,
      "Ġespec": 4112,
      "Ġfeet": 4113,
      "Ġjew": 4114,
      "Ġbreak": 4115,
      "Ġconsulting": 4116,
      "Ġsand": 4117,
      "eto": 4118,
      "Ġrelevant": 4119,
      "Ġvend": 4120,
      "ye": 4121,
      "Ġarrangement": 4122,
      "Ġprobably": 4123,
      "Ġfight": 4124,
      "Ġraw": 4125,
      "Ġalumni": 4126,
      "dd": 4127,
      "rought": 4128,
      "ux": 4129,
      "Ġmit": 4130,
      "comp": 4131,
      "Ġespecially": 4132,
      "une": 4133,
      "Ġprohib": 4134,
      "wer": 4135,
      "Ġtranslation": 4136,
      "Ġstatutory": 4137,
      "perform": 4138,
      "Ġinstead": 4139,
      "Ġwide": 4140,
      "Ġevaluate": 4141,
      "Ġdoubt": 4142,
      "Ġletters": 4143,
      "Ġlibr": 4144,
      "bon": 4145,
      "Ġexternal": 4146,
      "band": 4147,
      "Ġowner": 4148,
      "Ġculture": 4149,
      "with": 4150,
      "Ġdetermination": 4151,
      "Ġgrants": 4152,
      "Ġdamage": 4153,
      "known": 4154,
      "roll": 4155,
      "Ġzeal": 4156,
      "Ġprepared": 4157,
      "Ġdyn": 4158,
      "Ġafrican": 4159,
      "Ġtheat": 4160,
      "Ġtopic": 4161,
      "Ġapply": 4162,
      "eration": 4163,
      "Ġreli": 4164,
      "ylvania": 4165,
      "Ġprojected": 4166,
      "ben": 4167,
      "Ġpotentially": 4168,
      "vey": 4169,
      "Ġcenters": 4170,
      "controlling": 4171,
      "Ġintroduced": 4172,
      "Ġparliament": 4173,
      "era": 4174,
      "Ġcredits": 4175,
      "Ġlack": 4176,
      "arry": 4177,
      "car": 4178,
      "Ġlegisl": 4179,
      "Ġkr": 4180,
      "Ġallows": 4181,
      "Ġpeak": 4182,
      "ĠĠĠĠĠĠĠĠĠĠĠ": 4183,
      "Ġgradu": 4184,
      "Ġoffered": 4185,
      "Ġliber": 4186,
      "face": 4187,
      "where": 4188,
      "Ġmaturities": 4189,
      "Ġtwelve": 4190,
      "Ġdail": 4191,
      "Ġassemb": 4192,
      "Ġspl": 4193,
      "Ġplanning": 4194,
      "Ġtotaled": 4195,
      "Ġdrilling": 4196,
      "Ġvalley": 4197,
      "center": 4198,
      "Ġblue": 4199,
      "Ġperforming": 4200,
      "Ġconsisted": 4201,
      "Ġbreach": 4202,
      "ansas": 4203,
      "Ġspending": 4204,
      "rael": 4205,
      "Ġbonds": 4206,
      "Ġwife": 4207,
      "Ġpenns": 4208,
      "Ġofferings": 4209,
      "Ġmut": 4210,
      "secured": 4211,
      "Ġgun": 4212,
      "aves": 4213,
      "Ġmobile": 4214,
      "retirement": 4215,
      "icket": 4216,
      "Ġdifference": 4217,
      "Ġcontribution": 4218,
      "Ġdetermining": 4219,
      "Ġrapid": 4220,
      "Ġtradem": 4221,
      "Ġhur": 4222,
      "Ġpor": 4223,
      "Ġderived": 4224,
      "Ġcertificate": 4225,
      "Ġknowledge": 4226,
      "Ġreached": 4227,
      "Ġsea": 4228,
      "Ġaccur": 4229,
      "Ġmethods": 4230,
      "Ġire": 4231,
      "Ġsuffer": 4232,
      "Ġdc": 4233,
      "Ġrussian": 4234,
      "ession": 4235,
      "Ġidentify": 4236,
      "self": 4237,
      "Ġtransferred": 4238,
      "Ġbirth": 4239,
      "Ġguitar": 4240,
      "Ġsure": 4241,
      "Ġfig": 4242,
      "ete": 4243,
      "Ġallowed": 4244,
      "list": 4245,
      "Ġplanned": 4246,
      "Ġgh": 4247,
      "Ġcentre": 4248,
      "fl": 4249,
      "Ġphysic": 4250,
      "za": 4251,
      "Ġcarolina": 4252,
      "Ġordinary": 4253,
      "reen": 4254,
      "ips": 4255,
      "Ġhedging": 4256,
      "Ġemb": 4257,
      "Ġrepresenting": 4258,
      "Ġobv": 4259,
      "ersey": 4260,
      "ulf": 4261,
      "Ġenterprise": 4262,
      "Ġpermitted": 4263,
      "Ġexpire": 4264,
      "Ġinventories": 4265,
      "Ġterrit": 4266,
      "Ġentertain": 4267,
      "Ġprime": 4268,
      "ting": 4269,
      "Ġzealand": 4270,
      "Ġfeel": 4271,
      "ancing": 4272,
      "Ġhotel": 4273,
      "Ġnames": 4274,
      "Ġsant": 4275,
      "Ġbonus": 4276,
      "Ġbrands": 4277,
      "igan": 4278,
      "Ġshareholder": 4279,
      "bb": 4280,
      "Ġalways": 4281,
      "Ġ=": 4282,
      "Ġchic": 4283,
      "Ġdelaware": 4284,
      "Ġbridge": 4285,
      "Ġsharebased": 4286,
      "enders": 4287,
      "Ġparticipation": 4288,
      "rain": 4289,
      "Ġexploration": 4290,
      "Ġnong": 4291,
      "Ġpacific": 4292,
      "do": 4293,
      "Ġinstrument": 4294,
      "Ġadvance": 4295,
      "Ġmechan": 4296,
      "Ġgod": 4297,
      "Ġmakes": 4298,
      "ductions": 4299,
      "Ġdaily": 4300,
      "Ġtowards": 4301,
      "Ġretained": 4302,
      "Ġsuperv": 4303,
      "Ġartists": 4304,
      "Ġvested": 4305,
      "Ġreviews": 4306,
      "Ġlegislation": 4307,
      "Ġnoncash": 4308,
      "Ġpremiums": 4309,
      "Ġforms": 4310,
      "Ġcomment": 4311,
      "Ġpennsylvania": 4312,
      "Ġexercised": 4313,
      "Ġassembly": 4314,
      "Ġkm": 4315,
      "Ġraise": 4316,
      "Ġcouple": 4317,
      "Ġbroker": 4318,
      "Ġstrategies": 4319,
      "recogn": 4320,
      "Ġny": 4321,
      "water": 4322,
      "Ġdamages": 4323,
      "Ġsubordinated": 4324,
      "Ġfollowed": 4325,
      "ola": 4326,
      "Ġplants": 4327,
      "Ġquoted": 4328,
      "Ġnoncontrolling": 4329,
      "Ġmother": 4330,
      "stand": 4331,
      "stat": 4332,
      "Ġcommitment": 4333,
      "Ġfestival": 4334,
      "Ġmanaging": 4335,
      "Ġathlet": 4336,
      "Ġscr": 4337,
      "Ġengaged": 4338,
      "Ġunp": 4339,
      "Ġsoon": 4340,
      "Ġexpl": 4341,
      "Ġscheduled": 4342,
      "Ġrefin": 4343,
      "Ġpending": 4344,
      "Ġultim": 4345,
      "unction": 4346,
      "can": 4347,
      "Ġitalian": 4348,
      "ita": 4349,
      "Ġadvantage": 4350,
      "Ġusgaapfairval": 4351,
      "aming": 4352,
      "well": 4353,
      "Ġroute": 4354,
      "Ġbrought": 4355,
      "ris": 4356,
      "Ġeconomy": 4357,
      "Ġroyalty": 4358,
      "Ġreflects": 4359,
      "Ġnucle": 4360,
      "Ġgave": 4361,
      "Ġbasketball": 4362,
      "Ġtoo": 4363,
      "Ġdocuments": 4364,
      "iration": 4365,
      "vested": 4366,
      "Ġsurv": 4367,
      "Ġfranchise": 4368,
      "Ġpatient": 4369,
      "wa": 4370,
      "Ġleader": 4371,
      "Ġlicenses": 4372,
      "Ġvan": 4373,
      "Ġchampionships": 4374,
      "ales": 4375,
      "Ġven": 4376,
      "Ġstarting": 4377,
      "Ġmanufacture": 4378,
      "isable": 4379,
      "Ġdepending": 4380,
      "Ġhistorically": 4381,
      "Ġmaintaining": 4382,
      "ously": 4383,
      "Ġhighest": 4384,
      "Ġlabel": 4385,
      "urs": 4386,
      "ych": 4387,
      "Ġalmost": 4388,
      "Ġissuer": 4389,
      "Ġtell": 4390,
      "inois": 4391,
      "Ġoperator": 4392,
      "Ġsort": 4393,
      "Ġpow": 4394,
      "Ġbox": 4395,
      "Ġweather": 4396,
      "Ġolympics": 4397,
      "Ġconcluded": 4398,
      "Ġusually": 4399,
      "tract": 4400,
      "Ġlending": 4401,
      "Ġlength": 4402,
      "Ġexhibits": 4403,
      "Ġimplementation": 4404,
      "ricult": 4405,
      "Ġjersey": 4406,
      "Ġforfe": 4407,
      "Ġdisease": 4408,
      "Ġutility": 4409,
      "Ġgar": 4410,
      "Ġallocation": 4411,
      "Ġpain": 4412,
      "olf": 4413,
      "Ġnine": 4414,
      "Ġappeared": 4415,
      "Ġcolumb": 4416,
      "ander": 4417,
      "ĠÂ": 4418,
      "Ġjurisdictions": 4419,
      "Ġhit": 4420,
      "Ġrichard": 4421,
      "Ġspeed": 4422,
      "mo": 4423,
      "Ġwire": 4424,
      "Ġpaint": 4425,
      "Ġlawsu": 4426,
      "Ġtransl": 4427,
      "Ġweeks": 4428,
      "Ġdecisions": 4429,
      "istry": 4430,
      "my": 4431,
      "Ġannually": 4432,
      "lam": 4433,
      "Ġindirect": 4434,
      "Ġsuggest": 4435,
      "usion": 4436,
      "Ġpool": 4437,
      "Ġtournament": 4438,
      "Ġkar": 4439,
      "Ġlad": 4440,
      "Ġdelivered": 4441,
      "Ġuncertainty": 4442,
      "Ġcapabilities": 4443,
      "utes": 4444,
      "Ġkh": 4445,
      "igr": 4446,
      "Ġfoundation": 4447,
      "ena": 4448,
      "mental": 4449,
      "Ġlink": 4450,
      "Ġmodels": 4451,
      "Ġfeature": 4452,
      "Ġyoure": 4453,
      "Ġrelatively": 4454,
      "Ġmovement": 4455,
      "Ġmoving": 4456,
      "Ġepisode": 4457,
      "Ġcancer": 4458,
      "law": 4459,
      "inct": 4460,
      "Ġplaying": 4461,
      "Ġpandemic": 4462,
      "Ġchemical": 4463,
      "Ġbankrupt": 4464,
      "recognized": 4465,
      "Ġultimately": 4466,
      "def": 4467,
      "Ġfemale": 4468,
      "Ġsupplemental": 4469,
      "ini": 4470,
      "Ġreplaced": 4471,
      "Ġheadqu": 4472,
      "Ġcolon": 4473,
      "Ġcharter": 4474,
      "Ġreimbursement": 4475,
      "Ġahead": 4476,
      "Ġinstruct": 4477,
      "level": 4478,
      "daq": 4479,
      "exp": 4480,
      "Ġleased": 4481,
      "Ġforest": 4482,
      "Ġclean": 4483,
      "Ġinstitution": 4484,
      "Ġlibor": 4485,
      "Ġcandidate": 4486,
      "Ġwhom": 4487,
      "Ġneeded": 4488,
      "Ġtenn": 4489,
      "crib": 4490,
      "ĠĊĠ": 4491,
      "sured": 4492,
      "ills": 4493,
      "Ġhyd": 4494,
      "Ġec": 4495,
      "Ġnasdaq": 4496,
      "Ġunsecured": 4497,
      "Ġexercisable": 4498,
      "Ġcomprised": 4499,
      "uan": 4500,
      "Ġconsolidation": 4501,
      "Ġnetworks": 4502,
      "Ġgovernmental": 4503,
      "Ġpeter": 4504,
      "Ġillinois": 4505,
      "Ġgard": 4506,
      "Ġevol": 4507,
      "Ġindepend": 4508,
      "idae": 4509,
      "Ġconform": 4510,
      "point": 4511,
      "Ġextension": 4512,
      "ipl": 4513,
      "Ġohio": 4514,
      "Ġworkers": 4515,
      "Ġaudited": 4516,
      "Ġunrecognized": 4517,
      "Ġperiodic": 4518,
      "uz": 4519,
      "Ġreput": 4520,
      "iber": 4521,
      "Ġrelig": 4522,
      "Ġdefense": 4523,
      "Ġdaughter": 4524,
      "Ġobviously": 4525,
      "Ġnumbers": 4526,
      "Ġgeorgia": 4527,
      "Ġamendments": 4528,
      "Ġvehicles": 4529,
      "Ġcensus": 4530,
      "ners": 4531,
      "Ġsquad": 4532,
      "Ġlaunched": 4533,
      "Ġsilver": 4534,
      "Ġconcer": 4535,
      "Ġshipp": 4536,
      "Ġdisposal": 4537,
      "Ġceo": 4538,
      "Ġmining": 4539,
      "Ġterminated": 4540,
      "Ġelse": 4541,
      "Ġanc": 4542,
      "Ġagricult": 4543,
      "Ġenact": 4544,
      "Ġequivalent": 4545,
      "orter": 4546,
      "elled": 4547,
      "Ġtherap": 4548,
      "john": 4549,
      "oles": 4550,
      "Ġhimself": 4551,
      "tar": 4552,
      "Ġisrael": 4553,
      "Ġbrother": 4554,
      "amily": 4555,
      "Ġredeem": 4556,
      "roy": 4557,
      "Ġireland": 4558,
      "Ġconsumers": 4559,
      "ella": 4560,
      "gs": 4561,
      "Ġconverted": 4562,
      "Ġcertification": 4563,
      "Ġprec": 4564,
      "Ġparis": 4565,
      "person": 4566,
      "Ġmount": 4567,
      "ruption": 4568,
      "Ġinvolve": 4569,
      "Ġmos": 4570,
      "Ġvictor": 4571,
      "Ġreinsurance": 4572,
      "Ġrecomm": 4573,
      "Ġmission": 4574,
      "itics": 4575,
      "Ġpreced": 4576,
      "ns": 4577,
      "mus": 4578,
      "Ġchicago": 4579,
      "Ġox": 4580,
      "Ġprofessor": 4581,
      "Ġforecast": 4582,
      "Ġstay": 4583,
      "itation": 4584,
      "Ġemerging": 4585,
      "draw": 4586,
      "ports": 4587,
      "iences": 4588,
      "edd": 4589,
      "Ġopening": 4590,
      "orp": 4591,
      "Ġelements": 4592,
      "Ġlie": 4593,
      "board": 4594,
      "Ġhousing": 4595,
      "Ġbow": 4596,
      "ala": 4597,
      "Ġscot": 4598,
      "Ġcalcul": 4599,
      "Ġdat": 4600,
      "Ġdoct": 4601,
      "Ġincorporation": 4602,
      "Ġcontem": 4603,
      "Ġeventually": 4604,
      "ko": 4605,
      "Ġphysical": 4606,
      "Ġmaintained": 4607,
      "Ġexpert": 4608,
      "Ġlargely": 4609,
      "edy": 4610,
      "Ġpressure": 4611,
      "Ġjunior": 4612,
      "Ġdiscretion": 4613,
      "Ġic": 4614,
      "Ġmineral": 4615,
      "dered": 4616,
      "ja": 4617,
      "Ġelectronic": 4618,
      "Ġwalk": 4619,
      "ilies": 4620,
      "Ġatlant": 4621,
      "Ġlif": 4622,
      "rich": 4623,
      "Ġvehicle": 4624,
      "Ġcarryforwards": 4625,
      "Ġentertainment": 4626,
      "manent": 4627,
      "active": 4628,
      "Ġchristian": 4629,
      "sa": 4630,
      "Ġsteel": 4631,
      "Ġmess": 4632,
      "Ġcontributed": 4633,
      "Ġwholes": 4634,
      "background": 4635,
      "Ġfunded": 4636,
      "Ġdevice": 4637,
      "Ġartist": 4638,
      "Ġfinally": 4639,
      "Ġadvances": 4640,
      "Ġmol": 4641,
      "Ġadm": 4642,
      "Ġproblems": 4643,
      "arian": 4644,
      "Ġregions": 4645,
      "Ġlimits": 4646,
      "inals": 4647,
      "eph": 4648,
      "Ġsomething": 4649,
      "Ġindependence": 4650,
      "Ġwaste": 4651,
      "Ġpostretirement": 4652,
      "erman": 4653,
      "Ġearth": 4654,
      "ura": 4655,
      "Ġborrowing": 4656,
      "Ġfrequent": 4657,
      "Ġsubmitted": 4658,
      "Ġachieved": 4659,
      "Ġspanish": 4660,
      "Ġpil": 4661,
      "Ġinfring": 4662,
      "Ġschedules": 4663,
      "Ġclar": 4664,
      "win": 4665,
      "rey": 4666,
      "hire": 4667,
      "ny": 4668,
      "Ġcooper": 4669,
      "Ġlas": 4670,
      "etts": 4671,
      "ington": 4672,
      "Ġpretty": 4673,
      "Ġtransmission": 4674,
      "Ġleadership": 4675,
      "Ġfunction": 4676,
      "Ġdelays": 4677,
      "Ġga": 4678,
      "Ġcorporations": 4679,
      "Ġspring": 4680,
      "Ġexpanded": 4681,
      "Ġgeographic": 4682,
      "Ġwat": 4683,
      "Ġextensive": 4684,
      "log": 4685,
      "mond": 4686,
      "Ġserving": 4687,
      "Ġmagazine": 4688,
      "Ġpermanent": 4689,
      "Ġscope": 4690,
      "Ġthereafter": 4691,
      "Ġclient": 4692,
      "Ġmodified": 4693,
      "pped": 4694,
      "ien": 4695,
      "Ġguarantee": 4696,
      "orney": 4697,
      "Ġpath": 4698,
      "Ġspent": 4699,
      "Ġlicensed": 4700,
      "Ġbankruptcy": 4701,
      "Ġoptim": 4702,
      "Ġlibrary": 4703,
      "Ġslight": 4704,
      "Ġbehind": 4705,
      "Ġdepends": 4706,
      "ains": 4707,
      "selves": 4708,
      "Ġprint": 4709,
      "Ġpolitician": 4710,
      "Ġintr": 4711,
      "Ġtheatre": 4712,
      "Ġjr": 4713,
      "Ġoffers": 4714,
      "Ġhaw": 4715,
      "itable": 4716,
      "Ġwrite": 4717,
      "Ġmov": 4718,
      "Ġtier": 4719,
      "Ġsingles": 4720,
      "Ġhours": 4721,
      "Ġerr": 4722,
      "las": 4723,
      "Ġcatholic": 4724,
      "Ġjudgments": 4725,
      "don": 4726,
      "ockey": 4727,
      "Ġrely": 4728,
      "Ġclo": 4729,
      "Ġangeles": 4730,
      "Ġultimate": 4731,
      "oid": 4732,
      "yan": 4733,
      "Ġhenry": 4734,
      "ette": 4735,
      "Ġselect": 4736,
      "ental": 4737,
      "ican": 4738,
      "Ġhop": 4739,
      "Ġrespond": 4740,
      "viet": 4741,
      "Ġswed": 4742,
      "iced": 4743,
      "Ġaccrual": 4744,
      "nor": 4745,
      "Ġitaly": 4746,
      "Ġconj": 4747,
      "pol": 4748,
      "Ġpresents": 4749,
      "Ġib": 4750,
      "Ġattorney": 4751,
      "Ġestablishments": 4752,
      "Ġoutcome": 4753,
      "Ġheart": 4754,
      "icated": 4755,
      "Ġcomments": 4756,
      "Ġdeploy": 4757,
      "Ġreductions": 4758,
      "Ġtheres": 4759,
      "sen": 4760,
      "Ġlenders": 4761,
      "Ġcrim": 4762,
      "iro": 4763,
      "Ġswap": 4764,
      "Ġsalary": 4765,
      "Ġsequ": 4766,
      "Ġbanc": 4767,
      "Ġtraded": 4768,
      "Ġfleet": 4769,
      "Ġminim": 4770,
      "Ġmainly": 4771,
      "Ġkilled": 4772,
      "fors": 4773,
      "Ġstudio": 4774,
      "Ġprobable": 4775,
      "erry": 4776,
      "isco": 4777,
      "achus": 4778,
      "key": 4779,
      "Ġusa": 4780,
      "average": 4781,
      "Ġflex": 4782,
      "bre": 4783,
      "Ġdro": 4784,
      "Ġservicing": 4785,
      "Ġhom": 4786,
      "early": 4787,
      "Ġpublicly": 4788,
      "rs": 4789,
      "Ġmilest": 4790,
      "pan": 4791,
      "Ġstudent": 4792,
      "Ġdie": 4793,
      "Ġnuclear": 4794,
      "ua": 4795,
      "Ġsolid": 4796,
      "Ġformerly": 4797,
      "Ġusers": 4798,
      "Ġdevelopments": 4799,
      "Ġrh": 4800,
      "Ġcollaboration": 4801,
      "ki": 4802,
      "Ġsir": 4803,
      "Ġpartnerships": 4804,
      "Ġcommitted": 4805,
      "Ġgovernor": 4806,
      "pres": 4807,
      "encing": 4808,
      "Ġwriting": 4809,
      "Ġitself": 4810,
      "Ġfunctions": 4811,
      "Ġproducer": 4812,
      "Ġarising": 4813,
      "Ġtext": 4814,
      "Ġprepay": 4815,
      "Ġmine": 4816,
      "uty": 4817,
      "Ġparent": 4818,
      "Ġfish": 4819,
      "Ġconfir": 4820,
      "Ġdecided": 4821,
      "Ġwild": 4822,
      "Ġhaz": 4823,
      "Ġconsisting": 4824,
      "under": 4825,
      "Ġobjectives": 4826,
      "Ġbecomes": 4827,
      "Ġdistributors": 4828,
      "achusetts": 4829,
      "Ġactress": 4830,
      "Ġevaluated": 4831,
      "Ġemissions": 4832,
      "Ġintegration": 4833,
      "Ġmeasurements": 4834,
      "Ġhousehold": 4835,
      "Ġpermit": 4836,
      "Ġamb": 4837,
      "Ġinvested": 4838,
      "offs": 4839,
      "Ġfairly": 4840,
      "Ġedition": 4841,
      "Ġattention": 4842,
      "Ġmom": 4843,
      "Ġtotaling": 4844,
      "Ġcategories": 4845,
      "stock": 4846,
      "Ġassigned": 4847,
      "Ġcommissions": 4848,
      "Ġseasons": 4849,
      "Ġgrew": 4850,
      "stcentury": 4851,
      "Ġneigh": 4852,
      "pping": 4853,
      "Ġot": 4854,
      "Ġfred": 4855,
      "born": 4856,
      "bour": 4857,
      "Ġislands": 4858,
      "Ġcontingencies": 4859,
      "ows": 4860,
      "itting": 4861,
      "Ġinfluence": 4862,
      "oke": 4863,
      "Ġsettled": 4864,
      "Ġfraud": 4865,
      "Ġtakes": 4866,
      "Ġsometimes": 4867,
      "Ġlicensing": 4868,
      "Ġrevised": 4869,
      "//": 4870,
      "Ġexclusive": 4871,
      "Ġsex": 4872,
      "Ġweightedaverage": 4873,
      "Ġko": 4874,
      "add": 4875,
      "Ġyearover": 4876,
      "Ġproved": 4877,
      "Ġallowances": 4878,
      "Ġexpiration": 4879,
      "Ġthought": 4880,
      "Ġwriters": 4881,
      "iffs": 4882,
      "Ġyearoveryear": 4883,
      "lements": 4884,
      "Ġsaint": 4885,
      "istan": 4886,
      "try": 4887,
      "atriate": 4888,
      "Ġweakness": 4889,
      "Ġflat": 4890,
      "Ġfeatured": 4891,
      "Ġoversight": 4892,
      "Ġdeficit": 4893,
      "Ġencour": 4894,
      "Ġnongaap": 4895,
      "Ġrecording": 4896,
      "Ġgal": 4897,
      "Ġshift": 4898,
      "Ġash": 4899,
      "Ġnavy": 4900,
      "ole": 4901,
      "hab": 4902,
      "je": 4903,
      "Ġrunning": 4904,
      "Ġguys": 4905,
      "Ġtrend": 4906,
      "Ġow": 4907,
      "Ġnoninterest": 4908,
      "va": 4909,
      "Ġdeep": 4910,
      "Ġbaseball": 4911,
      "Ġunderwriting": 4912,
      "Ġvac": 4913,
      "new": 4914,
      "Ġcab": 4915,
      "Ġconcentr": 4916,
      "Ġconstant": 4917,
      "Ġmassachusetts": 4918,
      "Ġbish": 4919,
      "ums": 4920,
      "ho": 4921,
      "Ġplacement": 4922,
      "Ġjoining": 4923,
      "igence": 4924,
      "Ġsplit": 4925,
      "Ġmotor": 4926,
      "Ġpretax": 4927,
      "utive": 4928,
      "Ġstraightline": 4929,
      "Ġchanging": 4930,
      "Ġmanagers": 4931,
      "align": 4932,
      "ugby": 4933,
      "Ġjoseph": 4934,
      "Ġreputation": 4935,
      "Ġlands": 4936,
      "Ġcritic": 4937,
      "Ġextend": 4938,
      "Ġconsent": 4939,
      "Ġsupporting": 4940,
      "Ġserves": 4941,
      "orm": 4942,
      "Ġquickly": 4943,
      "Ġdeter": 4944,
      "Ġdiss": 4945,
      "Ġjim": 4946,
      "Ġparticipate": 4947,
      "Ġimplemented": 4948,
      "Ġmartin": 4949,
      "Ġinflation": 4950,
      "Ġpick": 4951,
      "left": 4952,
      "Ġlay": 4953,
      "Ġrig": 4954,
      "Ġvess": 4955,
      "ypt": 4956,
      "Ġtouch": 4957,
      "Ġaware": 4958,
      "Ġrepresentatives": 4959,
      "eds": 4960,
      "iary": 4961,
      "Ġclubs": 4962,
      "Ġjack": 4963,
      "Ġscientific": 4964,
      "build": 4965,
      "Ġanth": 4966,
      "icts": 4967,
      "Ġdiscounted": 4968,
      "Ġwinter": 4969,
      "Ġfamilies": 4970,
      "Ġextre": 4971,
      "Ġprincipally": 4972,
      "Ġbecoming": 4973,
      "Ġscale": 4974,
      "Ġsecondary": 4975,
      "bridge": 4976,
      "Ġretired": 4977,
      "iques": 4978,
      "Ġprepaid": 4979,
      "Ġconcerning": 4980,
      "Ġaffil": 4981,
      "Ġsupported": 4982,
      "Ġwriter": 4983,
      "vals": 4984,
      "aces": 4985,
      "Ġclassification": 4986,
      "Ġguess": 4987,
      "Ġsab": 4988,
      "Ġllp": 4989,
      "Ġrussia": 4990,
      "Ġstructures": 4991,
      "Ġvocals": 4992,
      "Ġhal": 4993,
      "Ġreading": 4994,
      "iger": 4995,
      "Ġmemor": 4996,
      "Ġrid": 4997,
      "appro": 4998,
      "Ġstan": 4999,
      "Ġclimate": 5000,
      "gu": 5001,
      "aving": 5002,
      "Ġeffort": 5003,
      "Ġscored": 5004,
      "Ġobtaining": 5005,
      "Ġspr": 5006,
      "eed": 5007,
      "Ġhockey": 5008,
      "inating": 5009,
      "ibles": 5010,
      "Ġsafe": 5011,
      "ounds": 5012,
      "iles": 5013,
      "Ġreasons": 5014,
      "agon": 5015,
      "Ġos": 5016,
      "Ġvalued": 5017,
      "Ġconjunction": 5018,
      "Ġdisclosed": 5019,
      "Ġventures": 5020,
      "stream": 5021,
      "Ġpict": 5022,
      "cing": 5023,
      "Ġefficiency": 5024,
      "Ġbid": 5025,
      "Ġunique": 5026,
      "Ġreconcil": 5027,
      "Ġchart": 5028,
      "Ġgetting": 5029,
      "company": 5030,
      "Ġdefinitive": 5031,
      "Ġgraph": 5032,
      "Ġsecure": 5033,
      "aded": 5034,
      "Ġsearch": 5035,
      "Ġremo": 5036,
      "fc": 5037,
      "Ġheavy": 5038,
      "Ġtests": 5039,
      "Ġdetails": 5040,
      "Ġarticles": 5041,
      "Ġcos": 5042,
      "Ġschol": 5043,
      "Ġwanted": 5044,
      "this": 5045,
      "Ġdoubtful": 5046,
      "Ġwholesale": 5047,
      "Ġfunctional": 5048,
      "Ġactor": 5049,
      "forsale": 5050,
      "Ġreit": 5051,
      "bol": 5052,
      "Ġraised": 5053,
      "Ġqualify": 5054,
      "force": 5055,
      "Ġenforcement": 5056,
      "Ġborrowers": 5057,
      "Ġblood": 5058,
      "Ġmichigan": 5059,
      "Ġago": 5060,
      "light": 5061,
      "Ġspecialty": 5062,
      "har": 5063,
      "Ġba": 5064,
      "men": 5065,
      "Ġcalend": 5066,
      "Ġnearly": 5067,
      "yst": 5068,
      "Ġwords": 5069,
      "Ġcitiz": 5070,
      "cer": 5071,
      "Ġrequirement": 5072,
      "tax": 5073,
      "Ġplays": 5074,
      "Ġcer": 5075,
      "Ġvoice": 5076,
      "Ġnar": 5077,
      "Ġempire": 5078,
      "Ġelement": 5079,
      "Ġtelec": 5080,
      "qualified": 5081,
      "gal": 5082,
      "backed": 5083,
      "sequ": 5084,
      "Ġexpressed": 5085,
      "Ġmunicipality": 5086,
      "ilipp": 5087,
      "Ġmedicare": 5088,
      "Ġdiagn": 5089,
      "Ġul": 5090,
      "look": 5091,
      "Ġnative": 5092,
      "Ġnewsp": 5093,
      "Ġguidelines": 5094,
      "Ġfloor": 5095,
      "rick": 5096,
      "Ġvirt": 5097,
      "Ġswaps": 5098,
      "hem": 5099,
      "Ġadapt": 5100,
      "Ġsupplies": 5101,
      "Ġfifth": 5102,
      "Ġdrugs": 5103,
      "state": 5104,
      "Ġpattern": 5105,
      "Ġprofits": 5106,
      "career": 5107,
      "Ġchallenges": 5108,
      "ros": 5109,
      "net": 5110,
      "Ġsurround": 5111,
      "Ġoperates": 5112,
      "Ġincremental": 5113,
      "Ġtang": 5114,
      "Ġmir": 5115,
      "Ġadvisory": 5116,
      "ounder": 5117,
      "Ġbarr": 5118,
      "ci": 5119,
      "asters": 5120,
      "Ġcorresponding": 5121,
      "Ġyouth": 5122,
      "Ġholder": 5123,
      "Ġinception": 5124,
      "Ġpi": 5125,
      "Ġmarine": 5126,
      "Ġretro": 5127,
      "iano": 5128,
      "met": 5129,
      "Ġcaptain": 5130,
      "Ġforec": 5131,
      "Ġpoet": 5132,
      "Ġcolumbia": 5133,
      "Ġpsych": 5134,
      "Ġburn": 5135,
      "ained": 5136,
      "Ġheadquarters": 5137,
      "Ġreducing": 5138,
      "Ġaer": 5139,
      "Ġcalculation": 5140,
      "Ġthereto": 5141,
      "Ġhedges": 5142,
      "Ġda": 5143,
      "Ġcatal": 5144,
      "Ġfellow": 5145,
      "Ġforced": 5146,
      "urer": 5147,
      "Ġmusical": 5148,
      "Ġairport": 5149,
      "Ġmetal": 5150,
      "Ġmonitoring": 5151,
      "mod": 5152,
      "Ġpron": 5153,
      "Ġcalendar": 5154,
      "Ġtraffic": 5155,
      "Ġsatisfy": 5156,
      "Ġjeff": 5157,
      "Ġsummarizes": 5158,
      "Ġprospects": 5159,
      "Ġqualitative": 5160,
      "Ġdisput": 5161,
      "Ġduke": 5162,
      "Ġprovider": 5163,
      "Ġteleph": 5164,
      "Ġbear": 5165,
      "Ġbass": 5166,
      "Ġinvolving": 5167,
      "Ġmas": 5168,
      "ifies": 5169,
      "Ġlisting": 5170,
      "Ġpreceding": 5171,
      "Ġice": 5172,
      "Ġethics": 5173,
      "Ġkent": 5174,
      "fs": 5175,
      "Ġcount": 5176,
      "unk": 5177,
      "aints": 5178,
      "oples": 5179,
      "Ġagents": 5180,
      "gas": 5181,
      "Ġdead": 5182,
      "Ġmissing": 5183,
      "Ġenable": 5184,
      "Ġpp": 5185,
      "Ġwithdraw": 5186,
      "benef": 5187,
      "Ġprison": 5188,
      "Ġutilize": 5189,
      "Ġfriend": 5190,
      "erce": 5191,
      "fa": 5192,
      "weight": 5193,
      "gian": 5194,
      "Ġboy": 5195,
      "Ġstad": 5196,
      "Ġoppos": 5197,
      "Ġtrib": 5198,
      "atures": 5199,
      "Ġunderstanding": 5200,
      "Ġjurisdiction": 5201,
      "Ġgrade": 5202,
      "Ġjob": 5203,
      "Ġnations": 5204,
      "Ġcycle": 5205,
      "Ġcharacters": 5206,
      "cap": 5207,
      "Ġcontest": 5208,
      "Ġlord": 5209,
      "Ġwoman": 5210,
      "Ġwinning": 5211,
      "Ġfactor": 5212,
      "Ġsole": 5213,
      "Ġengage": 5214,
      "Ġoccurs": 5215,
      "Ġhonor": 5216,
      "Ġkong": 5217,
      "Ġtar": 5218,
      "Ġseasonal": 5219,
      "Ġmotion": 5220,
      "Ġsinger": 5221,
      "Ġhus": 5222,
      "Ġterminate": 5223,
      "Ġram": 5224,
      "Ġpresence": 5225,
      "Ġreplacement": 5226,
      "Ġwales": 5227,
      "Ġeveryone": 5228,
      "Ġresolution": 5229,
      "Ġray": 5230,
      "Ġattended": 5231,
      "miss": 5232,
      "Ġbea": 5233,
      "Ġspain": 5234,
      "Ġthousand": 5235,
      "Ġaven": 5236,
      "Ġseverance": 5237,
      "Ġsector": 5238,
      "Ġscore": 5239,
      "gl": 5240,
      "ati": 5241,
      "Ġarab": 5242,
      "Ġlatin": 5243,
      "Ġcollectively": 5244,
      "Ġgather": 5245,
      "ext": 5246,
      "worth": 5247,
      "wan": 5248,
      "Ġhomes": 5249,
      "Ġta": 5250,
      "Ġcant": 5251,
      "Ġcrude": 5252,
      "Ġsport": 5253,
      "ji": 5254,
      "stone": 5255,
      "Ġprofile": 5256,
      "Ġundert": 5257,
      "Ġreve": 5258,
      "Ġlee": 5259,
      "Ġreviewed": 5260,
      "Ġbott": 5261,
      "Ġmcc": 5262,
      "Ġtrail": 5263,
      "Ġbell": 5264,
      "Ġfast": 5265,
      "Ġcertainly": 5266,
      "Ġfal": 5267,
      "Ġdrama": 5268,
      "Ġboston": 5269,
      "Ġpul": 5270,
      "Ġfurthermore": 5271,
      "idents": 5272,
      "icted": 5273,
      "oral": 5274,
      "Ġpassed": 5275,
      "Ġcreek": 5276,
      "has": 5277,
      "Ġthr": 5278,
      "Ġsurface": 5279,
      "Ġwhy": 5280,
      "aniel": 5281,
      "Ġharr": 5282,
      "Ġhong": 5283,
      "Ġpu": 5284,
      "Ġconsequ": 5285,
      "Ġcele": 5286,
      "osh": 5287,
      "Ġqualifying": 5288,
      "Ġaz": 5289,
      "uate": 5290,
      "Ġratings": 5291,
      "Ġjustice": 5292,
      "Ġtwent": 5293,
      "etime": 5294,
      "archy": 5295,
      "Ġran": 5296,
      "Ġintent": 5297,
      "Ġchannels": 5298,
      "Ġmerc": 5299,
      "onsolid": 5300,
      "Ġindenture": 5301,
      "Ġmerchand": 5302,
      "films": 5303,
      "Ġthing": 5304,
      "otive": 5305,
      "Ġrepayment": 5306,
      "Ġguard": 5307,
      "kins": 5308,
      "uar": 5309,
      "Ġholds": 5310,
      "Ġpeoples": 5311,
      "Ġnewly": 5312,
      "Ġfdic": 5313,
      "Ġguarantees": 5314,
      "Ġappeal": 5315,
      "Ġfab": 5316,
      "Ġvendors": 5317,
      "ato": 5318,
      "Ġships": 5319,
      "Ġenough": 5320,
      "Ġlouisiana": 5321,
      "Ġslightly": 5322,
      "Ġcriminal": 5323,
      "Ġexpects": 5324,
      "Ġbol": 5325,
      "Ġinvestigation": 5326,
      "apeut": 5327,
      "Ġseeking": 5328,
      "km": 5329,
      "Ġwel": 5330,
      "Ġbeach": 5331,
      "Ġsolution": 5332,
      "Ġwireless": 5333,
      "Ġoutlook": 5334,
      "Ġorch": 5335,
      "Ġdistributed": 5336,
      "Ġgovernments": 5337,
      "Ġcod": 5338,
      "Ġrequiring": 5339,
      "Ġgiving": 5340,
      "Ġclasses": 5341,
      "Ġeps": 5342,
      "Ġpetro": 5343,
      "Ġspir": 5344,
      "enth": 5345,
      "azz": 5346,
      "Ġefficient": 5347,
      "ingu": 5348,
      "Ġcells": 5349,
      "Ġsoviet": 5350,
      "Ġrural": 5351,
      "Ġthreat": 5352,
      "Ġirish": 5353,
      "Ġjohnson": 5354,
      "Ġbacklog": 5355,
      "Ġdeterior": 5356,
      "Ġcelebr": 5357,
      "Ġplaint": 5358,
      "che": 5359,
      "Ġprogramming": 5360,
      "Ġlock": 5361,
      "Ġphilos": 5362,
      "Ġlegislative": 5363,
      "Ġparish": 5364,
      "Ġruns": 5365,
      "Ġalleged": 5366,
      "Ġstone": 5367,
      "Ġassistant": 5368,
      "pm": 5369,
      "free": 5370,
      "Ġphilipp": 5371,
      "Ġworth": 5372,
      "Ġaffairs": 5373,
      "Ġbehav": 5374,
      "Ġmostly": 5375,
      "trans": 5376,
      "banes": 5377,
      "Ġnev": 5378,
      "Ġprote": 5379,
      "ira": 5380,
      "enge": 5381,
      "efin": 5382,
      "Ġbab": 5383,
      "Ġansw": 5384,
      "Ġfriends": 5385,
      "Ġenhance": 5386,
      "Ġhier": 5387,
      "like": 5388,
      "itan": 5389,
      "Ġshot": 5390,
      "Ġacts": 5391,
      "Ġpronoun": 5392,
      "Ġrestaurant": 5393,
      "iencies": 5394,
      "Ġfeed": 5395,
      "Ġdisposition": 5396,
      "Ġenacted": 5397,
      "Ġtargets": 5398,
      "Ġrul": 5399,
      "elling": 5400,
      "Ġobservable": 5401,
      "prof": 5402,
      "Ġcloud": 5403,
      "agre": 5404,
      "issipp": 5405,
      "Ġdouble": 5406,
      "aled": 5407,
      "ecutive": 5408,
      "Ġspect": 5409,
      "Ġinability": 5410,
      "Ġavailableforsale": 5411,
      "fect": 5412,
      "Ġowns": 5413,
      "Ġbudget": 5414,
      "Ġsarbanes": 5415,
      "Ġquantitative": 5416,
      "Ġcontact": 5417,
      "Ġrol": 5418,
      "recurring": 5419,
      "Ġsciences": 5420,
      "Ġaffiliate": 5421,
      "Ġeditor": 5422,
      "Ġincl": 5423,
      "Ġorganic": 5424,
      "Ġbc": 5425,
      "Ġproducing": 5426,
      "Ġdistinct": 5427,
      "earing": 5428,
      "Ġprojections": 5429,
      "Ġutilized": 5430,
      "Ġsense": 5431,
      "Ġreorgan": 5432,
      "Ġak": 5433,
      "Ġunderstand": 5434,
      "town": 5435,
      "Ġappears": 5436,
      "Ġterritory": 5437,
      "benefit": 5438,
      "Ġcultural": 5439,
      "track": 5440,
      "eman": 5441,
      "Ġwilliams": 5442,
      "Ġestablishing": 5443,
      "uge": 5444,
      "resh": 5445,
      "Ġfailed": 5446,
      "Ġpap": 5447,
      "Ġnation": 5448,
      "Ġcollected": 5449,
      "Ġassessing": 5450,
      "Ġexact": 5451,
      "stein": 5452,
      "tm": 5453,
      "Ġmisstat": 5454,
      "agement": 5455,
      "Ġvalid": 5456,
      "Ġshorter": 5457,
      "Ġtechniques": 5458,
      "Ġrecru": 5459,
      "Ġacceptance": 5460,
      "Ġbrief": 5461,
      "Ġrespects": 5462,
      "war": 5463,
      "Ġaffecting": 5464,
      "adel": 5465,
      "Ġmagn": 5466,
      "Ġliquidation": 5467,
      "Ġunpaid": 5468,
      "Ġexists": 5469,
      "Ġpermits": 5470,
      "Ġemployed": 5471,
      "Ġdeclined": 5472,
      "Ġpursue": 5473,
      "Ġexceeds": 5474,
      "Ġmah": 5475,
      "ifi": 5476,
      "Ġfootballer": 5477,
      "asts": 5478,
      "market": 5479,
      "Ġcontrolled": 5480,
      "Ġguest": 5481,
      "Ġgulf": 5482,
      "Ġindefin": 5483,
      "Ġluc": 5484,
      "Ġmarketable": 5485,
      "Ġapprovals": 5486,
      "obs": 5487,
      "Ġelectricity": 5488,
      "life": 5489,
      "east": 5490,
      "Ġwarranty": 5491,
      "ador": 5492,
      "Ġtrustee": 5493,
      "shire": 5494,
      "Ġrow": 5495,
      "ression": 5496,
      "Ġregulated": 5497,
      "urrence": 5498,
      "Ġrugby": 5499,
      "vin": 5500,
      "pat": 5501,
      "Ġmiles": 5502,
      "Ġdefeated": 5503,
      "Ġsponsor": 5504,
      "Ġtrip": 5505,
      "Ġelections": 5506,
      "Ġinterview": 5507,
      "ih": 5508,
      "Ġupper": 5509,
      "Ġie": 5510,
      "Ġdemocratic": 5511,
      "argo": 5512,
      "Ġsupplementary": 5513,
      "Ġdim": 5514,
      "Ġmatches": 5515,
      "Ġlived": 5516,
      "aper": 5517,
      "oxley": 5518,
      "Ġolder": 5519,
      "Ġcommercialization": 5520,
      "Ġpersp": 5521,
      "Ġbelieved": 5522,
      "Ġles": 5523,
      "Ġhydro": 5524,
      "Ġcopy": 5525,
      "Ġways": 5526,
      "Ġcomputed": 5527,
      "char": 5528,
      "Ġformation": 5529,
      "Ġnorthe": 5530,
      "Ġware": 5531,
      "akers": 5532,
      "Ġnic": 5533,
      "Ġil": 5534,
      "Ġtransform": 5535,
      "Ġcricket": 5536,
      "Ġimpacts": 5537,
      "Ġacceptable": 5538,
      "Ġinterpretation": 5539,
      "Ġsarbanesoxley": 5540,
      "Ġtools": 5541,
      "Ġoccas": 5542,
      "inem": 5543,
      "Ġhighway": 5544,
      "roup": 5545,
      "Ġtherapeut": 5546,
      "Ġregiment": 5547,
      "astic": 5548,
      "Ġukrain": 5549,
      "Ġcharacteristics": 5550,
      "Ġcorps": 5551,
      "andon": 5552,
      "Ġupgr": 5553,
      "tom": 5554,
      "Ġtrying": 5555,
      "Ġjones": 5556,
      "bury": 5557,
      "Ġterror": 5558,
      "elect": 5559,
      "oon": 5560,
      "Ġchapter": 5561,
      "Ġparticipating": 5562,
      "Ġdestroy": 5563,
      "Ġrelief": 5564,
      "Ġbod": 5565,
      "Ġgoverning": 5566,
      "gar": 5567,
      "Ġdar": 5568,
      "effect": 5569,
      "Ġaim": 5570,
      "Ġpublish": 5571,
      "Ġmorgan": 5572,
      "Ġdisplay": 5573,
      "Ġaspects": 5574,
      "anes": 5575,
      "unic": 5576,
      "ĊĠĊ": 5577,
      "Ġchallenge": 5578,
      "Ġtreated": 5579,
      "Ġrestaurants": 5580,
      "Ġrs": 5581,
      "Ġdefer": 5582,
      "inder": 5583,
      "Ġsupre": 5584,
      "Ġdenom": 5585,
      "Ġstadium": 5586,
      "english": 5587,
      "bro": 5588,
      "usts": 5589,
      "Ġdedicated": 5590,
      "iel": 5591,
      "Ġavenue": 5592,
      "Ġss": 5593,
      "Ġseat": 5594,
      "Ġdod": 5595,
      "Ġratios": 5596,
      "Ġsamp": 5597,
      "Ġscreen": 5598,
      "Ġunknown": 5599,
      "Ġsurvey": 5600,
      "Ġdark": 5601,
      "Ġcomplaint": 5602,
      "dav": 5603,
      "pop": 5604,
      "ading": 5605,
      "anda": 5606,
      "Ġprize": 5607,
      "Ġscen": 5608,
      "ĠÐ": 5609,
      "onomy": 5610,
      "Ġfrancisco": 5611,
      "Ġbron": 5612,
      "Ġprotest": 5613,
      "Ġgenerating": 5614,
      "Ġexecution": 5615,
      "Ġoce": 5616,
      "uein": 5617,
      "Ġdebentures": 5618,
      "Ġtrue": 5619,
      "Ġrevolution": 5620,
      "Ġvs": 5621,
      "Ġhab": 5622,
      "itude": 5623,
      "Ġcovering": 5624,
      "Ġsolar": 5625,
      "Ġelsewhere": 5626,
      "Ġbrig": 5627,
      "cements": 5628,
      "Ġhung": 5629,
      "Ġsucceed": 5630,
      "uction": 5631,
      "Ġapart": 5632,
      "Ġchampion": 5633,
      "Ġtelephone": 5634,
      "iga": 5635,
      "Ġcolorado": 5636,
      "Ġdraft": 5637,
      "issory": 5638,
      "Ġrepresentative": 5639,
      "Ġconsiders": 5640,
      "ruptions": 5641,
      "hs": 5642,
      "Ġdynam": 5643,
      "oms": 5644,
      "Ġdun": 5645,
      "cies": 5646,
      "isters": 5647,
      "Ġexposed": 5648,
      "chester": 5649,
      "eli": 5650,
      "Ġintell": 5651,
      "Ġly": 5652,
      "tery": 5653,
      "Ġtemper": 5654,
      "Ġpoll": 5655,
      "Ġmississipp": 5656,
      "Ġconsultants": 5657,
      "Ġmarri": 5658,
      "Ġvictory": 5659,
      "Ġcounsel": 5660,
      "hr": 5661,
      "ï¿½ï¿½ï¿½ï¿½ï¿½ï¿½ï¿½ï¿½": 5662,
      "oo": 5663,
      "Ġslide": 5664,
      "Ġasian": 5665,
      "Ġalbert": 5666,
      "anth": 5667,
      "Ġpromissory": 5668,
      "Ġmoment": 5669,
      "oy": 5670,
      "Ġinjury": 5671,
      "Ġresource": 5672,
      "ueinputs": 5673,
      "Ġlose": 5674,
      "Ġiron": 5675,
      "awa": 5676,
      "ueinputslevel": 5677,
      "Ġusgaapfairvalueinputslevel": 5678,
      "jan": 5679,
      "Ġdecreases": 5680,
      "Ġped": 5681,
      "Ġreconciliation": 5682,
      "Ġtracks": 5683,
      "Ġwhe": 5684,
      "onso": 5685,
      "Ġbob": 5686,
      "Ġremoved": 5687,
      "Ġgives": 5688,
      "Ġargent": 5689,
      "class": 5690,
      "Ġrise": 5691,
      "Ġmike": 5692,
      "Ġwatch": 5693,
      "iece": 5694,
      "Ġedward": 5695,
      "itu": 5696,
      "Ġton": 5697,
      "Ġranging": 5698,
      "Ġanalyst": 5699,
      "ray": 5700,
      "emon": 5701,
      "bank": 5702,
      "uff": 5703,
      "during": 5704,
      "Ġfilings": 5705,
      "Ġcycl": 5706,
      "ora": 5707,
      "================": 5708,
      "Ġdomin": 5709,
      "Ġassign": 5710,
      "Ġannivers": 5711,
      "Ġmm": 5712,
      "Ġprop": 5713,
      "iscons": 5714,
      "icks": 5715,
      "teen": 5716,
      "Ġtam": 5717,
      "Ġcub": 5718,
      "Ġborrower": 5719,
      "Ġtun": 5720,
      "arend": 5721,
      "Ġmarc": 5722,
      "Ġcomedy": 5723,
      "Ġexchang": 5724,
      "Ġtalked": 5725,
      "nesota": 5726,
      "Ġdismiss": 5727,
      "Ġcastle": 5728,
      "Ġdirection": 5729,
      "yer": 5730,
      "Ġgenus": 5731,
      "Ġdelin": 5732,
      "Ġreliability": 5733,
      "Ġusgaapfairvalueinputslevelmember": 5734,
      "lines": 5735,
      "Ġeliminated": 5736,
      "Ġpros": 5737,
      "real": 5738,
      "ils": 5739,
      "Ġminutes": 5740,
      "Ġbackground": 5741,
      "Ġhelped": 5742,
      "Ġshared": 5743,
      "Ġdivided": 5744,
      "Ġrelates": 5745,
      "Ġexecuted": 5746,
      "Ġpowers": 5747,
      "onsolidated": 5748,
      "ymp": 5749,
      "Ġcities": 5750,
      "agr": 5751,
      "Ġgreek": 5752,
      "Ġtrademarks": 5753,
      "Ġhierarchy": 5754,
      "Ġnevada": 5755,
      "eries": 5756,
      "Ġarchitecture": 5757,
      "Ġstop": 5758,
      "Ġsecurit": 5759,
      "Ġbird": 5760,
      "Ġacting": 5761,
      "Ġbh": 5762,
      "Ġnonemploy": 5763,
      "fully": 5764,
      "Ġintegral": 5765,
      "Ġtherapy": 5766,
      "Ġreceiving": 5767,
      "isconsin": 5768,
      "Ġtransf": 5769,
      "clin": 5770,
      "Ġdriving": 5771,
      "Ġsettlements": 5772,
      "Ġmitig": 5773,
      "Ġpaying": 5774,
      "Ġfrequently": 5775,
      "Ġinsured": 5776,
      "Ġrecoverable": 5777,
      "iy": 5778,
      "Ġexamination": 5779,
      "Ġplatforms": 5780,
      "Ġinvolves": 5781,
      "Ġpasseng": 5782,
      "Ġcircuit": 5783,
      "Ġsurg": 5784,
      "Ġpoland": 5785,
      "Ġobjective": 5786,
      "Ġintangibles": 5787,
      "Ġelectr": 5788,
      "Ġthemselves": 5789,
      "Ġleaders": 5790,
      "Ġpromotion": 5791,
      "Ġquite": 5792,
      "Ġdetailed": 5793,
      "Ġcrew": 5794,
      "Ġmaryland": 5795,
      "burgh": 5796,
      "Ġdutch": 5797,
      "Ġprince": 5798,
      "Ġcommunication": 5799,
      "Ġmovie": 5800,
      "Ġtower": 5801,
      "Ġintroduction": 5802,
      "lers": 5803,
      "Ġclaimed": 5804,
      "Ġsupreme": 5805,
      "Ġmutual": 5806,
      "Ġactuar": 5807,
      "Ġguaranteed": 5808,
      "ellow": 5809,
      "Ġmississippi": 5810,
      "Ġrecurring": 5811,
      "Ġexpertise": 5812,
      "onduct": 5813,
      "Ġark": 5814,
      "Ġcars": 5815,
      "Ġdefinition": 5816,
      "Ġentry": 5817,
      "Ġexecutives": 5818,
      "Ġdiscovery": 5819,
      "ropol": 5820,
      "Ġcham": 5821,
      "Ġutilization": 5822,
      "ibly": 5823,
      "Ġandrew": 5824,
      "Ġabandon": 5825,
      "there": 5826,
      "Ġpremier": 5827,
      "Ġorganized": 5828,
      "gers": 5829,
      "Ġassociates": 5830,
      "Ġwhollyowned": 5831,
      "Ġnonperform": 5832,
      "Ġpak": 5833,
      "Ġconsumm": 5834,
      "days": 5835,
      "quency": 5836,
      "Ġforma": 5837,
      "ilit": 5838,
      "mont": 5839,
      "ucky": 5840,
      "Ġproport": 5841,
      "aught": 5842,
      "Ġbern": 5843,
      "Ġsatell": 5844,
      "Ġentr": 5845,
      "Ġacademic": 5846,
      "Ġflight": 5847,
      "Ġcreation": 5848,
      "Ġcitizens": 5849,
      "bar": 5850,
      "Ġstars": 5851,
      "Ġphilosoph": 5852,
      "roph": 5853,
      "Ġrelate": 5854,
      "Ġcable": 5855,
      "Ġwrest": 5856,
      "Ġliterature": 5857,
      "Ġcomposed": 5858,
      "hous": 5859,
      "Ġjacks": 5860,
      "iant": 5861,
      "Ġjac": 5862,
      "Ġaffiliated": 5863,
      "Ġcharl": 5864,
      "Ġreverse": 5865,
      "star": 5866,
      "Ġminority": 5867,
      "Ġcolumn": 5868,
      "Ġkil": 5869,
      "fin": 5870,
      "Ġrain": 5871,
      "Ġillustr": 5872,
      "ounter": 5873,
      "Ġborder": 5874,
      "Ġrose": 5875,
      "Ġbrothers": 5876,
      "mich": 5877,
      "Ġkorea": 5878,
      "Ġrand": 5879,
      "Ġbound": 5880,
      "Ġprovinc": 5881,
      "Ġmanufacturer": 5882,
      "Ġmonet": 5883,
      "Ġbishop": 5884,
      "Ġhazard": 5885,
      "Ġexit": 5886,
      "Ġdiscounts": 5887,
      "Ġregularly": 5888,
      "Ġsaying": 5889,
      "author": 5890,
      "Ġcomparison": 5891,
      "Ġassert": 5892,
      "Ġrough": 5893,
      "Ġfirms": 5894,
      "Ġjul": 5895,
      "Ġscotland": 5896,
      "Ġdan": 5897,
      "Ġswitch": 5898,
      "Ġnecessarily": 5899,
      "Ġurban": 5900,
      "Ġblacks": 5901,
      "Ġmissour": 5902,
      "Ġmarketplace": 5903,
      "Ġshipping": 5904,
      "Ġmedicine": 5905,
      "Ġrenewal": 5906,
      "Ġthir": 5907,
      "Ġrealize": 5908,
      "Ġutilities": 5909,
      "undred": 5910,
      "Ġtechnological": 5911,
      "Ġpoor": 5912,
      "ila": 5913,
      "Ġmembership": 5914,
      "Ġproblem": 5915,
      "bled": 5916,
      "tel": 5917,
      "clinical": 5918,
      "pet": 5919,
      "ishment": 5920,
      "Ġhardware": 5921,
      "ugg": 5922,
      "Ġmu": 5923,
      "Ġreplace": 5924,
      "Ġconfidential": 5925,
      "Ġconformity": 5926,
      "Ġanything": 5927,
      "Ġgirl": 5928,
      "rid": 5929,
      "Ġgolden": 5930,
      "Ġaccident": 5931,
      "Ġministry": 5932,
      "Ġqueens": 5933,
      "Ġarticle": 5934,
      "Ġwing": 5935,
      "Ġleave": 5936,
      "Ġposted": 5937,
      "Ġalliance": 5938,
      "Ġcarbon": 5939,
      "mas": 5940,
      "Ġcreating": 5941,
      "Ġreclassified": 5942,
      "Ġunfavor": 5943,
      "david": 5944,
      "Ġwisconsin": 5945,
      "Ġappearance": 5946,
      "ipts": 5947,
      "atically": 5948,
      "Ġanniversary": 5949,
      "Ġconcerns": 5950,
      "Ġindiana": 5951,
      "ogen": 5952,
      "Ġimproving": 5953,
      "Ġstudied": 5954,
      "foot": 5955,
      "Ġexpensed": 5956,
      "Ġextra": 5957,
      "ÅĤ": 5958,
      "aya": 5959,
      "Ġpurchas": 5960,
      "Ġkenn": 5961,
      "pers": 5962,
      "Ġdeclines": 5963,
      "Ġdance": 5964,
      "Ġott": 5965,
      "tim": 5966,
      "Ġcommonly": 5967,
      "Ġsupplier": 5968,
      "Ġcow": 5969,
      "Ġidentification": 5970,
      "Ġprofession": 5971,
      "Ġannum": 5972,
      "univers": 5973,
      "Ġassuming": 5974,
      "Ġremediation": 5975,
      "Ġts": 5976,
      "Ġminnesota": 5977,
      "affili": 5978,
      "ailing": 5979,
      "uries": 5980,
      "Ġexped": 5981,
      "Ġresidents": 5982,
      "Ġperspective": 5983,
      "Ġseparately": 5984,
      "Ġasked": 5985,
      "Ġnick": 5986,
      "Ġlyn": 5987,
      "Ġaccountants": 5988,
      "onia": 5989,
      "Ġavoid": 5990,
      "mentmember": 5991,
      "Ġallowing": 5992,
      "Ġportug": 5993,
      "Ġsuperior": 5994,
      "Ġcampus": 5995,
      "uated": 5996,
      "ensions": 5997,
      "Ġwonder": 5998,
      "Ġconcept": 5999,
      "Ġinnovation": 6000,
      "Ġtargeted": 6001,
      "Ġfounder": 6002,
      "tex": 6003,
      "Ġkings": 6004,
      "lav": 6005,
      "Ġcourts": 6006,
      "Ġactors": 6007,
      "Ġcurrencies": 6008,
      "Ġportions": 6009,
      "Ġban": 6010,
      "ova": 6011,
      "Ġadditions": 6012,
      "Ġfacult": 6013,
      "Ġoverview": 6014,
      "Ġsupervision": 6015,
      "Ġbach": 6016,
      "ela": 6017,
      "book": 6018,
      "izona": 6019,
      "Ġtheory": 6020,
      "uv": 6021,
      "Ġtownship": 6022,
      "Ġactuarial": 6023,
      "Ġagricultural": 6024,
      "Ġimpose": 6025,
      "Ġclosely": 6026,
      "Ġsanct": 6027,
      "Ġiran": 6028,
      "Ġdrivers": 6029,
      "Ġfun": 6030,
      "Ġconsecutive": 6031,
      "Ġsister": 6032,
      "Ġassure": 6033,
      "och": 6034,
      "Ġexcluded": 6035,
      "Ġmaintains": 6036,
      "Ġmissouri": 6037,
      "eless": 6038,
      "ĠâĢ¢": 6039,
      "arent": 6040,
      "Ġjon": 6041,
      "lict": 6042,
      "Ġâ": 6043,
      "Ġnotable": 6044,
      "Ġoperators": 6045,
      "Ġreligious": 6046,
      "fort": 6047,
      "Ġspend": 6048,
      "Ġpoliticians": 6049,
      "Ġing": 6050,
      "Ġabb": 6051,
      "Ġattractive": 6052,
      "Ġdial": 6053,
      "Ġconcentration": 6054,
      "ensity": 6055,
      "Ġsummarized": 6056,
      "mad": 6057,
      "Ġhouses": 6058,
      "Ġdiam": 6059,
      "Ġparents": 6060,
      "Ġleasing": 6061,
      "Ġleaving": 6062,
      "itage": 6063,
      "Ġroyalties": 6064,
      "Ġsteve": 6065,
      "Ġinside": 6066,
      "Ġduration": 6067,
      "erto": 6068,
      "united": 6069,
      "Ġpeace": 6070,
      "Ġinstructions": 6071,
      "Ġmarsh": 6072,
      "Ġbio": 6073,
      "Ġnether": 6074,
      "istered": 6075,
      "wom": 6076,
      "Ġmixed": 6077,
      "uten": 6078,
      "Ġfores": 6079,
      "Ġhour": 6080,
      "Ġlaboratory": 6081,
      "Ġrecognizes": 6082,
      "family": 6083,
      "Ġperiodically": 6084,
      "Ġexport": 6085,
      "uston": 6086,
      "vard": 6087,
      "Ġautomotive": 6088,
      "Ġselection": 6089,
      "aka": 6090,
      "nam": 6091,
      "Ġhundred": 6092,
      "Ġdifficulties": 6093,
      "iat": 6094,
      "Ġpas": 6095,
      "Ġalab": 6096,
      "Ġachievement": 6097,
      "Ġcalls": 6098,
      "Ġprivacy": 6099,
      "from": 6100,
      "Ġbeat": 6101,
      "Ġmemorial": 6102,
      "Ġsubscription": 6103,
      "Ġsymbol": 6104,
      "Ġpromoted": 6105,
      "Ġcombinations": 6106,
      "Ġbang": 6107,
      "illy": 6108,
      "Ġfhl": 6109,
      "Ġvert": 6110,
      "fund": 6111,
      "Ġprospective": 6112,
      "fill": 6113,
      "Ġtend": 6114,
      "hy": 6115,
      "Ġlearning": 6116,
      "oir": 6117,
      "Ġsac": 6118,
      "Ġnin": 6119,
      "abeth": 6120,
      "just": 6121,
      "dney": 6122,
      "Ġken": 6123,
      "lah": 6124,
      "Ġvon": 6125,
      "Ġincident": 6126,
      "vi": 6127,
      "Ġanton": 6128,
      "Ġjudge": 6129,
      "Ġoxford": 6130,
      "Ġelev": 6131,
      "ione": 6132,
      "ommunic": 6133,
      "Ġrepair": 6134,
      "she": 6135,
      "Ġflu": 6136,
      "Ġter": 6137,
      "Ġindemnification": 6138,
      "Ġnoncurrent": 6139,
      "bus": 6140,
      "Ġattacks": 6141,
      "Ġsituation": 6142,
      "Ġconflict": 6143,
      "Ġfu": 6144,
      "language": 6145,
      "Ġchris": 6146,
      "Ġexcell": 6147,
      "public": 6148,
      "Ġtry": 6149,
      "Ġpredecess": 6150,
      "even": 6151,
      "Ġracing": 6152,
      "Ġoak": 6153,
      "Ġlatter": 6154,
      "Ġorchest": 6155,
      "top": 6156,
      "Ġrecall": 6157,
      "cript": 6158,
      "Ġcoord": 6159,
      "Ġmerchandise": 6160,
      "Ġshell": 6161,
      "Ġduties": 6162,
      "embers": 6163,
      "oration": 6164,
      "thur": 6165,
      "oting": 6166,
      "Ġcommander": 6167,
      "arket": 6168,
      "Ġones": 6169,
      "Ġtables": 6170,
      "Ġrot": 6171,
      "kh": 6172,
      "Ð°": 6173,
      "gn": 6174,
      "mann": 6175,
      "Ġstories": 6176,
      "Ġtwenty": 6177,
      "ez": 6178,
      "dem": 6179,
      "span": 6180,
      "org": 6181,
      "Ġshut": 6182,
      "Ġabsol": 6183,
      "Ġwars": 6184,
      "Ġrailroad": 6185,
      "Ġpled": 6186,
      "Ġjoe": 6187,
      "Ð¸": 6188,
      "Ġqueen": 6189,
      "Ġmaxim": 6190,
      "Ġmanufactured": 6191,
      "Ġuser": 6192,
      "Ġbrad": 6193,
      "Ġtemple": 6194,
      "Ġax": 6195,
      "bel": 6196,
      "Ġpromin": 6197,
      "Ġincreasingly": 6198,
      "fall": 6199,
      "Ġorigin": 6200,
      "aska": 6201,
      "illa": 6202,
      "Ġflag": 6203,
      "Ġwww": 6204,
      "Ġcomposition": 6205,
      "Ġsections": 6206,
      "Ġdilutive": 6207,
      "Ġfix": 6208,
      "Ġdoug": 6209,
      "oval": 6210,
      "Ġnorthwest": 6211,
      "Ġimper": 6212,
      "Ġhospitals": 6213,
      "tod": 6214,
      "Ġphysicians": 6215,
      "Ġjackson": 6216,
      "Ġera": 6217,
      "ifiable": 6218,
      "Ġemphas": 6219,
      "Ġdivest": 6220,
      "Ġarrest": 6221,
      "Ġspot": 6222,
      "Ġzero": 6223,
      "Ġshar": 6224,
      "flow": 6225,
      "Ġyearend": 6226,
      "national": 6227,
      "Ġdram": 6228,
      "contract": 6229,
      "Ġkansas": 6230,
      "Ġbelong": 6231,
      "Ġrecovered": 6232,
      "Ġmap": 6233,
      "Ġrefund": 6234,
      "adelph": 6235,
      "Ġtay": 6236,
      "Ġwinner": 6237,
      "Ġtenants": 6238,
      "Ġconsequences": 6239,
      "Ġirs": 6240,
      "Ġtoward": 6241,
      "Ġeag": 6242,
      "Ġros": 6243,
      "Ġarizona": 6244,
      "Ġintercompany": 6245,
      "Ġtab": 6246,
      "Ġsharing": 6247,
      "Ġunfavorable": 6248,
      "itzer": 6249,
      "Ġuns": 6250,
      "Ġgaming": 6251,
      "erb": 6252,
      "Ġtalent": 6253,
      "Ġfreed": 6254,
      "Ġhandling": 6255,
      "Ġbed": 6256,
      "Ġfutures": 6257,
      "Ġmind": 6258,
      "ads": 6259,
      "shore": 6260,
      "Ġsenate": 6261,
      "Ġremainder": 6262,
      "Ġpublishing": 6263,
      "rics": 6264,
      "Ġmetropol": 6265,
      "Ġrecommend": 6266,
      "Ġenhanced": 6267,
      "Ġneighbor": 6268,
      "Ġnetherlands": 6269,
      "sports": 6270,
      "Ġattend": 6271,
      "Ġmechanism": 6272,
      "bec": 6273,
      "Ġlegacy": 6274,
      "Ġkill": 6275,
      "Ġtelecommunic": 6276,
      "defined": 6277,
      "Ġocean": 6278,
      "Ġkim": 6279,
      "Ġalabama": 6280,
      "essee": 6281,
      "Ġbomb": 6282,
      "western": 6283,
      "Ġmachine": 6284,
      "Ġtrusts": 6285,
      "oty": 6286,
      "Ġimposed": 6287,
      "Ġgarden": 6288,
      "Ġsoutheast": 6289,
      "Ġconstructed": 6290,
      "Ġretention": 6291,
      "Ġpit": 6292,
      "Ġarise": 6293,
      "Ġcounterpart": 6294,
      "Ġcasual": 6295,
      "Ġdiscovered": 6296,
      "Ġfacilit": 6297,
      "ulations": 6298,
      "Ġforesee": 6299,
      "Ġpun": 6300,
      "Ġparticipated": 6301,
      "Ġexpanding": 6302,
      "Ġreflecting": 6303,
      "Ġcompeted": 6304,
      "hu": 6305,
      "Ġconfidence": 6306,
      "wind": 6307,
      "bed": 6308,
      "Ġroll": 6309,
      "Ġhazardous": 6310,
      "onsored": 6311,
      "Ġfaculty": 6312,
      "zz": 6313,
      "Ġscottish": 6314,
      "Ġengineer": 6315,
      "ube": 6316,
      "Ġontar": 6317,
      "Ġvolunt": 6318,
      "Ġassistance": 6319,
      "Ġbritain": 6320,
      "Ġwinners": 6321,
      "ĊĊĠ": 6322,
      "Ġmayor": 6323,
      "bearing": 6324,
      "Ġjewish": 6325,
      "ulpt": 6326,
      "Ġanimal": 6327,
      "Ġpitch": 6328,
      "Ġdoctor": 6329,
      "phy": 6330,
      "Ġtrig": 6331,
      "Ġattach": 6332,
      "rate": 6333,
      "Ġhun": 6334,
      "apore": 6335,
      "Ġslo": 6336,
      "Ġpurchasing": 6337,
      "turn": 6338,
      "Ġfresh": 6339,
      "Ġrepurchases": 6340,
      "Ġapproximate": 6341,
      "members": 6342,
      "ski": 6343,
      "igen": 6344,
      "Ġancient": 6345,
      "Ġsevent": 6346,
      "Ġtruck": 6347,
      "Ġpolish": 6348,
      "Ġafford": 6349,
      "Ġka": 6350,
      "Ġcinem": 6351,
      "onto": 6352,
      "Ġspirit": 6353,
      "áĦ": 6354,
      "áħ": 6355,
      "ressed": 6356,
      "Ġcem": 6357,
      "non": 6358,
      "itish": 6359,
      "Ġfeaturing": 6360,
      "Ġgirls": 6361,
      "Ġontario": 6362,
      "Ġpremi": 6363,
      "Ġstorm": 6364,
      "Ġsuccessor": 6365,
      "ker": 6366,
      "Ġacquiring": 6367,
      "Ġnegoti": 6368,
      "Ġdriver": 6369,
      "Ġpm": 6370,
      "Ġtenant": 6371,
      "adelphia": 6372,
      "Ġgreg": 6373,
      "Ã¸": 6374,
      "ocated": 6375,
      "onic": 6376,
      "een": 6377,
      "Ġidentical": 6378,
      "Ġpriority": 6379,
      "Ð¾": 6380,
      "Ġprospect": 6381,
      "Ġlawsuits": 6382,
      "Ġpackaging": 6383,
      "Ġsustained": 6384,
      "isation": 6385,
      "Ġkir": 6386,
      "owa": 6387,
      "Ġgoes": 6388,
      "Ġsemic": 6389,
      "Ġhotels": 6390,
      "opher": 6391,
      "Ġcris": 6392,
      "Ġcontaining": 6393,
      "amm": 6394,
      "Ġdetermines": 6395,
      "Ġfigure": 6396,
      "Ġsanta": 6397,
      "Ġlu": 6398,
      "Ġnewspaper": 6399,
      "Ġcontribute": 6400,
      "Ġnonemployee": 6401,
      "Ġcm": 6402,
      "Ġdaniel": 6403,
      "Ġalleg": 6404,
      "Ġpromote": 6405,
      "mens": 6406,
      "Ġexpensive": 6407,
      "Ġmoreover": 6408,
      "Ġdog": 6409,
      "Ġredeemable": 6410,
      "Ġru": 6411,
      "Ġassessed": 6412,
      "Ġhusband": 6413,
      "Ġthreeyear": 6414,
      "Ġcommittees": 6415,
      "zech": 6416,
      "Ġsurrounding": 6417,
      "cher": 6418,
      "Ġchron": 6419,
      "Ġrm": 6420,
      "Ġwidely": 6421,
      "ali": 6422,
      "Ġrapidly": 6423,
      "accr": 6424,
      "Ġalexander": 6425,
      "ĠĠĠĠĠĠĠĠĠĠĠĠĠĠ": 6426,
      "Ġrecip": 6427,
      "world": 6428,
      "Ġbancorp": 6429,
      "Ġrout": 6430,
      "losure": 6431,
      "seg": 6432,
      "antry": 6433,
      "lahoma": 6434,
      "Ġusage": 6435,
      "Ġcommenced": 6436,
      "Ġfine": 6437,
      "Ġlimitation": 6438,
      "Ġentering": 6439,
      "ĠĠĠĠĠĠĠĠĠĠĠĠĠ": 6440,
      "Ġstream": 6441,
      "Ġthereby": 6442,
      "Ġpoly": 6443,
      "Ġguide": 6444,
      "ti": 6445,
      "istribut": 6446,
      "ologist": 6447,
      "Ġtangible": 6448,
      "ilton": 6449,
      "Ġconstitu": 6450,
      "easure": 6451,
      "Ġnut": 6452,
      "isa": 6453,
      "Ġpreclinical": 6454,
      "Ġproducers": 6455,
      "Ġimage": 6456,
      "ashion": 6457,
      "bles": 6458,
      "tw": 6459,
      "Ġtennessee": 6460,
      "Ġtai": 6461,
      "Ġmathem": 6462,
      "Ġoccurrence": 6463,
      "Ġbehavior": 6464,
      "Ġcrown": 6465,
      "Ġassessments": 6466,
      "di": 6467,
      "ken": 6468,
      "lease": 6469,
      "Ġsubstitut": 6470,
      "Ġroles": 6471,
      "ea": 6472,
      "Ġaa": 6473,
      "heim": 6474,
      "Ġenterprises": 6475,
      "establish": 6476,
      "Ġtransfers": 6477,
      "uing": 6478,
      "Ġhu": 6479,
      "Ġextingu": 6480,
      "Ġexpatriate": 6481,
      "Ġauth": 6482,
      "Ġbure": 6483,
      "Ġoccupancy": 6484,
      "Ġexpired": 6485,
      "Ġbattal": 6486,
      "ĊĠĠ": 6487,
      "Ġsto": 6488,
      "talign": 6489,
      "osis": 6490,
      "iled": 6491,
      "ider": 6492,
      "Ġdescent": 6493,
      "Ġmedium": 6494,
      "Ġunconsolidated": 6495,
      "loss": 6496,
      "una": 6497,
      "urg": 6498,
      "Ġrepe": 6499,
      "Ġheritage": 6500,
      "inet": 6501,
      "Ġresist": 6502,
      "Ġdisagre": 6503,
      "Ġdetect": 6504,
      "Ġmilestone": 6505,
      "Ġdiscl": 6506,
      "Ġnonus": 6507,
      "izable": 6508,
      "urers": 6509,
      "while": 6510,
      "izon": 6511,
      "Ġconstr": 6512,
      "Ġenforce": 6513,
      "Ġepisodes": 6514,
      "Ġfox": 6515,
      "Ġestablishment": 6516,
      "Ġsetting": 6517,
      "Ġstatistics": 6518,
      "Ġhay": 6519,
      "Ġturning": 6520,
      "inity": 6521,
      "leum": 6522,
      "Ġsmart": 6523,
      "Ġremarks": 6524,
      "Ġepa": 6525,
      "Ġthres": 6526,
      "Ġcrime": 6527,
      "Ġfamous": 6528,
      "Ġcontemporary": 6529,
      "Ġrare": 6530,
      "Ġglass": 6531,
      "Ġgraduated": 6532,
      "Ġmall": 6533,
      "Ġzone": 6534,
      "Ġdistricts": 6535,
      "south": 6536,
      "Ġexecute": 6537,
      "how": 6538,
      "Ġreorganization": 6539,
      "Ġbench": 6540,
      "Ġhouston": 6541,
      "Ġformula": 6542,
      "nic": 6543,
      "Ġauto": 6544,
      "Ġoreg": 6545,
      "Ġprofitable": 6546,
      "Ġtail": 6547,
      "Ġfacts": 6548,
      "Ġsubmit": 6549,
      "Ġmolec": 6550,
      "Ġtranslated": 6551,
      "Ġflood": 6552,
      "ply": 6553,
      "Ġsouthwest": 6554,
      "Ġferc": 6555,
      "Ġstable": 6556,
      "Ġkorean": 6557,
      "Ġkel": 6558,
      "lyn": 6559,
      "Ġjer": 6560,
      "Ġconsidering": 6561,
      "Ġrepurchased": 6562,
      "Ġprofessionals": 6563,
      "Ġlesser": 6564,
      "Ġformal": 6565,
      "Ġextrem": 6566,
      "long": 6567,
      "Ġsteps": 6568,
      "itf": 6569,
      "omin": 6570,
      "Ġregulators": 6571,
      "Ġlender": 6572,
      "izabeth": 6573,
      "ionally": 6574,
      "ighter": 6575,
      "Ġassumption": 6576,
      "istingu": 6577,
      "eland": 6578,
      "Ġberlin": 6579,
      "Ġappreciation": 6580,
      "body": 6581,
      "Ġrub": 6582,
      "Ġcarriers": 6583,
      "Ġcertificates": 6584,
      "Ġthreshold": 6585,
      "Ġappearances": 6586,
      "Ġforeseeable": 6587,
      "aug": 6588,
      "Ġegypt": 6589,
      "akh": 6590,
      "ording": 6591,
      "Ġsund": 6592,
      "inson": 6593,
      "balance": 6594,
      "Ġfreight": 6595,
      "Ġplaintiffs": 6596,
      "best": 6597,
      "authorized": 6598,
      "Ġsculpt": 6599,
      "Ġcad": 6600,
      "Ġcav": 6601,
      "Ġhurric": 6602,
      "Ġhunt": 6603,
      "Ġwins": 6604,
      "kin": 6605,
      "Ġclearly": 6606,
      "emen": 6607,
      "ensed": 6608,
      "olved": 6609,
      "Ġupdated": 6610,
      "Ġfields": 6611,
      "cel": 6612,
      "Ġdiagnost": 6613,
      "Ġlawsuit": 6614,
      "Ġvotes": 6615,
      "Ġtitled": 6616,
      "Ġidentifiable": 6617,
      "Ġpra": 6618,
      "Ġsalaries": 6619,
      "Ġordered": 6620,
      "spec": 6621,
      "Ġpc": 6622,
      "Ġsud": 6623,
      "laws": 6624,
      "Ġeu": 6625,
      "Ġfinish": 6626,
      "Ġalone": 6627,
      "Ġadvisors": 6628,
      "british": 6629,
      "Ġoregon": 6630,
      "athan": 6631,
      "Ġhind": 6632,
      "choles": 6633,
      "iscount": 6634,
      "Ġatlantic": 6635,
      "Ġgallery": 6636,
      "Ġflexibility": 6637,
      "Ġhands": 6638,
      "Ġtroops": 6639,
      "ima": 6640,
      "Ġblackscholes": 6641,
      "Ġmarriage": 6642,
      "definedbenefit": 6643,
      "Ġproc": 6644,
      "vestment": 6645,
      "Ġaid": 6646,
      "Ġfiles": 6647,
      "michael": 6648,
      "edded": 6649,
      "observ": 6650,
      "Ġinitiative": 6651,
      "Ġpetroleum": 6652,
      "Ġformat": 6653,
      "Ġreserved": 6654,
      "Ġmd": 6655,
      "Ġenab": 6656,
      "Ġnonqualified": 6657,
      "Ġnortheast": 6658,
      "Ġcollections": 6659,
      "frank": 6660,
      "Ġfhlb": 6661,
      "Ġemployer": 6662,
      "Ġconnected": 6663,
      "Ġidea": 6664,
      "music": 6665,
      "Ġnaval": 6666,
      "Ġreact": 6667,
      "Ġcompeting": 6668,
      "Ġfurniture": 6669,
      "asc": 6670,
      "Ġmetropolitan": 6671,
      "Ġconsequent": 6672,
      "Ġturned": 6673,
      "ighth": 6674,
      "Ġalt": 6675,
      "Ġfro": 6676,
      "Ġdry": 6677,
      "Ġthinking": 6678,
      "audited": 6679,
      "Ġdefendants": 6680,
      "Ġoklahoma": 6681,
      "sky": 6682,
      "Ġsquadron": 6683,
      "icut": 6684,
      "Ġeducational": 6685,
      "rad": 6686,
      "Ġalongside": 6687,
      "Ġconservation": 6688,
      "iang": 6689,
      "Ġcurt": 6690,
      "po": 6691,
      "Ġtodays": 6692,
      "Ġsingapore": 6693,
      "Ġinstallation": 6694,
      "Ġlew": 6695,
      "abil": 6696,
      "Ġsoccer": 6697,
      "Ġcart": 6698,
      "tv": 6699,
      "Ġmurder": 6700,
      "Ġduly": 6701,
      "Ġreceipt": 6702,
      "Ġron": 6703,
      "Ġactively": 6704,
      "Ġviet": 6705,
      "Ġchoice": 6706,
      "Ġbrian": 6707,
      "Ġphiladelphia": 6708,
      "Ġsatellite": 6709,
      "Ġreportable": 6710,
      "Ġsevere": 6711,
      "Ġopera": 6712,
      "Ġrendered": 6713,
      "note": 6714,
      "personal": 6715,
      "Ġpiano": 6716,
      "Ġunaudited": 6717,
      "Ġsemiconduct": 6718,
      "Ġbasin": 6719,
      "Ġintelligence": 6720,
      "utenant": 6721,
      "Ġanswer": 6722,
      "Ġvictoria": 6723,
      "Ġmature": 6724,
      "chr": 6725,
      "Ġfashion": 6726,
      "Ġislam": 6727,
      "Ġinstitutional": 6728,
      "Ġinfringement": 6729,
      "Ġserious": 6730,
      "ibli": 6731,
      "Ġhope": 6732,
      "educ": 6733,
      "Ġtitles": 6734,
      "Ġfloating": 6735,
      "Ġah": 6736,
      "Ġleon": 6737,
      "Ġche": 6738,
      "further": 6739,
      "Ġacres": 6740,
      "Ġjazz": 6741,
      "Ġinstalled": 6742,
      "Ġcovers": 6743,
      "Ġpleased": 6744,
      "Ġstring": 6745,
      "Ġsom": 6746,
      "Ġng": 6747,
      "Ġrepublican": 6748,
      "Ġbands": 6749,
      "Ġdistribute": 6750,
      "Ġamericas": 6751,
      "Ġnonperforming": 6752,
      "Ġretailers": 6753,
      "Ġlam": 6754,
      "Ġengagement": 6755,
      "Ġcards": 6756,
      "Ġolympic": 6757,
      "Ġarms": 6758,
      "Ġbrook": 6759,
      "erate": 6760,
      "Ġimpos": 6761,
      "Ġprc": 6762,
      "Ġprominent": 6763,
      "Ġspeak": 6764,
      "Ġconclus": 6765,
      "Ġhouseholds": 6766,
      "oe": 6767,
      "Ġcarl": 6768,
      "sing": 6769,
      "Ġvessels": 6770,
      "Ġadding": 6771,
      "Ġdistingu": 6772,
      "Ġmortgagebacked": 6773,
      "intern": 6774,
      "eme": 6775,
      "his": 6776,
      "ocation": 6777,
      "ume": 6778,
      "Ġmaria": 6779,
      "observable": 6780,
      "anguages": 6781,
      "Ġincentives": 6782,
      "iors": 6783,
      "Ġdelayed": 6784,
      "esc": 6785,
      "Ġterminal": 6786,
      "elihood": 6787,
      "Ġhorse": 6788,
      "Ġimmediate": 6789,
      "Ġsession": 6790,
      "ympic": 6791,
      "Ġbearing": 6792,
      "Ġpronouncements": 6793,
      "Ġjobs": 6794,
      "Ġarkansas": 6795,
      "Ġnarrow": 6796,
      "Ġsoldiers": 6797,
      "Ġfalls": 6798,
      "Ġunauthorized": 6799,
      "elle": 6800,
      "aham": 6801,
      "Ġprepayment": 6802,
      "pay": 6803,
      "Ġfundament": 6804,
      "Ġresc": 6805,
      "Ġsustainability": 6806,
      "sey": 6807,
      "Ġsolo": 6808,
      "Ġrenamed": 6809,
      "Ġcontext": 6810,
      "Ġfid": 6811,
      "eller": 6812,
      "Ġsimilarly": 6813,
      "Ġsingers": 6814,
      "Ġnearby": 6815,
      "Ġnich": 6816,
      "Ġtold": 6817,
      "Ġnonaccr": 6818,
      "Ġtermin": 6819,
      "aq": 6820,
      "Ġunobservable": 6821,
      "aling": 6822,
      "Ġimpairments": 6823,
      "Ġdeputy": 6824,
      "Ġmp": 6825,
      "Ġunith": 6826,
      "Ġsuite": 6827,
      "Ġtask": 6828,
      "rete": 6829,
      "Ġapplies": 6830,
      "Ġtalking": 6831,
      "Ġced": 6832,
      "ode": 6833,
      "Ġtree": 6834,
      "ounded": 6835,
      "Ġhills": 6836,
      "bell": 6837,
      "Ġsolely": 6838,
      "ses": 6839,
      "Ġaccurately": 6840,
      "Ġdor": 6841,
      "Ġsi": 6842,
      "Ġsydney": 6843,
      "Ġkentucky": 6844,
      "Ġhosted": 6845,
      "ches": 6846,
      "plus": 6847,
      "aining": 6848,
      "Ġpharmaceuticals": 6849,
      "Ġcommercialize": 6850,
      "Ġinters": 6851,
      "urity": 6852,
      "Ġbegins": 6853,
      "Ġmeetings": 6854,
      "Ġpiece": 6855,
      "Ġfines": 6856,
      "Ġmitigate": 6857,
      "Ġscholars": 6858,
      "Ġimplied": 6859,
      "Ġutilizing": 6860,
      "Ġpayroll": 6861,
      "Ġviolations": 6862,
      "Ġconcert": 6863,
      "Ġseparation": 6864,
      "Ġfer": 6865,
      "Ġchoose": 6866,
      "rum": 6867,
      "esis": 6868,
      "Ġworkforce": 6869,
      "Ġpredecessor": 6870,
      "Ġhyp": 6871,
      "anz": 6872,
      "Ġconsequently": 6873,
      "operating": 6874,
      "Ġswim": 6875,
      "Ġtrademark": 6876,
      "Ġinitiated": 6877,
      "Ġtrav": 6878,
      "Ġraces": 6879,
      "Ġexception": 6880,
      "Ġskills": 6881,
      "Ġexceeded": 6882,
      "Ġgent": 6883,
      "Ġembedded": 6884,
      "Ġconfirmed": 6885,
      "Ġorth": 6886,
      "Ġmemory": 6887,
      "ourse": 6888,
      "Ġbatt": 6889,
      "cred": 6890,
      "Ġbarrel": 6891,
      "Ġboys": 6892,
      "Ġelectronics": 6893,
      "Ġdies": 6894,
      "Ġinfantry": 6895,
      "Ġprescrib": 6896,
      "Ġemper": 6897,
      "Ġachieving": 6898,
      "Ġleasehold": 6899,
      "Ġindones": 6900,
      "ĠĊĠĊĠĊĠĊ": 6901,
      "Ġsimpl": 6902,
      "austr": 6903,
      "Ġstages": 6904,
      "Ġmonetary": 6905,
      "Ġconvent": 6906,
      "Ġmexican": 6907,
      "Ġmodification": 6908,
      "textalign": 6909,
      "Ġgm": 6910,
      "front": 6911,
      "Ġabsor": 6912,
      "Ġreceives": 6913,
      "Ġalter": 6914,
      "inum": 6915,
      "Ġpages": 6916,
      "Ġkal": 6917,
      "osph": 6918,
      "Ġcommercially": 6919,
      "Ġdisruption": 6920,
      "Ġintends": 6921,
      "Ġbbc": 6922,
      "Ġod": 6923,
      "Ġsubmission": 6924,
      "Ġregardless": 6925,
      "Ġgene": 6926,
      "Ġdesignation": 6927,
      "Ġyields": 6928,
      "mat": 6929,
      "ika": 6930,
      "Ġmeaningful": 6931,
      "ogue": 6932,
      "Ġfaith": 6933,
      "Ġcounterparties": 6934,
      "Ġcontractors": 6935,
      "amin": 6936,
      "Ġheat": 6937,
      "Ġyeah": 6938,
      "amort": 6939,
      "Ġlind": 6940,
      "plans": 6941,
      "unte": 6942,
      "Ġfactory": 6943,
      "Ġmerchant": 6944,
      "urb": 6945,
      "Ġcp": 6946,
      "Ġtoronto": 6947,
      "Ġsensitive": 6948,
      "Ġgathering": 6949,
      "Ġhi": 6950,
      "Ġsky": 6951,
      "Ġcertified": 6952,
      "Ġunvested": 6953,
      "Ġdatab": 6954,
      "Ġsustainable": 6955,
      "gun": 6956,
      "Ġsurn": 6957,
      "Ġwelcome": 6958,
      "etery": 6959,
      "Ġsga": 6960,
      "Ġfit": 6961,
      "ror": 6962,
      "Ġtelecommunications": 6963,
      "Ġmedicaid": 6964,
      "according": 6965,
      "Ġlever": 6966,
      "Ġerror": 6967,
      "tic": 6968,
      "present": 6969,
      "Ġconnecticut": 6970,
      "Ġlady": 6971,
      "ulate": 6972,
      "Ġproductivity": 6973,
      "thew": 6974,
      "ervice": 6975,
      "Ġprin": 6976,
      "umber": 6977,
      "adequ": 6978,
      "Ġweap": 6979,
      "Ġcompletely": 6980,
      "Ġsynth": 6981,
      "ager": 6982,
      "Ġdesigns": 6983,
      "Ġrab": 6984,
      "Ġern": 6985,
      "Ġdiverse": 6986,
      "Ġlien": 6987,
      "Ġcambridge": 6988,
      "Ġprotoc": 6989,
      "Ġford": 6990,
      "Ġsought": 6991,
      "Ġnr": 6992,
      "Ġengineers": 6993,
      "Ġcemetery": 6994,
      "Ġeric": 6995,
      "Ġinteractive": 6996,
      "Ġsid": 6997,
      "empts": 6998,
      "Ġlem": 6999,
      "Ġyellow": 7000,
      "Ġcs": 7001,
      "Ġbylaws": 7002,
      "Ġinadequ": 7003,
      "Ġwhereby": 7004,
      "rovers": 7005,
      "Ġdisch": 7006,
      "Ġdisruptions": 7007,
      "Ġvision": 7008,
      "vol": 7009,
      "Ġsrt": 7010,
      "Ġelectrical": 7011,
      "Ġelizabeth": 7012,
      "Ġforfeited": 7013,
      "Ġimplementing": 7014,
      "Ġholid": 7015,
      "Ġobligated": 7016,
      "box": 7017,
      "cles": 7018,
      "oz": 7019,
      "Ġshortly": 7020,
      "Ġreject": 7021,
      "Ġrelation": 7022,
      "Ġhtt": 7023,
      "Ġmethodology": 7024,
      "Ġcopies": 7025,
      "Ġemergency": 7026,
      "Ġlanguages": 7027,
      "urt": 7028,
      "Ġtaylor": 7029,
      "urities": 7030,
      "apol": 7031,
      "Ġquantities": 7032,
      "Ġprelim": 7033,
      "Ġcontrolling": 7034,
      "Ġdipl": 7035,
      "Ġlikelihood": 7036,
      "Ġduty": 7037,
      "Ġtons": 7038,
      "iest": 7039,
      "Ġfrequency": 7040,
      "ropical": 7041,
      "zen": 7042,
      "Ġassume": 7043,
      "Ġconservative": 7044,
      "Ġrenewable": 7045,
      "Ġproportion": 7046,
      "vd": 7047,
      "Ġgam": 7048,
      "du": 7049,
      "Ġpilot": 7050,
      "Ġpossibility": 7051,
      "Ġmusicians": 7052,
      "Ġnonaccrual": 7053,
      "Ġring": 7054,
      "ĠÂ£": 7055,
      "Ġdispositions": 7056,
      "Ġbronze": 7057,
      "Ġpertain": 7058,
      "Ġdavis": 7059,
      "Ġbaron": 7060,
      "Ġestablishes": 7061,
      "Ġsponsoring": 7062,
      "Ġexistence": 7063,
      "iny": 7064,
      "ears": 7065,
      "Ġearning": 7066,
      "Ġstephen": 7067,
      "Ġjean": 7068,
      "Ġey": 7069,
      "Ġvolunte": 7070,
      "Ġencounter": 7071,
      "Ġsimple": 7072,
      "Ġchildrens": 7073,
      "Ġsle": 7074,
      "Ġwarehouse": 7075,
      "Ġxbr": 7076,
      "Ġdocumentary": 7077,
      "reat": 7078,
      "Ġaggress": 7079,
      "Ġju": 7080,
      "Ġstrike": 7081,
      "Ġswedish": 7082,
      "Ġparticipant": 7083,
      "Ġauthorization": 7084,
      "disc": 7085,
      "ucks": 7086,
      "uls": 7087,
      "Ġsor": 7088,
      "Ġamer": 7089,
      "rim": 7090,
      "rets": 7091,
      "Ġcausing": 7092,
      "Ġenhanc": 7093,
      "Ġretrosp": 7094,
      "ao": 7095,
      "Ġuniversal": 7096,
      "Ġofficially": 7097,
      "Ġprompt": 7098,
      "Ġlap": 7099,
      "Ġzh": 7100,
      "eco": 7101,
      "Ġetc": 7102,
      "izer": 7103,
      "Ġseems": 7104,
      "Ġvacc": 7105,
      "Ġcollective": 7106,
      "Ġvic": 7107,
      "eces": 7108,
      "Ġpolitics": 7109,
      "bourne": 7110,
      "Ġdivisions": 7111,
      "Ġthereof": 7112,
      "Ġpuerto": 7113,
      "Ġbases": 7114,
      "Ġarrived": 7115,
      "Ġroughly": 7116,
      "wealth": 7117,
      "Ġshowed": 7118,
      "value": 7119,
      "Ġinput": 7120,
      "Ġbottom": 7121,
      "Ġpier": 7122,
      "adian": 7123,
      "Ġheavily": 7124,
      "berts": 7125,
      "Ġsixth": 7126,
      "Ġhawai": 7127,
      "Ġtheyre": 7128,
      "Ġfalse": 7129,
      "Ġveter": 7130,
      "orship": 7131,
      "Ġturkey": 7132,
      "Ġcommerce": 7133,
      "Ġramp": 7134,
      "fir": 7135,
      "Ġtank": 7136,
      "Ġdiseases": 7137,
      "Ġtested": 7138,
      "Ġindirectly": 7139,
      "Ġcrisis": 7140,
      "Ġdistance": 7141,
      "Ġunsu": 7142,
      "outs": 7143,
      "Ġmountains": 7144,
      "Ġwilson": 7145,
      "Ġmultif": 7146,
      "div": 7147,
      "Ġappra": 7148,
      "Ġmalays": 7149,
      "Ġlogistics": 7150,
      "Ġrising": 7151,
      "len": 7152,
      "ni": 7153,
      "Ġpartial": 7154,
      "Ġbachel": 7155,
      "Ġsuffered": 7156,
      "develop": 7157,
      "base": 7158,
      "gated": 7159,
      "Ġfell": 7160,
      "Ġprinciple": 7161,
      "Ġpatterns": 7162,
      "Ġcold": 7163,
      "Ġlieutenant": 7164,
      "Ġmiller": 7165,
      "hon": 7166,
      "Ġofficials": 7167,
      "Ġoccupied": 7168,
      "acent": 7169,
      "general": 7170,
      "Ġdiversity": 7171,
      "Ġwy": 7172,
      "Ġhem": 7173,
      "ipped": 7174,
      "odes": 7175,
      "Ġfiction": 7176,
      "Ġcontinuous": 7177,
      "Ðµ": 7178,
      "Ġross": 7179,
      "Ġtread": 7180,
      "Ġwindows": 7181,
      "Ġturk": 7182,
      "Ġstudios": 7183,
      "Ġdenominated": 7184,
      "Ġpeer": 7185,
      "Ġinnovative": 7186,
      "Ġcostly": 7187,
      "wegian": 7188,
      "Ġmedian": 7189,
      "Ġrevealed": 7190,
      "govern": 7191,
      "biography": 7192,
      "Ġpaidin": 7193,
      "Ġmarked": 7194,
      "Ä±": 7195,
      "obile": 7196,
      "erald": 7197,
      "Ġedge": 7198,
      "ibliography": 7199,
      "ek": 7200,
      "Ġsuitable": 7201,
      "Ġhart": 7202,
      "cal": 7203,
      "Ġhan": 7204,
      "aped": 7205,
      "Ġoutl": 7206,
      "Ġintrins": 7207,
      "iling": 7208,
      "awards": 7209,
      "Ġfat": 7210,
      "Ġgate": 7211,
      "ibilities": 7212,
      "Ġapplying": 7213,
      "anna": 7214,
      "Ġclosure": 7215,
      "Ġrecoveries": 7216,
      "Ġsons": 7217,
      "Ġdiscussions": 7218,
      "Ġswe": 7219,
      "Ġtum": 7220,
      "Ġconce": 7221,
      "group": 7222,
      "Ġadvisor": 7223,
      "Ġore": 7224,
      "Ġindividually": 7225,
      "university": 7226,
      "Ġexperiment": 7227,
      "onym": 7228,
      "Ġgained": 7229,
      "Ġbears": 7230,
      "Ġusga": 7231,
      "ector": 7232,
      "ubs": 7233,
      "Ġinfluenced": 7234,
      "Ġattempts": 7235,
      "Ġcancell": 7236,
      "Ġlev": 7237,
      "Ġmatt": 7238,
      "Ġipo": 7239,
      "Ġvul": 7240,
      "inger": 7241,
      "Ġchallenging": 7242,
      "Ġwealth": 7243,
      "Ġinhib": 7244,
      "Ġprevention": 7245,
      "etr": 7246,
      "Ġclassical": 7247,
      "Ġcapitalization": 7248,
      "Ġstanding": 7249,
      "Ġbuck": 7250,
      "Ġworlds": 7251,
      "Ġphysician": 7252,
      "ĠâĢĺ": 7253,
      "Ġtypical": 7254,
      "Ġfcc": 7255,
      "Ġczech": 7256,
      "Ġpossibly": 7257,
      "Ġarthur": 7258,
      "Ġbag": 7259,
      "Ġfreedom": 7260,
      "Ġnond": 7261,
      "Ġpenalty": 7262,
      "Ġcapture": 7263,
      "comes": 7264,
      "Ġcancelled": 7265,
      "Ġimperial": 7266,
      "Ġcustomary": 7267,
      "Ġkid": 7268,
      "Ġrome": 7269,
      "inf": 7270,
      "Ġkev": 7271,
      "licts": 7272,
      "Ġpush": 7273,
      "Ġleaves": 7274,
      "Ġexpires": 7275,
      "Ġorigination": 7276,
      "Ġversions": 7277,
      "Ġbringing": 7278,
      "Ġantib": 7279,
      "Ġsemiconductor": 7280,
      "Ġmortgages": 7281,
      "Ġpublications": 7282,
      "Ġhero": 7283,
      "Ġoffshore": 7284,
      "Ġreferences": 7285,
      "Ġexceptions": 7286,
      "leg": 7287,
      "itel": 7288,
      "Ġentirely": 7289,
      "mc": 7290,
      "oln": 7291,
      "Ġiowa": 7292,
      "Ġrsus": 7293,
      "Ġphilippines": 7294,
      "print": 7295,
      "Ġintermed": 7296,
      "adesh": 7297,
      "Ġbureau": 7298,
      "Ġatm": 7299,
      "Ġprosecut": 7300,
      "Ġviolation": 7301,
      "Ġefficacy": 7302,
      "Ġscene": 7303,
      "aza": 7304,
      "Ġoriginated": 7305,
      "Ġfav": 7306,
      "fred": 7307,
      "Ġintrinsic": 7308,
      "Ġlies": 7309,
      "Ġdal": 7310,
      "Ġenjo": 7311,
      "Ġsweden": 7312,
      "aced": 7313,
      "Ġmes": 7314,
      "Ġcrow": 7315,
      "Ġeconomics": 7316,
      "Ġcarrier": 7317,
      "Ġunders": 7318,
      "Ġfollowup": 7319,
      "Ġcredited": 7320,
      "Ġbattalion": 7321,
      "Ġtheater": 7322,
      "osen": 7323,
      "Ġcaption": 7324,
      "iform": 7325,
      "iot": 7326,
      "international": 7327,
      "Ġinadequate": 7328,
      "===": 7329,
      "held": 7330,
      "Ġfelt": 7331,
      "edia": 7332,
      "Ġpreliminary": 7333,
      "Ġinterested": 7334,
      "Ġmig": 7335,
      "Ġserb": 7336,
      "Ġpione": 7337,
      "Ġconven": 7338,
      "Ġextremely": 7339,
      "Ġnurs": 7340,
      "Ġbull": 7341,
      "Ġward": 7342,
      "Ġxbrl": 7343,
      "Ġdisrupt": 7344,
      "ria": 7345,
      "Ġphilosophy": 7346,
      "ystem": 7347,
      "Ġaviation": 7348,
      "Ġcombat": 7349,
      "Ġenroll": 7350,
      "Ġlowest": 7351,
      "Ġinstances": 7352,
      "Ġtaiwan": 7353,
      "what": 7354,
      "Ġstanley": 7355,
      "utsch": 7356,
      "Ġgil": 7357,
      "Ġoverhead": 7358,
      "Ġwilling": 7359,
      "ista": 7360,
      "Ġjam": 7361,
      "Ġopposed": 7362,
      "Ġhedged": 7363,
      "Ġorchestra": 7364,
      "Ġcomplement": 7365,
      "Ġremoval": 7366,
      "Ġproceeding": 7367,
      "itzerland": 7368,
      "amortized": 7369,
      "deal": 7370,
      "Ġwaters": 7371,
      "Ġbodies": 7372,
      "brid": 7373,
      "Ġengin": 7374,
      "Ġmarketed": 7375,
      "william": 7376,
      "ality": 7377,
      "pal": 7378,
      "Ġmales": 7379,
      "Ġdisagreements": 7380,
      "sures": 7381,
      "aga": 7382,
      "Ġexhibition": 7383,
      "Ġinclusion": 7384,
      "ori": 7385,
      "Ġcaptured": 7386,
      "Ġsimply": 7387,
      "Ġsoph": 7388,
      "effective": 7389,
      "enna": 7390,
      "uses": 7391,
      "Ġcease": 7392,
      "Ġsuit": 7393,
      "Ġdos": 7394,
      "Ġidentity": 7395,
      "Ġapprec": 7396,
      "Ġsubjects": 7397,
      "sm": 7398,
      "Ġsail": 7399,
      "oen": 7400,
      "ello": 7401,
      "Ġheard": 7402,
      "uda": 7403,
      "Ġrivers": 7404,
      "Ġfederation": 7405,
      "Ġvisual": 7406,
      "Ġdub": 7407,
      "Ġharbor": 7408,
      "Ġcomputing": 7409,
      "ographic": 7410,
      "aria": 7411,
      "Ġtool": 7412,
      "Ġmeets": 7413,
      "Ġmg": 7414,
      "Ġrefers": 7415,
      "Ġtwice": 7416,
      "plish": 7417,
      "aret": 7418,
      "writer": 7419,
      "Ġtreadway": 7420,
      "Ġky": 7421,
      "offic": 7422,
      "mil": 7423,
      "ims": 7424,
      "agen": 7425,
      "Ġadult": 7426,
      "grade": 7427,
      "Ġreturning": 7428,
      "Ġproposal": 7429,
      "Ġfluctuate": 7430,
      "iscounted": 7431,
      "Ġresign": 7432,
      "Ġmedalists": 7433,
      "Ġtherm": 7434,
      "Ġfulfill": 7435,
      "film": 7436,
      "Ġgab": 7437,
      "Ġanderson": 7438,
      "Ġready": 7439,
      "Ġpromotional": 7440,
      "Ġfinding": 7441,
      "Ġbilled": 7442,
      "Ġmuslim": 7443,
      "Ġrepaid": 7444,
      "Ġbarg": 7445,
      "Ġcounterparty": 7446,
      "Ġoffbalance": 7447,
      "Ġbarb": 7448,
      "apped": 7449,
      "uem": 7450,
      "compl": 7451,
      "Ġissuances": 7452,
      "Ġdownturn": 7453,
      "aki": 7454,
      "ava": 7455,
      "Ġaudio": 7456,
      "Ġmovements": 7457,
      "Ġoutcomes": 7458,
      "Ġaqu": 7459,
      "Ġcancel": 7460,
      "Ġlabour": 7461,
      "Ġprotein": 7462,
      "ensis": 7463,
      "agues": 7464,
      "Ġindicates": 7465,
      "Ġexposures": 7466,
      "pson": 7467,
      "Ġstarr": 7468,
      "Ġengines": 7469,
      "Ġdestroyed": 7470,
      "Ġfighting": 7471,
      "Ġsatisfaction": 7472,
      "Ġaccruals": 7473,
      "Ġemperor": 7474,
      "ship": 7475,
      "Ġcool": 7476,
      "Ġexamples": 7477,
      "pton": 7478,
      "Ġbudd": 7479,
      "atics": 7480,
      "Ġextinguishment": 7481,
      "ito": 7482,
      "Ġweekly": 7483,
      "Ġresigned": 7484,
      "watch": 7485,
      "efe": 7486,
      "Ġ====": 7487,
      "Ġtob": 7488,
      "Ġgolf": 7489,
      "Ġdifficulty": 7490,
      "Ġchronic": 7491,
      "common": 7492,
      "Ġnominated": 7493,
      "chnology": 7494,
      "Ġpakistan": 7495,
      "Ġunitholders": 7496,
      "Ġbullet": 7497,
      "Ġadvertis": 7498,
      "Ġnothing": 7499,
      "Ġagree": 7500,
      "Ġunamortized": 7501,
      "iac": 7502,
      "Ġchamber": 7503,
      "Ġdall": 7504,
      "Ġeverything": 7505,
      "Ġbranches": 7506,
      "Ġjudic": 7507,
      "Ġfant": 7508,
      "nat": 7509,
      "Ġaust": 7510,
      "Ġextr": 7511,
      "Ġswitzerland": 7512,
      "eek": 7513,
      "Ġaccomplish": 7514,
      "Ġtennis": 7515,
      "Ġsurren": 7516,
      "Ġfiveyear": 7517,
      "pur": 7518,
      "leans": 7519,
      "Ġaudience": 7520,
      "Ġcra": 7521,
      "Ġessential": 7522,
      "Ġbroadcasting": 7523,
      "Ġparam": 7524,
      "Ġpublication": 7525,
      "Ġvisit": 7526,
      "Ġinternationally": 7527,
      "Ġnam": 7528,
      "Ġinvestigations": 7529,
      "ng": 7530,
      "Ġseats": 7531,
      "Ġshipments": 7532,
      "Ġcc": 7533,
      "enez": 7534,
      "order": 7535,
      "orders": 7536,
      "Ġaver": 7537,
      "pool": 7538,
      "haps": 7539,
      "Ġpipelines": 7540,
      "yth": 7541,
      "Ġmetrics": 7542,
      "Ġgran": 7543,
      "anga": 7544,
      "Ġestimating": 7545,
      "song": 7546,
      "Ġyouve": 7547,
      "Ġcontrovers": 7548,
      "Ġopposition": 7549,
      "Ġteacher": 7550,
      "Ġger": 7551,
      "issue": 7552,
      "Ġexplo": 7553,
      "lik": 7554,
      "zh": 7555,
      "Ġsensit": 7556,
      "elated": 7557,
      "Ġhighlight": 7558,
      "Ġconducting": 7559,
      "Ġauction": 7560,
      "Ġends": 7561,
      "Ġmasters": 7562,
      "Ġshopping": 7563,
      "Ġtu": 7564,
      "Ġphd": 7565,
      "Ġkevin": 7566,
      "Ġaccommod": 7567,
      "Ġdak": 7568,
      "dale": 7569,
      "Ġshr": 7570,
      "Ġcomposer": 7571,
      "Ġsnow": 7572,
      "Ġfame": 7573,
      "Ġconflicts": 7574,
      "Ġattributed": 7575,
      "Ġdiego": 7576,
      "Ġvolatile": 7577,
      "Ġraj": 7578,
      "Ġlinear": 7579,
      "Ġgeneric": 7580,
      "rees": 7581,
      "Ġpenny": 7582,
      "Ġcritics": 7583,
      "Ġfigures": 7584,
      "Ġborrowed": 7585,
      "Ġsubstances": 7586,
      "Ġreleases": 7587,
      "Ġdrums": 7588,
      "Ġlewis": 7589,
      "Ġpace": 7590,
      "Ġnovels": 7591,
      "Ġpatri": 7592,
      "Ġheight": 7593,
      "Ġmerged": 7594,
      "Ġsexual": 7595,
      "Ġfemales": 7596,
      "Ġtall": 7597,
      "Ġadequacy": 7598,
      "rian": 7599,
      "Ġcel": 7600,
      "Ġlosing": 7601,
      "Ġanimals": 7602,
      "Ġadequately": 7603,
      "Ġstrugg": 7604,
      "Ġantid": 7605,
      "Ġclassic": 7606,
      "Ġcatch": 7607,
      "Ġvoluntary": 7608,
      "Ġsuspended": 7609,
      "Ġinvas": 7610,
      "Ġconvention": 7611,
      "populated": 7612,
      "Ġinhab": 7613,
      "vis": 7614,
      "Ġwhats": 7615,
      "high": 7616,
      "Ġinterestbearing": 7617,
      "aneous": 7618,
      "Ġcorner": 7619,
      "Ġretire": 7620,
      "Ġportr": 7621,
      "anian": 7622,
      "count": 7623,
      "Ġfur": 7624,
      "Ġholly": 7625,
      "Ġdemands": 7626,
      "Ġrecy": 7627,
      "Ġchase": 7628,
      "Ġcollateralized": 7629,
      "olympic": 7630,
      "Ġliberal": 7631,
      "Ġhearing": 7632,
      "Ġtow": 7633,
      "Ġauditors": 7634,
      "Ġtheme": 7635,
      "ÑĢ": 7636,
      "Ġbrigade": 7637,
      "Ġpicture": 7638,
      "Ġusgaapfairvaluem": 7639,
      "Ġundiscounted": 7640,
      "Ġclim": 7641,
      "Ġcyber": 7642,
      "post": 7643,
      "ois": 7644,
      "Ġdisclose": 7645,
      "Ñģ": 7646,
      "Ġcauses": 7647,
      "Ġamounted": 7648,
      "Ġviews": 7649,
      "Ġcf": 7650,
      "kel": 7651,
      "Ġdefeat": 7652,
      "Ġprovincial": 7653,
      "olas": 7654,
      "Ġyard": 7655,
      "Ġcontam": 7656,
      "Ġrestoration": 7657,
      "Ġfulltime": 7658,
      "Ġorient": 7659,
      "Ġanalyt": 7660,
      "Ġonetime": 7661,
      "Ġhabit": 7662,
      "Ġreceipts": 7663,
      "Ġchosen": 7664,
      "Ġoutsour": 7665,
      "Ġsteam": 7666,
      "Ġacre": 7667,
      "plan": 7668,
      "Ġast": 7669,
      "Ġperhaps": 7670,
      "Ġfolk": 7671,
      "football": 7672,
      "mart": 7673,
      "Ġkick": 7674,
      "Ġusc": 7675,
      "mi": 7676,
      "rent": 7677,
      "Ġlinc": 7678,
      "acter": 7679,
      "Ġagriculture": 7680,
      "Ġrequested": 7681,
      "Ġshop": 7682,
      "Ġnorway": 7683,
      "Ġwhit": 7684,
      "asty": 7685,
      "Ġukraine": 7686,
      "Ġni": 7687,
      "Ġsignatures": 7688,
      "Ġjes": 7689,
      "Ġrico": 7690,
      "Ġmodifications": 7691,
      "vill": 7692,
      "Ġneither": 7693,
      "Ġcounties": 7694,
      "redited": 7695,
      "Ġalph": 7696,
      "Ġimportance": 7697,
      "Ġyounger": 7698,
      "ignated": 7699,
      "cow": 7700,
      "Ġranked": 7701,
      "production": 7702,
      "Ġfoods": 7703,
      "Ġmisstatement": 7704,
      "cons": 7705,
      "Ġprocessed": 7706,
      "itely": 7707,
      "Ġstatute": 7708,
      "ami": 7709,
      "ections": 7710,
      "Ġobserved": 7711,
      "Ġdrum": 7712,
      "Ġpainting": 7713,
      "Ġunus": 7714,
      "tc": 7715,
      "Ġotherth": 7716,
      "issu": 7717,
      "Ġcalling": 7718,
      "ccess": 7719,
      "Ġuc": 7720,
      "robert": 7721,
      "Ġastr": 7722,
      "Ġnarr": 7723,
      "inas": 7724,
      "Ġdelinquent": 7725,
      "oto": 7726,
      "Ġvocal": 7727,
      "orge": 7728,
      "Ġconsumption": 7729,
      "Ġgree": 7730,
      "Ġgp": 7731,
      "building": 7732,
      "Ġteaching": 7733,
      "Ġdensity": 7734,
      "Ġargentina": 7735,
      "season": 7736,
      "Ġfounding": 7737,
      "Ġfrancis": 7738,
      "Ġbiote": 7739,
      "Ġtag": 7740,
      "Ġterritories": 7741,
      "Ġriskfree": 7742,
      "Ġdetection": 7743,
      "Ġlith": 7744,
      "Ġeye": 7745,
      "illery": 7746,
      "bra": 7747,
      "Ġabsence": 7748,
      "Ġwhenever": 7749,
      "antem": 7750,
      "Ġpossess": 7751,
      "Ġsecuritization": 7752,
      "Ġbought": 7753,
      "Ġniger": 7754,
      "ologists": 7755,
      "Ġfly": 7756,
      "Ġrenov": 7757,
      "Ġdistributor": 7758,
      "Ġcopper": 7759,
      "Ġatlanta": 7760,
      "Ġshel": 7761,
      "Ġsher": 7762,
      "Ġdeutsch": 7763,
      "Ġcapacities": 7764,
      "Ġdeductions": 7765,
      "Ġevaluates": 7766,
      "hel": 7767,
      "icon": 7768,
      "Ġlyr": 7769,
      "Ġsax": 7770,
      "Ġtherein": 7771,
      "Ġbrokerage": 7772,
      "Ġcomfort": 7773,
      "Ġbelg": 7774,
      "austral": 7775,
      "Ġyards": 7776,
      "ercial": 7777,
      "Ġprotected": 7778,
      "Ġdrawn": 7779,
      "Ġneighborhood": 7780,
      "Ġidentifying": 7781,
      "Ġscre": 7782,
      "Ġhip": 7783,
      "die": 7784,
      "Ġeliminate": 7785,
      "conn": 7786,
      "Ġusgaapp": 7787,
      "Ġinject": 7788,
      "Ġchile": 7789,
      "ady": 7790,
      "Ġjump": 7791,
      "Ġportfolios": 7792,
      "lock": 7793,
      "onn": 7794,
      "lan": 7795,
      "Ġpremises": 7796,
      "Ġpassenger": 7797,
      "Ġpieces": 7798,
      "first": 7799,
      "Ġfabric": 7800,
      "Ġsignal": 7801,
      "ĠĠĠĊ": 7802,
      "Ġpresidential": 7803,
      "Ġmulti": 7804,
      "Ġsin": 7805,
      "Ġfm": 7806,
      "oman": 7807,
      "lie": 7808,
      "Ġsemif": 7809,
      "Ġvillages": 7810,
      "Ġhugh": 7811,
      "Ġoral": 7812,
      "room": 7813,
      "aro": 7814,
      "Ġhorizon": 7815,
      "Ġotherthantem": 7816,
      "uity": 7817,
      "ĠĠĠĠĠĠĠĠĠĠĠĠĠĠĠ": 7818,
      "bibliography": 7819,
      "Ġspecialized": 7820,
      "Ġorleans": 7821,
      "Ġcoaches": 7822,
      "Ġforecasted": 7823,
      "Ġperformances": 7824,
      "Ġomn": 7825,
      "Ġmeasuring": 7826,
      "Ġpressures": 7827,
      "Ġcook": 7828,
      "Ġalg": 7829,
      "Ġwit": 7830,
      "Ġvendor": 7831,
      "Ġsimon": 7832,
      "Ġmail": 7833,
      "Ġmilestones": 7834,
      "Ġremote": 7835,
      "Ġspee": 7836,
      "iva": 7837,
      "tes": 7838,
      "Ġdidnt": 7839,
      "Ġnegotiated": 7840,
      "continued": 7841,
      "Ġcondensed": 7842,
      "Ġliver": 7843,
      "Ġenables": 7844,
      "Ġtherapeutic": 7845,
      "Ġconsultant": 7846,
      "Ġfd": 7847,
      "Ġnyse": 7848,
      "Ġsituated": 7849,
      "Ġhired": 7850,
      "Ġhers": 7851,
      "Ġarmed": 7852,
      "soft": 7853,
      "Ġsalt": 7854,
      "Ġberg": 7855,
      "Ġdol": 7856,
      "Ġhorn": 7857,
      "mouth": 7858,
      "Ġvarying": 7859,
      "Ġgreatest": 7860,
      "Ð½": 7861,
      "Ġunderground": 7862,
      "Ġfaced": 7863,
      "Ġmultifamily": 7864,
      "Ġsurplus": 7865,
      "oren": 7866,
      "Ġloyal": 7867,
      "Ġhans": 7868,
      "Ġutah": 7869,
      "rence": 7870,
      "awn": 7871,
      "inding": 7872,
      "adjust": 7873,
      "astroph": 7874,
      "Ġindications": 7875,
      "Ġaw": 7876,
      "Ġnaz": 7877,
      "itedown": 7878,
      "Ġelectronically": 7879,
      "bish": 7880,
      "Ġdemonstrated": 7881,
      "Ġstatutes": 7882,
      "Ġhelpful": 7883,
      "Ġvel": 7884,
      "Ġmisc": 7885,
      "Ġdiamond": 7886,
      "inos": 7887,
      "Ġhamp": 7888,
      "Ġrealization": 7889,
      "Ġinternally": 7890,
      "Ġsecrets": 7891,
      "erick": 7892,
      "pass": 7893,
      "Ġharris": 7894,
      "Ġsuggested": 7895,
      "Ġbrid": 7896,
      "ictional": 7897,
      "Ġautomatically": 7898,
      "Ġgord": 7899,
      "style": 7900,
      "Ġdang": 7901,
      "Ġexperiences": 7902,
      "Ġquebec": 7903,
      "Ġbot": 7904,
      "Ġpalace": 7905,
      "Ġinvolvement": 7906,
      "Ġpd": 7907,
      "Ġtrains": 7908,
      "pts": 7909,
      "Ġsignature": 7910,
      "gy": 7911,
      "Ġdealers": 7912,
      "ologies": 7913,
      "Ġanalyz": 7914,
      "Ġtied": 7915,
      "oor": 7916,
      "Ġerrors": 7917,
      "Ġnonf": 7918,
      "Ġwritedown": 7919,
      "hal": 7920,
      "Ġhelping": 7921,
      "Ġafterno": 7922,
      "oster": 7923,
      "Ġsatisfied": 7924,
      "Ġincs": 7925,
      "Ġdealer": 7926,
      "definedbenefitmember": 7927,
      "iner": 7928,
      "Ġsettle": 7929,
      "Ġstake": 7930,
      "arel": 7931,
      "Ġrated": 7932,
      "Ġapparent": 7933,
      "Ġprocure": 7934,
      "Ġabsolute": 7935,
      "plansdefinedbenefitmember": 7936,
      "Ġkept": 7937,
      "Ġbos": 7938,
      "Ġjournalist": 7939,
      "Ġforegoing": 7940,
      "Ġinstance": 7941,
      "Ġstarts": 7942,
      "Ġassociate": 7943,
      "Ġcharacterized": 7944,
      "Ġholy": 7945,
      "enz": 7946,
      "rail": 7947,
      "Ġflying": 7948,
      "Ġintegrate": 7949,
      "Ġdrop": 7950,
      "Ġfract": 7951,
      "Ġcapability": 7952,
      "Ġvertical": 7953,
      "aken": 7954,
      "Ġreliance": 7955,
      "mm": 7956,
      "Ġadjacent": 7957,
      "Ġdeprec": 7958,
      "Ġprove": 7959,
      "Ġdouglas": 7960,
      "Ġlect": 7961,
      "expected": 7962,
      "Ġcommonwealth": 7963,
      "mes": 7964,
      "Ġbrazilian": 7965,
      "Ġwol": 7966,
      "chang": 7967,
      "break": 7968,
      "Ġsells": 7969,
      "Ġalco": 7970,
      "Ġindicative": 7971,
      "Ġhoward": 7972,
      "Ġnan": 7973,
      "Ġdave": 7974,
      "Ġdelivering": 7975,
      "when": 7976,
      "mans": 7977,
      "rep": 7978,
      "Ġinterior": 7979,
      "Ġreadily": 7980,
      "easurements": 7981,
      "Ġstabil": 7982,
      "Ġreconc": 7983,
      "Ġhey": 7984,
      "ilation": 7985,
      "Ġstronger": 7986,
      "Ġexcludes": 7987,
      "Ġingred": 7988,
      "Ġadvoc": 7989,
      "Ġroof": 7990,
      "Ġenerg": 7991,
      "Ġdeleg": 7992,
      "Ġprivately": 7993,
      "Ġboat": 7994,
      "ĠÎ": 7995,
      "Ġmacro": 7996,
      "Ġpreferences": 7997,
      "Ġbes": 7998,
      "Ġappearing": 7999,
      "Ġnotional": 8000,
      "Ġiraq": 8001,
      "Ġdodd": 8002,
      "ogy": 8003,
      "current": 8004,
      "Ġsomewhat": 8005,
      "Ġscoring": 8006,
      "Ġtreaty": 8007,
      "=|": 8008,
      "Ġandre": 8009,
      "Ġresidual": 8010,
      "Ġreliable": 8011,
      "itis": 8012,
      "Ġcomics": 8013,
      "Ġmandatory": 8014,
      "Ġbund": 8015,
      "Ġnonacc": 8016,
      "Ġpad": 8017,
      "Ġreaching": 8018,
      "Ġattached": 8019,
      "ĊĠĊĊ": 8020,
      "Ġresponsibilities": 8021,
      "downs": 8022,
      "Ġadam": 8023,
      "ambig": 8024,
      "Ġjay": 8025,
      "caa": 8026,
      "Ġindicators": 8027,
      "Ġnutr": 8028,
      "Ġswiss": 8029,
      "cape": 8030,
      "athers": 8031,
      "Ġlux": 8032,
      "Ġsurve": 8033,
      "Ġpoetry": 8034,
      "Ġpurchasers": 8035,
      "Ġotc": 8036,
      "Ġlod": 8037,
      "Ġtried": 8038,
      "Ġsensitivity": 8039,
      "Ġdatabase": 8040,
      "Ġdream": 8041,
      "Ġlooks": 8042,
      "Ġshowing": 8043,
      "Ġliterary": 8044,
      "Ġtc": 8045,
      "Ġperce": 8046,
      "Ġuncle": 8047,
      "Ġkat": 8048,
      "Ġcaution": 8049,
      "geography": 8050,
      "Ġwrestling": 8051,
      "Ġtoky": 8052,
      "Ġchargeoffs": 8053,
      "Ġraising": 8054,
      "eee": 8055,
      "Ġweaknesses": 8056,
      "dec": 8057,
      "antly": 8058,
      "Ġsurname": 8059,
      "Ġappeals": 8060,
      "Ġimpr": 8061,
      "Ġtimber": 8062,
      "Ġhealthy": 8063,
      "imummember": 8064,
      "anded": 8065,
      "acle": 8066,
      "Ġapprove": 8067,
      "Ġtreasurer": 8068,
      "apers": 8069,
      "Ġcompleting": 8070,
      "Ġunsuccess": 8071,
      "Ġskin": 8072,
      "hum": 8073,
      "Ġarc": 8074,
      "Ġaustria": 8075,
      "Ġkhan": 8076,
      "itelived": 8077,
      "Ġcolonial": 8078,
      "Ġleads": 8079,
      "change": 8080,
      "Ġarbit": 8081,
      "Ġliable": 8082,
      "Ġvie": 8083,
      "Ġmeant": 8084,
      "Ġeducated": 8085,
      "recurringmember": 8086,
      "Ġster": 8087,
      "Ġug": 8088,
      "Ġcatastroph": 8089,
      "alo": 8090,
      "otic": 8091,
      "Ġhappy": 8092,
      "Ġcontempl": 8093,
      "Ġparks": 8094,
      "Ġign": 8095,
      "Ġconstitute": 8096,
      "Ġsurgery": 8097,
      "Ġremember": 8098,
      "Ġusgaapfairvaluemeasurements": 8099,
      "Ġconcentrations": 8100,
      "Ġbattery": 8101,
      "Ġpresently": 8102,
      "christ": 8103,
      "orporated": 8104,
      "Ġcfo": 8105,
      "Ġaccountant": 8106,
      "elson": 8107,
      "Ġaccretion": 8108,
      "burn": 8109,
      "card": 8110,
      "Ġsponsored": 8111,
      "Ġfaster": 8112,
      "Ġnormally": 8113,
      "Ġprevailing": 8114,
      "Ġdisputes": 8115,
      "power": 8116,
      "Ġtemperature": 8117,
      "Ġportray": 8118,
      "Ġtech": 8119,
      "Ġgang": 8120,
      "Ġafternoon": 8121,
      "Ġprud": 8122,
      "Ġnegotiations": 8123,
      "Ġcapable": 8124,
      "Ġsv": 8125,
      "Ġinterpretations": 8126,
      "Ġcommodities": 8127,
      "french": 8128,
      "Ġdisapp": 8129,
      "kr": 8130,
      "grad": 8131,
      "Ġminute": 8132,
      "igrants": 8133,
      "Ġowed": 8134,
      "Ġbrun": 8135,
      "Ġlaure": 8136,
      "Ġmile": 8137,
      "Ġku": 8138,
      "scott": 8139,
      "Ġdallas": 8140,
      "Ġpod": 8141,
      "Ġacid": 8142,
      "Ġgraduate": 8143,
      "Ġfewer": 8144,
      "Ġvaluations": 8145,
      "Ġrenewed": 8146,
      "Ġbak": 8147,
      "Ġpictures": 8148,
      "Ġtox": 8149,
      "ario": 8150,
      "Ġnap": 8151,
      "Ġprocedure": 8152,
      "Ġissuers": 8153,
      "james": 8154,
      "Ġhair": 8155,
      "Ġindication": 8156,
      "ollect": 8157,
      "Ġparall": 8158,
      "Ġaccelerate": 8159,
      "Ġawareness": 8160,
      "Ġsed": 8161,
      "Ġdeals": 8162,
      "Ġconstitution": 8163,
      "Ġadministered": 8164,
      "Ġoffsetting": 8165,
      "vak": 8166,
      "Ġenjoy": 8167,
      "Ġphotograph": 8168,
      "Ġdiplom": 8169,
      "Ġtony": 8170,
      "Ġcann": 8171,
      "Ġinqu": 8172,
      "Ġriskbased": 8173,
      "Ġsubscrib": 8174,
      "wing": 8175,
      "Ġdemonstrate": 8176,
      "Ġgram": 8177,
      "Ġraid": 8178,
      "aho": 8179,
      "Ġnc": 8180,
      "apital": 8181,
      "Ġstarring": 8182,
      "Ġshape": 8183,
      "writers": 8184,
      "ĠâĢł": 8185,
      "Ġdisambig": 8186,
      "Ġlatest": 8187,
      "Ġdispl": 8188,
      "Ġrepayments": 8189,
      "Ġboards": 8190,
      "Ġvessel": 8191,
      "Ġrecre": 8192,
      "Ġeitf": 8193,
      "Ġintegrity": 8194,
      "Ġbright": 8195,
      "Ġwolf": 8196,
      "Ġdecide": 8197,
      "Ġphone": 8198,
      "Ġsalv": 8199,
      "Ġfacilitate": 8200,
      "Ġfargo": 8201,
      "Ġproposals": 8202,
      "Ġexercises": 8203,
      "Ġlocom": 8204,
      "Ġcape": 8205,
      "oted": 8206,
      "Ġae": 8207,
      "Ġnomine": 8208,
      "Ġdisambiguation": 8209,
      "Ġsides": 8210,
      "canadian": 8211,
      "Ġburied": 8212,
      "Ġanthony": 8213,
      "Ġlincoln": 8214,
      "à¤": 8215,
      "ted": 8216,
      "step": 8217,
      "ovic": 8218,
      "capital": 8219,
      "Ġsays": 8220,
      "Ġcoff": 8221,
      "aver": 8222,
      "Ġmoscow": 8223,
      "Ġlists": 8224,
      "Ġsanctions": 8225,
      "through": 8226,
      "Ġcommencing": 8227,
      "Ġinspired": 8228,
      "Ġwithhold": 8229,
      "elerated": 8230,
      "Ġpin": 8231,
      "Ġallen": 8232,
      "Ġtender": 8233,
      "Ġantonio": 8234,
      "Ġmarg": 8235,
      "Ġbroader": 8236,
      "Ġvirtual": 8237,
      "rome": 8238,
      "Ġinterstate": 8239,
      "omer": 8240,
      "Ġcv": 8241,
      "Ġali": 8242,
      "ram": 8243,
      "bas": 8244,
      "Ġchemicals": 8245,
      "Ġattorneys": 8246,
      "Ġvietnam": 8247,
      "Ġdeclar": 8248,
      "Ġfib": 8249,
      "oh": 8250,
      "isons": 8251,
      "uese": 8252,
      "otal": 8253,
      "Ġwalter": 8254,
      "Ġvalu": 8255,
      "Ġarena": 8256,
      "uration": 8257,
      "Ġartillery": 8258,
      "Ġtrump": 8259,
      "Ġapprais": 8260,
      "Ġrhod": 8261,
      "Ġamericans": 8262,
      "set": 8263,
      "Ġgap": 8264,
      "Ġbelgium": 8265,
      "dam": 8266,
      "night": 8267,
      "Ġsurpr": 8268,
      "Ġmetro": 8269,
      "iami": 8270,
      "Ġroy": 8271,
      "Ġmusician": 8272,
      "Ġevolving": 8273,
      "Ġstatementscontinued": 8274,
      "Ġdiversified": 8275,
      "Ġtm": 8276,
      "Ġhud": 8277,
      "uma": 8278,
      "Ġabandoned": 8279,
      "Ġaged": 8280,
      "Ġgib": 8281,
      "Ġbrain": 8282,
      "Ġtas": 8283,
      "lowing": 8284,
      "apolis": 8285,
      "Ġtransp": 8286,
      "Ġnorwegian": 8287,
      "esh": 8288,
      "Ġmeg": 8289,
      "Ġproperly": 8290,
      "Ġefficiencies": 8291,
      "Ġcloth": 8292,
      "Ġtropical": 8293,
      "Ġesp": 8294,
      "Ġpir": 8295,
      "Ġdetermin": 8296,
      "Ġmelbourne": 8297,
      "Ġraf": 8298,
      "Ġresistance": 8299,
      "Ġvenez": 8300,
      "Ġantidil": 8301,
      "Ġwellknown": 8302,
      "onian": 8303,
      "Ġsty": 8304,
      "Ġaccurate": 8305,
      "Ġlang": 8306,
      "Ġphill": 8307,
      "Ġtaught": 8308,
      "ivals": 8309,
      "Ġtokyo": 8310,
      "load": 8311,
      "Ġdefence": 8312,
      "Ġpredomin": 8313,
      "Ġanalysts": 8314,
      "Ġspok": 8315,
      "imm": 8316,
      "Ġreel": 8317,
      "Ġbann": 8318,
      "orig": 8319,
      "Ġnonvested": 8320,
      "Ġpanel": 8321,
      "Ġlift": 8322,
      "Ġcharts": 8323,
      "Ġbiggest": 8324,
      "mid": 8325,
      "Ġkam": 8326,
      "Ġcasualty": 8327,
      "Ġchristmas": 8328,
      "Ġgets": 8329,
      "Ġmps": 8330,
      "Ġmarks": 8331,
      "Ġseeks": 8332,
      "Ġkl": 8333,
      "aco": 8334,
      "Ġpractical": 8335,
      "Ġimmun": 8336,
      "bul": 8337,
      "struction": 8338,
      "Ġreservoir": 8339,
      "hed": 8340,
      "Ġsie": 8341,
      "liest": 8342,
      "Ġvig": 8343,
      "Ġrooms": 8344,
      "Ġuniversities": 8345,
      "Ġredeemed": 8346,
      "Ġisol": 8347,
      "Ġpowerful": 8348,
      "ques": 8349,
      "Ġspectrum": 8350,
      "Ġattempted": 8351,
      "Ġeasy": 8352,
      "Ġsuff": 8353,
      "Ġescrow": 8354,
      "Ġva": 8355,
      "Ġdomain": 8356,
      "Ġunlike": 8357,
      "Ġarchae": 8358,
      "Ġjourney": 8359,
      "Ġdilution": 8360,
      "Ġroberts": 8361,
      "incent": 8362,
      "sources": 8363,
      "television": 8364,
      "lights": 8365,
      "atories": 8366,
      "Ġdenied": 8367,
      "anim": 8368,
      "estyle": 8369,
      "Ġintroduce": 8370,
      "Ġinsu": 8371,
      "Ġpackage": 8372,
      "Ġlag": 8373,
      "Ġkitt": 8374,
      "Ġrecoverability": 8375,
      "iants": 8376,
      "club": 8377,
      "Ġtrees": 8378,
      "Ġpatrick": 8379,
      "iments": 8380,
      "Ġperfect": 8381,
      "Ġbuying": 8382,
      "Ġscript": 8383,
      "hai": 8384,
      "lord": 8385,
      "atus": 8386,
      "Ġjoh": 8387,
      "Ġathletic": 8388,
      "Ġhamilton": 8389,
      "Ġrod": 8390,
      "Ġseventh": 8391,
      "Ġprobability": 8392,
      "omas": 8393,
      "Ġhelps": 8394,
      "Ġonto": 8395,
      "Ġdecor": 8396,
      "Ġotherthantemporary": 8397,
      "Ġnonaffili": 8398,
      "veland": 8399,
      "Ġminimize": 8400,
      "Ġamaz": 8401,
      "Ġcommunist": 8402,
      "ancial": 8403,
      "Ġnonaccelerated": 8404,
      "isite": 8405,
      "sportspeople": 8406,
      "Ġmoon": 8407,
      "Ġdiscretionary": 8408,
      "Ġfans": 8409,
      "www": 8410,
      "Ġsuspension": 8411,
      "Ġpeters": 8412,
      "Ġorange": 8413,
      "Ġmodest": 8414,
      "roit": 8415,
      "Ġvoted": 8416,
      "Ġpca": 8417,
      "Ġexpectation": 8418,
      "Ġpainter": 8419,
      "yers": 8420,
      "opol": 8421,
      "death": 8422,
      "Ġholiday": 8423,
      "Ġmatthew": 8424,
      "Ġvulner": 8425,
      "Ġorph": 8426,
      "Ġcurve": 8427,
      "Ġdj": 8428,
      "Ġruling": 8429,
      "Ġmode": 8430,
      "Ġsportspeople": 8431,
      "ayer": 8432,
      "Ġdakota": 8433,
      "adr": 8434,
      "osa": 8435,
      "Ġprohibited": 8436,
      "dy": 8437,
      "asy": 8438,
      "Ġclark": 8439,
      "Ġunres": 8440,
      "osc": 8441,
      "Ġlinked": 8442,
      "zo": 8443,
      "wall": 8444,
      "Ġry": 8445,
      "Ġairlines": 8446,
      "Ġfocusing": 8447,
      "Ġbath": 8448,
      "Ġathletics": 8449,
      "Ġappointment": 8450,
      "Ġsri": 8451,
      "profit": 8452,
      "results": 8453,
      "electric": 8454,
      "Ġjord": 8455,
      "chem": 8456,
      "Ġment": 8457,
      "Ġfailures": 8458,
      "Ġpromul": 8459,
      "Ġhypoth": 8460,
      "Ġgary": 8461,
      "iral": 8462,
      "Ġtempor": 8463,
      "Ġwondering": 8464,
      "Ġcolomb": 8465,
      "Ġtight": 8466,
      "Ġsecuring": 8467,
      "Ġgreece": 8468,
      "Ġrif": 8469,
      "Ġfiber": 8470,
      "Ġcrash": 8471,
      "Ġliberty": 8472,
      "Ġjews": 8473,
      "Ġdesc": 8474,
      "rock": 8475,
      "Ġalternatives": 8476,
      "ocese": 8477,
      "Ġarrested": 8478,
      "Ġrepairs": 8479,
      "apher": 8480,
      "Ġdoor": 8481,
      "Ġliv": 8482,
      "Ġstocks": 8483,
      "Ġgay": 8484,
      "backs": 8485,
      "actory": 8486,
      "uritiesmember": 8487,
      "Ġseed": 8488,
      "Ġremove": 8489,
      "Ġchurches": 8490,
      "Ġunexpected": 8491,
      "Ġille": 8492,
      "cor": 8493,
      "Ġwarm": 8494,
      "Ġissuing": 8495,
      "Ġqueensland": 8496,
      "Ġroads": 8497,
      "Ġstatist": 8498,
      "Ġanch": 8499,
      "Ġmerit": 8500,
      "Ġessentially": 8501,
      "Ġcomputation": 8502,
      "Ġstress": 8503,
      "Ġpetition": 8504,
      "Ġhistorian": 8505,
      "Ġdoddfrank": 8506,
      "Ġbeneficially": 8507,
      "Ġpair": 8508,
      "rolled": 8509,
      "Ġdiagnostic": 8510,
      "Ġmalaysia": 8511,
      "Ġcreative": 8512,
      "Ġfan": 8513,
      "Ġjudicial": 8514,
      "Ġstability": 8515,
      "iding": 8516,
      "Ġherewith": 8517,
      "Ġtribut": 8518,
      "Ġconsiderable": 8519,
      "fri": 8520,
      "Ġdropped": 8521,
      "usal": 8522,
      "Ġspeech": 8523,
      "Ġstructural": 8524,
      "Ġinsurers": 8525,
      "Ġborough": 8526,
      "commercial": 8527,
      "Ġreclassification": 8528,
      "Ġstem": 8529,
      "Ġdeplet": 8530,
      "Ġsyndic": 8531,
      "Ġrecruit": 8532,
      "Ġbreaches": 8533,
      "Ġfundamental": 8534,
      "Ġthirty": 8535,
      "Ġqualification": 8536,
      "Ġcoron": 8537,
      "Ġalan": 8538,
      "lon": 8539,
      "Ġdepartments": 8540,
      "agan": 8541,
      "Ġpreference": 8542,
      "Ġimag": 8543,
      "run": 8544,
      "Ġhire": 8545,
      "Ġharry": 8546,
      "established": 8547,
      "Ġconcess": 8548,
      "Ġusgaapc": 8549,
      "Ġcontroller": 8550,
      "Ġcommissioned": 8551,
      "ennis": 8552,
      "econom": 8553,
      "Ġcompounds": 8554,
      "Ġig": 8555,
      "Ġwebsites": 8556,
      "Ġmines": 8557,
      "Ġcalculate": 8558,
      "ymn": 8559,
      "alt": 8560,
      "Ġstrict": 8561,
      "ublin": 8562,
      "Ġrio": 8563,
      "Ġlegend": 8564,
      "Ġdeductible": 8565,
      "Ġdiesel": 8566,
      "Ġinteract": 8567,
      "ibus": 8568,
      "Ġpositioned": 8569,
      "only": 8570,
      "Ġmck": 8571,
      "rett": 8572,
      "Ġsucceeded": 8573,
      "ospace": 8574,
      "ommission": 8575,
      "Ġreligion": 8576,
      "Ġdynasty": 8577,
      "Ġcompetitions": 8578,
      "Ġwave": 8579,
      "german": 8580,
      "Ġmisstatements": 8581,
      "alone": 8582,
      "Ġmomentum": 8583,
      "Ġgrown": 8584,
      "Ġeagle": 8585,
      "Ġstrik": 8586,
      "chen": 8587,
      "Ġissuable": 8588,
      "Ġattest": 8589,
      "Ġisraeli": 8590,
      "Ġmans": 8591,
      "Ġreality": 8592,
      "Ġsave": 8593,
      "Ġbranded": 8594,
      "Ġplanet": 8595,
      "Ġhurricane": 8596,
      "Ġusgaapfairvaluemeasurementsrecurringmember": 8597,
      "Ġeasily": 8598,
      "ran": 8599,
      "afe": 8600,
      "Ġvenezuel": 8601,
      "aux": 8602,
      "Ġlynch": 8603,
      "Ġintense": 8604,
      "Ġmills": 8605,
      "Ġfixt": 8606,
      "Ġautomobile": 8607,
      "Ġattain": 8608,
      "Ġvariations": 8609,
      "Ġdamaged": 8610,
      "gi": 8611,
      "Ġshipment": 8612,
      "ials": 8613,
      "dc": 8614,
      "alb": 8615,
      "Ġsad": 8616,
      "Ġdeficiencies": 8617,
      "Ġtaxation": 8618,
      "Ġlyrics": 8619,
      "antic": 8620,
      "Ġmagic": 8621,
      "door": 8622,
      "Ġvent": 8623,
      "Ġnda": 8624,
      "Ġnik": 8625,
      "Ġearl": 8626,
      "itter": 8627,
      "Ġmoore": 8628,
      "Ġfurnished": 8629,
      "Ġlane": 8630,
      "Ġmatching": 8631,
      "eton": 8632,
      "Ġwed": 8633,
      "aine": 8634,
      "Ġthor": 8635,
      "Ġmi": 8636,
      "ivate": 8637,
      "Ġryan": 8638,
      "Ġmist": 8639,
      "coming": 8640,
      "Ġsimult": 8641,
      "rell": 8642,
      "Ġimages": 8643,
      "Ġindonesia": 8644,
      "enh": 8645,
      "Ġunresolved": 8646,
      "Ġbuff": 8647,
      "Ġcoso": 8648,
      "kar": 8649,
      "Ġstructured": 8650,
      "wick": 8651,
      "ders": 8652,
      "Ġdegrees": 8653,
      "chi": 8654,
      "Ġguarantors": 8655,
      "Ġsach": 8656,
      "Ġale": 8657,
      "Ġexcited": 8658,
      "Ġintention": 8659,
      "Ġwish": 8660,
      "Ġrussell": 8661,
      "Ġstim": 8662,
      "iph": 8663,
      "Ġcontributing": 8664,
      "acco": 8665,
      "commerce": 8666,
      "Ġvaluable": 8667,
      "Ġboe": 8668,
      "Ġexempt": 8669,
      "Ġcontrast": 8670,
      "Ġfill": 8671,
      "Ġperpet": 8672,
      "Ġload": 8673,
      "Ġsubjective": 8674,
      "Ġauditor": 8675,
      "agu": 8676,
      "Ġtells": 8677,
      "Ġundertake": 8678,
      "Ġhub": 8679,
      "Ġnfl": 8680,
      "Ġmetals": 8681,
      "Ġbiological": 8682,
      "Ġphoen": 8683,
      "ugu": 8684,
      "Ġlakes": 8685,
      "quarter": 8686,
      "Ġbah": 8687,
      "Ġstrip": 8688,
      "Ġmids": 8689,
      "Ġoccurring": 8690,
      "Ġtradition": 8691,
      "Ġfern": 8692,
      "Ġhttp": 8693,
      "Ġexamining": 8694,
      "Ġdean": 8695,
      "aa": 8696,
      "Ġbillboard": 8697,
      "Ġsupports": 8698,
      "Ġforfeitures": 8699,
      "Ġbirds": 8700,
      "Ġpitts": 8701,
      "fef": 8702,
      "Ġspacewatch": 8703,
      "Ġtrained": 8704,
      "Ġearliest": 8705,
      "ailand": 8706,
      "Ġdecades": 8707,
      "Ġranges": 8708,
      "Ġbrokers": 8709,
      "ocal": 8710,
      "Ġhors": 8711,
      "Ġmerr": 8712,
      "Ġtissue": 8713,
      "Ġdisability": 8714,
      "Ġrud": 8715,
      "inte": 8716,
      "Ġadvice": 8717,
      "Ġuncollect": 8718,
      "Ġcontracted": 8719,
      "Ġsunday": 8720,
      "Ġprogramme": 8721,
      "Ġlandscape": 8722,
      "Ġalum": 8723,
      "Ġaired": 8724,
      "Ġbowl": 8725,
      "Ġjane": 8726,
      "australian": 8727,
      "Ġmitch": 8728,
      "Ġpav": 8729,
      "Ġappreciate": 8730,
      "Ġresort": 8731,
      "itr": 8732,
      "Ġextreme": 8733,
      "anche": 8734,
      "Ġinspection": 8735,
      "ech": 8736,
      "Ġexchanges": 8737,
      "Ġdefending": 8738,
      "final": 8739,
      "Ġbilling": 8740,
      "Ġplate": 8741,
      "Ġearthqu": 8742,
      "Ġguns": 8743,
      "van": 8744,
      "gate": 8745,
      "Ġvegas": 8746,
      "Ġheading": 8747,
      "Ġcot": 8748,
      "Ġdrag": 8749,
      "Ġsituations": 8750,
      "Ġpure": 8751,
      "smember": 8752,
      "Ġminimal": 8753,
      "Ġexcellent": 8754,
      "paul": 8755,
      "Ġforg": 8756,
      "Ġneut": 8757,
      "Ġmechanical": 8758,
      "Ġmanchester": 8759,
      "ographer": 8760,
      "Ġassignment": 8761,
      "Ġexpose": 8762,
      "Ġmw": 8763,
      "Ġrobust": 8764,
      "gh": 8765,
      "Ġclearing": 8766,
      "Ġrequests": 8767,
      "Ġbulletin": 8768,
      "Ġdh": 8769,
      "Ġfoss": 8770,
      "Ġkaz": 8771,
      "Ġrav": 8772,
      "ateur": 8773,
      "uts": 8774,
      "military": 8775,
      "hop": 8776,
      "Ġlaid": 8777,
      "enses": 8778,
      "bean": 8779,
      "Ġmt": 8780,
      "Ġthin": 8781,
      "Ġviolence": 8782,
      "Ġassociations": 8783,
      "inoff": 8784,
      "ÑĤ": 8785,
      "likely": 8786,
      "Ġevolution": 8787,
      "elli": 8788,
      "Ġpledged": 8789,
      "Ġrecordings": 8790,
      "Ġnonrecurring": 8791,
      "Ġgift": 8792,
      "Ġemployers": 8793,
      "pc": 8794,
      "acad": 8795,
      "usive": 8796,
      "Ġshipped": 8797,
      "Ġoldest": 8798,
      "Ġcms": 8799,
      "uits": 8800,
      "Ġcamer": 8801,
      "Ġconclusion": 8802,
      "Ġarmen": 8803,
      "san": 8804,
      "Ġaustin": 8805,
      "Ġhat": 8806,
      "Ġml": 8807,
      "notable": 8808,
      "Ġpear": 8809,
      "Ġcontinually": 8810,
      "Ġfinals": 8811,
      "Ġmiami": 8812,
      "Ġtherapeutics": 8813,
      "Ġridge": 8814,
      "Ġdecommission": 8815,
      "Ġgordon": 8816,
      "abad": 8817,
      "Ġresolved": 8818,
      "Ġbulk": 8819,
      "Ġdocumentation": 8820,
      "Ġrealty": 8821,
      "Ġlemmon": 8822,
      "eur": 8823,
      "ioned": 8824,
      "Ġunrelated": 8825,
      "inking": 8826,
      "official": 8827,
      "Ġfails": 8828,
      "Ġblues": 8829,
      "Ġcathed": 8830,
      "ddd": 8831,
      "Ġsomeone": 8832,
      "Ġstandalone": 8833,
      "olished": 8834,
      "Ġdividing": 8835,
      "Ġpy": 8836,
      "mentsmember": 8837,
      "Ġrear": 8838,
      "Ġmeters": 8839,
      "Ġhs": 8840,
      "Ġkilling": 8841,
      "||||": 8842,
      "kshire": 8843,
      "Ġcroat": 8844,
      "Ġadvantages": 8845,
      "Ġmb": 8846,
      "Ġhang": 8847,
      "Ġabd": 8848,
      "Ġdonald": 8849,
      "Ġgone": 8850,
      "Ġpursuing": 8851,
      "Ġcovenant": 8852,
      "Ġconfident": 8853,
      "Ġbrokerdeal": 8854,
      "igenous": 8855,
      "wich": 8856,
      "eters": 8857,
      "Ġindependently": 8858,
      "Ġassured": 8859,
      "Ġhappen": 8860,
      "education": 8861,
      "Ġglobally": 8862,
      "Ġsteven": 8863,
      "Ġinsufficient": 8864,
      "Ġwrong": 8865,
      "Ġdescribes": 8866,
      "Ġenrollment": 8867,
      "din": 8868,
      "gov": 8869,
      "Ġjuan": 8870,
      "olete": 8871,
      "Ġcollaborators": 8872,
      "Ġideas": 8873,
      "Ġmachin": 8874,
      "Ġthreatened": 8875,
      "emptions": 8876,
      "Ġecommerce": 8877,
      "Ġ============": 8878,
      "Ġperformancebased": 8879,
      "Ġsponsors": 8880,
[...]
