{
  "version": "1.0",
  "truncation": null,
  "padding": null,
  "added_tokens": [
    {
      "id": 0,
      "content": "<s>",
      "single_word": false,
      "lstrip": false,
      "rstrip": false,
      "normalized": false,
      "special": true
    },
    {
      "id": 1,
      "content": "<pad>",
      "single_word": false,
      "lstrip": false,
      "rstrip": false,
      "normalized": false,
      "special": true
    },
    {
      "id": 2,
      "content": "<unk>",
      "single_word": false,
      "lstrip": false,
      "rstrip": false,
      "normalized": false,
      "special": true
    },
    {
      "id": 3,
      "content": "</s>",
      "single_word": false,
      "lstrip": false,
      "rstrip": false,
      "normalized": false,
      "special": true
    },
    {
      "id": 4,
      "content": "<mask>",
      "single_word": false,
      "lstrip": false,
      "rstrip": false,
      "normalized": false,
      "special": true
    }
  ],
  "normalizer": {
    "type": "Sequence",
    "normalizers": [
      {
        "type": "NFD"
      },
      {
        "type": "StripAccents"
      },
      {
        "type": "Lowercase"
      },
      {
        "type": "Replace",
        "pattern": {
          "Regex": "[0-9]"
        },
        "content": ""
      },
      {
        "type": "Replace",
        "pattern": {
          "Regex": " +"
        },
        "content": " "
      }
    ]
  },
  "pre_tokenizer": {
    "type": "ByteLevel",
    "add_prefix_space": false,
    "trim_offsets": true,
    "use_regex": true
  },
  "post_processor": {
    "type": "Sequence",
    "processors": [
      {
        "type": "ByteLevel",
        "add_prefix_space": true,
        "trim_offsets": false,
        "use_regex": true
      },
      {
        "type": "TemplateProcessing",
        "single": [
          {
            "SpecialToken": {
              "id": "<s>",
              "type_id": 0
            }
          },
          {
            "Sequence": {
              "id": "A",
              "type_id": 0
            }
          },
          {
            "SpecialToken": {
              "id": "</s>",
              "type_id": 0
            }
          }
        ],
        "pair": [
          {
            "Sequence": {
              "id": "A",
              "type_id": 0
            }
          },
          {
            "Sequence": {
              "id": "B",
              "type_id": 1
            }
          }
        ],
        "special_tokens": {
          "</s>": {
            "id": "</s>",
            "ids": [
              3
            ],
            "tokens": [
              "</s>"
            ]
          },
          "<s>": {
            "id": "<s>",
            "ids": [
              0
            ],
            "tokens": [
              "<s>"
            ]
          }
        }
      }
    ]
  },
  "decoder": {
    "type": "ByteLevel",
    "add_prefix_space": true,
    "trim_offsets": true,
    "use_regex": true
  },
  "model": {
    "type": "BPE",
    "dropout": null,
    "unk_token": "<unk>",
    "continuing_subword_prefix": null,
    "end_of_word_suffix": null,
    "fuse_unk": false,
    "byte_fallback": false,
    "vocab": {
      "<s>": 0,
      "<pad>": 1,
      "<unk>": 2,
      "</s>": 3,
      "<mask>": 4,
      "!": 5,
      "\"": 6,
      "#": 7,
      "$": 8,
      "%": 9,
      "&": 10,
      "'": 11,
      "(": 12,
      ")": 13,
      "*": 14,
      "+": 15,
      ",": 16,
      "-": 17,
      ".": 18,
      "/": 19,
      ":": 20,
      ";": 21,
      "<": 22,
      "=": 23,
      ">": 24,
      "?": 25,
      "@": 26,
      "[": 27,
      "\\": 28,
      "]": 29,
      "^": 30,
      "_": 31,
      "`": 32,
      "a": 33,
      "b": 34,
      "c": 35,
      "d": 36,
      "e": 37,
      "f": 38,
      "g": 39,
      "h": 40,
      "i": 41,
      "j": 42,
      "k": 43,
      "l": 44,
      "m": 45,
      "n": 46,
      "o": 47,
      "p": 48,
      "q": 49,
      "r": 50,
      "s": 51,
      "t": 52,
      "u": 53,
      "v": 54,
      "w": 55,
      "x": 56,
      "y": 57,
      "z": 58,
      "{": 59,
      "|": 60,
      "}": 61,
      "~": 62,
      "¡": 63,
      "¢": 64,
      "£": 65,
      "¤": 66,
      "¥": 67,
      "¦": 68,
      "§": 69,
      "¨": 70,
      "©": 71,
      "ª": 72,
      "«": 73,
      "¬": 74,
      "®": 75,
      "¯": 76,
      "°": 77,
      "±": 78,
      "²": 79,
      "³": 80,
      "´": 81,
      "µ": 82,
      "¶": 83,
      "·": 84,
      "¸": 85,
      "¹": 86,
      "º": 87,
      "»": 88,
      "¼": 89,
      "½": 90,
      "¾": 91,
      "¿": 92,
      "Â": 93,
      "Ã": 94,
      "Ä": 95,
      "Å": 96,
      "Æ": 97,
      "Ç": 98,
      "È": 99,
      "É": 100,
      "Ê": 101,
      "Ë": 102,
      "Í": 103,
      "Î": 104,
      "Ï": 105,
      "Ð": 106,
      "Ñ": 107,
      "Ò": 108,
      "Ó": 109,
      "Ô": 110,
      "Õ": 111,
      "Ö": 112,
      "×": 113,
      "Ø": 114,
      "Ù": 115,
      "Ú": 116,
      "Û": 117,
      "Ü": 118,
      "Ý": 119,
      "Þ": 120,
      "ß": 121,
      "à": 122,
      "á": 123,
      "â": 124,
      "ã": 125,
      "ä": 126,
      "å": 127,
      "æ": 128,
      "ç": 129,
      "è": 130,
      "é": 131,
      "ê": 132,
      "î": 133,
      "ï": 134,
      "ð": 135,
      "ó": 136,
      "ô": 137,
      "ĉ": 138,
      "Ċ": 139,
      "Ġ": 140,
      "ġ": 141,
      "Ģ": 142,
      "ģ": 143,
      "Ĥ": 144,
      "ĥ": 145,
      "Ħ": 146,
      "ħ": 147,
      "Ĩ": 148,
      "ĩ": 149,
      "Ī": 150,
      "ī": 151,
      "Ĭ": 152,
      "ĭ": 153,
      "Į": 154,
      "į": 155,
      "İ": 156,
      "ı": 157,
      "Ĳ": 158,
      "ĳ": 159,
      "Ĵ": 160,
      "ĵ": 161,
      "Ķ": 162,
      "ķ": 163,
      "ĸ": 164,
      "Ĺ": 165,
      "ĺ": 166,
      "Ļ": 167,
      "ļ": 168,
      "Ľ": 169,
      "ľ": 170,
      "Ŀ": 171,
      "ŀ": 172,
      "Ł": 173,
      "ł": 174,
      "Ń": 175,
      "Ġt": 176,
      "Ġa": 177,
      "in": 178,
      "er": 179,
      "Ġo": 180,
      "Ġth": 181,
      "re": 182,
      "on": 183,
      "Ġc": 184,
      "Ġthe": 185,
      "en": 186,
      "Ġs": 187,
      "at": 188,
      "an": 189,
      "es": 190,
      "ed": 191,
      "Ġin": 192,
      "Ġp": 193,
      "it": 194,
      "Ġf": 195,
      "or": 196,
      "al": 197,
      "Ġw": 198,
      "Ġan": 199,
      "Ġof": 200,
      "Ġb": 201,
      "ion": 202,
      "ar": 203,
      "is": 204,
      "Ġm": 205,
      "Ġand": 206,
      "Ġd": 207,
      "ing": 208,
      "Ġre": 209,
      "ent": 210,
      "ro": 211,
      "ic": 212,
      "Ġto": 213,
      "as": 214,
      "ur": 215,
      "Ġl": 216,
      "ct": 217,
      "om": 218,
      "Ġh": 219,
      "il": 220,
      "Ġe": 221,
      "Ġn": 222,
      "Ġ,": 223,
      "un": 224,
      "us": 225,
      "et": 226,
      "em": 227,
      "el": 228,
      "ation": 229,
      "Ġg": 230,
      "Ġcom": 231,
      "le": 232,
      "iv": 233,
      "ol": 234,
      "Ġas": 235,
      "th": 236,
      "Ġfor": 237,
      "Ġst": 238,
      "Ġ(": 239,
      "ch": 240,
      "ul": 241,
      "id": 242,
      "ce": 243,
      "st": 244,
      "im": 245,
      "Ġcon": 246,
      "ut": 247,
      "Ġon": 248,
      "ec": 249,
      "Ġpro": 250,
      "ers": 251,
      "ter": 252,
      "ig": 253,
      "ly": 254,
      "Ġcomp": 255,
      "qu": 256,
      "Ġour": 257,
      "Ġex": 258,
      "Ġis": 259,
      "ment": 260,
      "Ġ.": 261,
      "ay": 262,
      "ir": 263,
      "--": 264,
      "ies": 265,
      "ot": 266,
      "ab": 267,
      "est": 268,
      "Ġ$": 269,
      "Ġv": 270,
      "Ġinc": 271,
      "Ġr": 272,
      "Ġor": 273,
      "am": 274,
      "Ġwe": 275,
      "ith": 276,
      "os": 277,
      "ill": 278,
      "ial": 279,
      "ow": 280,
      "Ġbe": 281,
      "ect": 282,
      "ad": 283,
      "Ġwh": 284,
      "ated": 285,
      "ate": 286,
      "Ġwith": 287,
      "Ġthat": 288,
      "Ġsu": 289,
      "ity": 290,
      "Ġco": 291,
      "if": 292,
      "Ġal": 293,
      "Ġun": 294,
      "ber": 295,
      "ain": 296,
      "Ġy": 297,
      "ag": 298,
      "Ġby": 299,
      "Ġde": 300,
      "ement": 301,
      "ver": 302,
      "oc": 303,
      "res": 304,
      "ess": 305,
      "ist": 306,
      "ort": 307,
      "Ġit": 308,
      "Ġwas": 309,
      "Ġare": 310,
      "Ġsh": 311,
      "ant": 312,
      "Ġat": 313,
      "Ġj": 314,
      "and": 315,
      "per": 316,
      "Ġch": 317,
      "red": 318,
      "end": 319,
      "rom": 320,
      "ive": 321,
      "ve": 322,
      "ear": 323,
      "any": 324,
      "Ġac": 325,
      "pp": 326,
      "ud": 327,
      "Ġres": 328,
      "Ġfrom": 329,
      "um": 330,
      "ue": 331,
      "ac": 332,
      "ere": 333,
      "Ġad": 334,
      "ions": 335,
      "anc": 336,
      "ember": 337,
      "od": 338,
      "oun": 339,
      "'s": 340,
      "Ġnot": 341,
      "act": 342,
      "ust": 343,
      "Ġcont": 344,
      "Ġcompany": 345,
      "ap": 346,
      "ip": 347,
      "se": 348,
      "ther": 349,
      "ations": 350,
      "Ġpr": 351,
      "able": 352,
      "ance": 353,
      "art": 354,
      "Ġfin": 355,
      "Ġass": 356,
      "Ġper": 357,
      "Ġtr": 358,
      "uct": 359,
      "ib": 360,
      "ard": 361,
      "Ġmar": 362,
      "Ġdec": 363,
      "ich": 364,
      "op": 365,
      "Ġexp": 366,
      "fer": 367,
      "Ġpl": 368,
      "iz": 369,
      "Ġk": 370,
      "Ġcomm": 371,
      "Ġus": 372,
      "ang": 373,
      "ities": 374,
      "Ġam": 375,
      "Ġse": 376,
      "ition": 377,
      "igh": 378,
      "ff": 379,
      "ts": 380,
      "Ġyear": 381,
      "ans": 382,
      "ure": 383,
      "Ġle": 384,
      "der": 385,
      "Ġha": 386,
      "ome": 387,
      "..": 388,
      "Ġne": 389,
      "ire": 390,
      "Ġacc": 391,
      "ary": 392,
      "Ġinter": 393,
      "Ġrep": 394,
      "ase": 395,
      "pt": 396,
      "âĢ": 397,
      "ens": 398,
      "illion": 399,
      "ore": 400,
      "Ġfinanc": 401,
      "ug": 402,
      "Ġag": 403,
      "Ġother": 404,
      "Ġwhich": 405,
      "ock": 406,
      "Ġoper": 407,
      "Ġ-": 408,
      "lud": 409,
      "Ġapp": 410,
      "Ġstat": 411,
      "Ġmillion": 412,
      "Ġhe": 413,
      "are": 414,
      "up": 415,
      "for": 416,
      "Ġcons": 417,
      "Ġhave": 418,
      "Ġ)": 419,
      "all": 420,
      "ely": 421,
      "Ġfinancial": 422,
      "ie": 423,
      "duct": 424,
      "ign": 425,
      "og": 426,
      "Ġmay": 427,
      "----": 428,
      "Ġser": 429,
      "ments": 430,
      "Ġrec": 431,
      "Ġcl": 432,
      "Ġqu": 433,
      "ak": 434,
      "Ġim": 435,
      "ased": 436,
      "low": 437,
      "Ġstock": 438,
      "Ġpart": 439,
      "Ġthis": 440,
      "age": 441,
      "Ġinclud": 442,
      "ice": 443,
      "Ġ\"": 444,
      "Ġreg": 445,
      "uld": 446,
      "Ġdecember": 447,
      "Ġsec": 448,
      "ical": 449,
      "ell": 450,
      "ia": 451,
      "ou": 452,
      "Ġact": 453,
      "tain": 454,
      "ets": 455,
      "Ġsp": 456,
      "isc": 457,
      "Ġsub": 458,
      "Ġ$.": 459,
      "ements": 460,
      "Ġ--": 461,
      "Ġind": 462,
      "ax": 463,
      "Ġman": 464,
      "ous": 465,
      "ult": 466,
      "ors": 467,
      "Ġint": 468,
      "Ġab": 469,
      "Ġinv": 470,
      "form": 471,
      "ount": 472,
      "Ġimp": 473,
      "ish": 474,
      "Ġmark": 475,
      "Ġval": 476,
      "erm": 477,
      "ong": 478,
      "vel": 479,
      "ren": 480,
      "Ġen": 481,
      "ine": 482,
      "ility": 483,
      "our": 484,
      "Ġproduct": 485,
      "Ġrel": 486,
      "Ġwere": 487,
      "Ġunder": 488,
      "Ġnet": 489,
      "ating": 490,
      "Ġrev": 491,
      "Ġits": 492,
      "ual": 493,
      "Ġno": 494,
      "Ġgo": 495,
      "lo": 496,
      "Ġwill": 497,
      "so": 498,
      "Ġserv": 499,
      "ugh": 500,
      "Ġli": 501,
      "old": 502,
      "Ġbus": 503,
      "ord": 504,
      "Ġar": 505,
      "ast": 506,
      "ater": 507,
      "ence": 508,
      "ash": 509,
      "iness": 510,
      "Ġ%": 511,
      "Ġall": 512,
      "âĢĵ": 513,
      "air": 514,
      "bl": 515,
      "Ġlo": 516,
      "Ġbusiness": 517,
      "Ġpre": 518,
      "Ġprov": 519,
      "Ġtax": 520,
      "ks": 521,
      "su": 522,
      "Ġnew": 523,
      "ents": 524,
      "Ġcost": 525,
      "ach": 526,
      "Ġhas": 527,
      "Ġend": 528,
      "oss": 529,
      "ian": 530,
      "ail": 531,
      "istr": 532,
      "Ġro": 533,
      "ffect": 534,
      "Ġbo": 535,
      "ings": 536,
      "Ġalso": 537,
      "Ġi": 538,
      "Ġincome": 539,
      "uring": 540,
      "Ġreport": 541,
      "enc": 542,
      "Ġoff": 543,
      "Ġthese": 544,
      "ific": 545,
      "ates": 546,
      "ight": 547,
      "dition": 548,
      "Ġest": 549,
      "Ġgro": 550,
      "Ġrequ": 551,
      "Ġany": 552,
      "eral": 553,
      "Ġcap": 554,
      "Ġsal": 555,
      "ory": 556,
      "the": 557,
      "ide": 558,
      "Ġover": 559,
      "Ġte": 560,
      "Ġinterest": 561,
      "Ġincre": 562,
      "Ġpur": 563,
      "Ġ()": 564,
      "und": 565,
      "Ġcash": 566,
      "Ġequ": 567,
      "ices": 568,
      "Ġgen": 569,
      "Ġmarket": 570,
      "Ġfe": 571,
      "Ġinvest": 572,
      "ry": 573,
      "Ġhis": 574,
      "Ġtim": 575,
      "Ġme": 576,
      "Ġvalue": 577,
      "Ġassets": 578,
      "Ġout": 579,
      "Ġsuch": 580,
      "Ġup": 581,
      "ized": 582,
      "Ġappro": 583,
      "orp": 584,
      "ge": 585,
      "ass": 586,
      "ru": 587,
      "lect": 588,
      "Ġwor": 589,
      "irect": 590,
      "ited": 591,
      "aw": 592,
      "....": 593,
      "ame": 594,
      "urren": 595,
      "ack": 596,
      "Ġfir": 597,
      "ied": 598,
      "tal": 599,
      "ital": 600,
      "av": 601,
      "Ġem": 602,
      "Ġfil": 603,
      "Ġagre": 604,
      "Ġev": 605,
      "Ġtrans": 606,
      "Ġform": 607,
      "Ġstatements": 608,
      "its": 609,
      "ĠâĢĵ": 610,
      "Ġdisc": 611,
      "ty": 612,
      "Ġdirect": 613,
      "ject": 614,
      "Ġcommon": 615,
      "Ġmanag": 616,
      "ict": 617,
      "ange": 618,
      "Ġoperations": 619,
      "Ġcan": 620,
      "out": 621,
      "Ġthere": 622,
      "uc": 623,
      "Ġso": 624,
      "Ġaddition": 625,
      "Ġsecur": 626,
      "ertain": 627,
      "Ġtheir": 628,
      "Ġif": 629,
      "Ġpres": 630,
      "Ġreven": 631,
      "Ġmo": 632,
      "ose": 633,
      "Ġpay": 634,
      "iod": 635,
      "ond": 636,
      "arter": 637,
      "Ġyears": 638,
      "ward": 639,
      "Ġcurren": 640,
      "olid": 641,
      "ative": 642,
      "Ġyou": 643,
      "ef": 644,
      "Ġduring": 645,
      "Ġtotal": 646,
      "Ġcol": 647,
      "rit": 648,
      "Ġperiod": 649,
      "orpor": 650,
      "ould": 651,
      "Ġfirst": 652,
      "Ġthan": 653,
      "ok": 654,
      "Ġone": 655,
      "ational": 656,
      "ares": 657,
      "Ġresp": 658,
      "Ġcould": 659,
      "wn": 660,
      "Ġent": 661,
      "velop": 662,
      "Ġshare": 663,
      "==": 664,
      "ired": 665,
      "Ġeffect": 666,
      "Ġbeen": 667,
      "Ġdep": 668,
      "Ġloss": 669,
      "Ġ$,": 670,
      "ra": 671,
      "Ġhad": 672,
      "rol": 673,
      "Ġaf": 674,
      "Ġended": 675,
      "ee": 676,
      "ĠĊ": 677,
      "ures": 678,
      "Ġbut": 679,
      "iss": 680,
      "Ġquarter": 681,
      "Ġdevelop": 682,
      "Ġterm": 683,
      "Ġdes": 684,
      "Ġcontr": 685,
      "Ġdo": 686,
      "rough": 687,
      "Ġconsolid": 688,
      "cess": 689,
      "Ġshares": 690,
      "Ġmore": 691,
      "Ġfol": 692,
      "str": 693,
      "Ġsign": 694,
      "Ġear": 695,
      "ior": 696,
      "own": 697,
      "Ġgr": 698,
      "hip": 699,
      "Ġcust": 700,
      "Ġincluding": 701,
      "ilities": 702,
      "Ġaccount": 703,
      "inc": 704,
      "ree": 705,
      "gr": 706,
      "Ġnon": 707,
      "Ġcustom": 708,
      "ath": 709,
      "--------": 710,
      "Ġcapital": 711,
      "Ġfollow": 712,
      "Ġ,,": 713,
      "ense": 714,
      "),": 715,
      "Ġtime": 716,
      "Ġrelated": 717,
      "Ġacqu": 718,
      "ank": 719,
      "ibut": 720,
      "io": 721,
      "les": 722,
      "ace": 723,
      "Ġ|": 724,
      "ubl": 725,
      "ident": 726,
      "Ġoperating": 727,
      "Ġconsolidated": 728,
      "Ġinto": 729,
      "Ġ(,": 730,
      "Ġresult": 731,
      "Ġissu": 732,
      "ade": 733,
      "Ġmon": 734,
      "Ġthrough": 735,
      "Ġcertain": 736,
      "Ġcurrent": 737,
      "Ġtw": 738,
      "pr": 739,
      "ise": 740,
      "Ġhigh": 741,
      "Ġadv": 742,
      "Ġbec": 743,
      "Ġregul": 744,
      "Ġstr": 745,
      "ily": 746,
      "Ġsecurities": 747,
      "Ġcontin": 748,
      "Ġcosts": 749,
      "Ġproducts": 750,
      "Ġsc": 751,
      "Ġfair": 752,
      "Ġsales": 753,
      "loy": 754,
      "olog": 755,
      "ately": 756,
      "Ġ.%": 757,
      "ults": 758,
      "eric": 759,
      "Ġann": 760,
      "eth": 761,
      "Ġmanagement": 762,
      "erc": 763,
      "Ġbel": 764,
      "Ġliab": 765,
      "Ġgeneral": 766,
      "Ġsy": 767,
      "nal": 768,
      "Ġplan": 769,
      "Ġpol": 770,
      "urn": 771,
      "Ġdr": 772,
      "Ġcar": 773,
      "oin": 774,
      "Ġbased": 775,
      "con": 776,
      "Ġwould": 777,
      "Ġcoun": 778,
      "ex": 779,
      "Ġfut": 780,
      "Ġrece": 781,
      "Ġcred": 782,
      "Ġu": 783,
      "Ġsupp": 784,
      "Ġservices": 785,
      "Ġret": 786,
      "Ġafter": 787,
      "Ġemp": 788,
      "eld": 789,
      "Ġresults": 790,
      "ey": 791,
      "ible": 792,
      "Ġben": 793,
      "Ġris": 794,
      "ious": 795,
      "Ġcontrol": 796,
      "Ġfuture": 797,
      "Ġbas": 798,
      "ferred": 799,
      "Ġbr": 800,
      "itt": 801,
      "Ġagreement": 802,
      "Ġplay": 803,
      "Ġgu": 804,
      "we": 805,
      "Ġrecord": 806,
      "Ġoffic": 807,
      "orn": 808,
      "ile": 809,
      "Ġthey": 810,
      "ite": 811,
      "Ġsch": 812,
      "Ġrate": 813,
      "ences": 814,
      "Ġdef": 815,
      "ake": 816,
      "Ġinst": 817,
      "Ġ||": 818,
      "Ġshe": 819,
      "aterial": 820,
      "Ġdet": 821,
      "ants": 822,
      "tr": 823,
      "Ġrem": 824,
      "Ġexpect": 825,
      "Ġdue": 826,
      "Ġestim": 827,
      "Ġopt": 828,
      "Ġwell": 829,
      "Ġdiv": 830,
      "ounts": 831,
      "Ġph": 832,
      "ively": 833,
      "Ġperform": 834,
      "arg": 835,
      "Ġmaterial": 836,
      "Ġcredit": 837,
      "ason": 838,
      "Ġinform": 839,
      "ection": 840,
      "Ġnum": 841,
      "ues": 842,
      "Ġwhen": 843,
      "Ġdeb": 844,
      "itions": 845,
      "ix": 846,
      "Ġpurch": 847,
      ").": 848,
      "Ġsignific": 849,
      "Ġdistr": 850,
      "Ġpubl": 851,
      "Ġfr": 852,
      "aus": 853,
      "Ġemploy": 854,
      "Ġcontract": 855,
      "Ġown": 856,
      "amp": 857,
      "Ġfac": 858,
      "Ġsignificant": 859,
      "Ġtwo": 860,
      "Ġinformation": 861,
      "ision": 862,
      "Ġbet": 863,
      "Ġrespect": 864,
      "erg": 865,
      "land": 866,
      "Ġrevenue": 867,
      "Ġprovid": 868,
      "Ġwho": 869,
      "Ġproper": 870,
      "Ġnor": 871,
      "Ġcompl": 872,
      "ecut": 873,
      "Ġadditional": 874,
      "cent": 875,
      "Ġchang": 876,
      "Ġbenef": 877,
      "Ġspec": 878,
      "gin": 879,
      "Ġabout": 880,
      "aid": 881,
      "Ġav": 882,
      "ved": 883,
      "xim": 884,
      "Ġloc": 885,
      "ress": 886,
      "Ġmin": 887,
      "Ġ:": 888,
      "ep": 889,
      "Ġaccounting": 890,
      "Ġwork": 891,
      "Ġprim": 892,
      "ics": 893,
      "Ġsome": 894,
      "ases": 895,
      "Ġmat": 896,
      "chn": 897,
      "Ġreal": 898,
      "Ġport": 899,
      "ogn": 900,
      "Ġdis": 901,
      "Ġprice": 902,
      "Ġapproxim": 903,
      "ferences": 904,
      "Ġeach": 905,
      "ons": 906,
      "Ġlong": 907,
      "enses": 908,
      "Ġactiv": 909,
      "Ġitem": 910,
      "oci": 911,
      "Ġwar": 912,
      "Ġincrease": 913,
      "ild": 914,
      "iscal": 915,
      "Ġamount": 916,
      "lish": 917,
      "Ġnotes": 918,
      "gan": 919,
      "ined": 920,
      "Ġfiscal": 921,
      "Ġequity": 922,
      "Ġred": 923,
      "Ġher": 924,
      "verage": 925,
      "Ġpe": 926,
      "Ġstates": 927,
      "Ġfollowing": 928,
      "ld": 929,
      "vern": 930,
      "olders": 931,
      "ower": 932,
      "Ġrequire": 933,
      "Ġtechn": 934,
      "Ġreceiv": 935,
      "Ġbal": 936,
      "Ġbu": 937,
      "Ġcorpor": 938,
      "Ġameric": 939,
      "ization": 940,
      "ost": 941,
      "Ġexecut": 942,
      "Ġmain": 943,
      "ss": 944,
      "ft": 945,
      "stem": 946,
      "Ġob": 947,
      "Ġvar": 948,
      "__": 949,
      "Ġnumber": 950,
      "pe": 951,
      "ared": 952,
      "Ġdel": 953,
      "ke": 954,
      "Ġdif": 955,
      "Ġapproximately": 956,
      "Ġjun": 957,
      "ound": 958,
      "Ġbank": 959,
      "Ġdevelopment": 960,
      "anding": 961,
      "one": 962,
      "ett": 963,
      "âĢĻ": 964,
      "Ġcompens": 965,
      "Ġunited": 966,
      "Ġmed": 967,
      "ric": 968,
      "lic": 969,
      "Ġexpense": 970,
      "ified": 971,
      "Ġsubject": 972,
      "Ġsystem": 973,
      "Ġgovern": 974,
      "Ġrecogn": 975,
      "Ġhow": 976,
      "Ġcompet": 977,
      "Ġcent": 978,
      "Ġfund": 979,
      "Ġelect": 980,
      "Ġlaw": 981,
      "Ġsubs": 982,
      "Ġlim": 983,
      "Ġused": 984,
      "Ġgrow": 985,
      "ween": 986,
      "Ġsee": 987,
      "Ġpar": 988,
      "ery": 989,
      "Ġexpenses": 990,
      "Ġfo": 991,
      "Ġstate": 992,
      "ird": 993,
      "Ġpat": 994,
      "Ġthose": 995,
      "Ġgre": 996,
      "Ġimpact": 997,
      "Ġjan": 998,
      "Ġbetween": 999,
      "Ġcompensation": 1000,
      "ind": 1001,
      "Ġchanges": 1002,
      "icip": 1003,
      "Ġins": 1004,
      "ivers": 1005,
      "Ġliabilities": 1006,
      "ople": 1007,
      "Ġtable": 1008,
      "cr": 1009,
      "ys": 1010,
      "Ġdebt": 1011,
      "........": 1012,
      "gram": 1013,
      "Ġeng": 1014,
      "cept": 1015,
      "man": 1016,
      "Ġflow": 1017,
      "Ġprof": 1018,
      "Ġearn": 1019,
      "Ġkn": 1020,
      "Ġloans": 1021,
      "Ġfore": 1022,
      "member": 1023,
      "ered": 1024,
      "Ġdate": 1025,
      "ional": 1026,
      "Ġmarch": 1027,
      "ause": 1028,
      "Ġcustomers": 1029,
      "urance": 1030,
      "Ġacquis": 1031,
      "uary": 1032,
      "ata": 1033,
      "ference": 1034,
      "Ġprogram": 1035,
      "Ġpublic": 1036,
      "Ġannual": 1037,
      "ork": 1038,
      "incip": 1039,
      "Ġel": 1040,
      "Ġgood": 1041,
      "Ġ*": 1042,
      "Ġexch": 1043,
      "ives": 1044,
      "fore": 1045,
      "references": 1046,
      "Ġrequired": 1047,
      "Ġloan": 1048,
      "ays": 1049,
      "Ġagain": 1050,
      "Ġfact": 1051,
      "Ġrisk": 1052,
      "Ġbro": 1053,
      "Ġpos": 1054,
      "ning": 1055,
      "Ġservice": 1056,
      "arily": 1057,
      "Ġwhere": 1058,
      "Ġjanuary": 1059,
      "ool": 1060,
      "Ġsecond": 1061,
      "Ġreporting": 1062,
      "Ġclass": 1063,
      "Ġassoci": 1064,
      "Ġinvestment": 1065,
      "cc": 1066,
      "Ġjune": 1067,
      "standing": 1068,
      "Ġthree": 1069,
      "Ġext": 1070,
      "Ġavail": 1071,
      "Ġmod": 1072,
      "iew": 1073,
      "idi": 1074,
      "ially": 1075,
      "Ġprincip": 1076,
      "als": 1077,
      "Ġed": 1078,
      "uss": 1079,
      "Ġboard": 1080,
      "ted": 1081,
      "Ġpers": 1082,
      "ink": 1083,
      "ier": 1084,
      "ances": 1085,
      "ology": 1086,
      "pl": 1087,
      "Ġaward": 1088,
      "Ġbasis": 1089,
      "af": 1090,
      "Ġmade": 1091,
      "Ġexchange": 1092,
      "Ġthird": 1093,
      "Ġfl": 1094,
      "Ġdeterm": 1095,
      "Ġop": 1096,
      "Ġallow": 1097,
      "Ġincluded": 1098,
      "Ġref": 1099,
      "Ġlevel": 1100,
      "Ġuse": 1101,
      "Ġhist": 1102,
      "Ġgroup": 1103,
      "ines": 1104,
      "ceed": 1105,
      "ced": 1106,
      "ub": 1107,
      "Ġaffect": 1108,
      "Ġtransact": 1109,
      "holders": 1110,
      "ient": 1111,
      "com": 1112,
      "over": 1113,
      "Ġma": 1114,
      "ued": 1115,
      "Ġsubsidi": 1116,
      "ptember": 1117,
      "ph": 1118,
      "Ġfour": 1119,
      "ths": 1120,
      "ury": 1121,
      "Ġdirectors": 1122,
      "Ġexecutive": 1123,
      "ince": 1124,
      "ees": 1125,
      "ination": 1126,
      "ale": 1127,
      "Ġissued": 1128,
      "Ġbelie": 1129,
      "Ġsou": 1130,
      "Ġbl": 1131,
      "pos": 1132,
      "te": 1133,
      "Ġrestr": 1134,
      "Ġapplic": 1135,
      "Ġfed": 1136,
      "Ġseptember": 1137,
      "Ġindust": 1138,
      "Ġobl": 1139,
      "ga": 1140,
      "ended": 1141,
      "ife": 1142,
      "uth": 1143,
      "ball": 1144,
      "Ġmost": 1145,
      "ten": 1146,
      "ton": 1147,
      "min": 1148,
      "ablish": 1149,
      "just": 1150,
      "Ġchar": 1151,
      "Ġupon": 1152,
      "Ġstand": 1153,
      "====": 1154,
      "Ġinclude": 1155,
      "Ġthen": 1156,
      "Ġactivities": 1157,
      "ties": 1158,
      "Ġbalance": 1159,
      "Ġdistribut": 1160,
      "cl": 1161,
      "Ġdesign": 1162,
      "ize": 1163,
      "Ġperformance": 1164,
      "Ġnote": 1165,
      "ured": 1166,
      "Ġconsid": 1167,
      "hib": 1168,
      "Ġoutstanding": 1169,
      "Ġoblig": 1170,
      "ability": 1171,
      "Ġz": 1172,
      "Ġfilm": 1173,
      "ving": 1174,
      "Ġintern": 1175,
      "fact": 1176,
      "Ġprimarily": 1177,
      "Ġprior": 1178,
      "Ġdata": 1179,
      "ne": 1180,
      "Ġadvers": 1181,
      "Ġcal": 1182,
      "ically": 1183,
      "Ġonly": 1184,
      "ateg": 1185,
      "ands": 1186,
      "Ġstud": 1187,
      "Ġpurchase": 1188,
      "Ġvol": 1189,
      "Ġincreased": 1190,
      "ership": 1191,
      "ission": 1192,
      "ief": 1193,
      "Ġavailable": 1194,
      "ral": 1195,
      "Ġgrowth": 1196,
      "row": 1197,
      "ists": 1198,
      "Ġnational": 1199,
      "Ġestablish": 1200,
      "ural": 1201,
      "ah": 1202,
      "Ġremain": 1203,
      "Ġpeople": 1204,
      "Ġproperty": 1205,
      "ough": 1206,
      "Ġchange": 1207,
      "Ġjo": 1208,
      "Ġcomplet": 1209,
      "lement": 1210,
      "erv": 1211,
      "Ġaud": 1212,
      "Ġfederal": 1213,
      "Ġrates": 1214,
      "Ġpartn": 1215,
      "Ġboth": 1216,
      "Ġworld": 1217,
      "Ġrevenues": 1218,
      "ick": 1219,
      "Ġofficer": 1220,
      "Ġleg": 1221,
      "Ġadjust": 1222,
      "Ġ'": 1223,
      "aim": 1224,
      "aries": 1225,
      "Ġdem": 1226,
      "aph": 1227,
      "Ġrecorded": 1228,
      "atory": 1229,
      "Ġatt": 1230,
      "ii": 1231,
      "Ġprocess": 1232,
      "tern": 1233,
      "Ġprev": 1234,
      "ights": 1235,
      "Ġlosses": 1236,
      "alth": 1237,
      "Ġprovide": 1238,
      "Ġteam": 1239,
      "Ġunivers": 1240,
      "Ġmus": 1241,
      "led": 1242,
      "Ġsm": 1243,
      "ful": 1244,
      "ov": 1245,
      "ces": 1246,
      "Ġregistr": 1247,
      "sp": 1248,
      "Ġpresent": 1249,
      "Ġrepres": 1250,
      "Ġdeferred": 1251,
      "Ġaccord": 1252,
      "Ġjust": 1253,
      "Ġwithin": 1254,
      "Ġtre": 1255,
      "Ġsim": 1256,
      "oint": 1257,
      "ular": 1258,
      "Ġschool": 1259,
      "Ġinternal": 1260,
      "Ġproject": 1261,
      "Ġcall": 1262,
      "Ġability": 1263,
      "uly": 1264,
      "Ġcommerc": 1265,
      "Ġdecre": 1266,
      "Ġaverage": 1267,
      "bru": 1268,
      "Ġwhile": 1269,
      "term": 1270,
      "Ġ&": 1271,
      "Ġrespectively": 1272,
      "Ġqual": 1273,
      "Ġmanu": 1274,
      "ames": 1275,
      "Ġseg": 1276,
      "Ġcompan": 1277,
      "Ġearnings": 1278,
      "uthor": 1279,
      "Ġexper": 1280,
      "Ġgrant": 1281,
      "earch": 1282,
      "Ġrele": 1283,
      "Ġamerican": 1284,
      "Ġ/": 1285,
      "Ġful": 1286,
      "bruary": 1287,
      "Ġmeas": 1288,
      "itut": 1289,
      "ield": 1290,
      "Ġmanufact": 1291,
      "sh": 1292,
      "Ġfiled": 1293,
      "Ġoptions": 1294,
      "Ġinf": 1295,
      "los": 1296,
      "ĊĊ": 1297,
      "Ġterms": 1298,
      "ober": 1299,
      "Ġcontinue": 1300,
      "rec": 1301,
      "Ġcompanies": 1302,
      "ever": 1303,
      "uation": 1304,
      "ert": 1305,
      "Ġoct": 1306,
      "Ġexpected": 1307,
      "gaap": 1308,
      "Ġnov": 1309,
      "Ġamounts": 1310,
      "Ġbeing": 1311,
      "ergy": 1312,
      "Ġcommun": 1313,
      "Ġfebruary": 1314,
      "Ġoffer": 1315,
      "iven": 1316,
      "ards": 1317,
      "ret": 1318,
      "ins": 1319,
      "Ġgovernment": 1320,
      "Ġagainst": 1321,
      "Ġinit": 1322,
      "Ġbefore": 1323,
      "ends": 1324,
      "ina": 1325,
      "inal": 1326,
      "Ġcommercial": 1327,
      "Ġeffective": 1328,
      "Ġsuc": 1329,
      "Ġcour": 1330,
      "Ġreturn": 1331,
      "Ġdivid": 1332,
      "Ġseries": 1333,
      "Ġless": 1334,
      "Ġocc": 1335,
      "isting": 1336,
      "Ġacquisition": 1337,
      "Ġclaim": 1338,
      "Ġbecause": 1339,
      "emb": 1340,
      "Ġoctober": 1341,
      "Ġsen": 1342,
      "Ġpolic": 1343,
      "Ġnat": 1344,
      "orporated": 1345,
      "Ġthem": 1346,
      "ev": 1347,
      "Ġsing": 1348,
      "Ġinvestments": 1349,
      "Ġassum": 1350,
      "Ġsupport": 1351,
      "ether": 1352,
      "Ġstatement": 1353,
      "Ġfoot": 1354,
      "Ġheld": 1355,
      "arm": 1356,
      "Ġgenerally": 1357,
      "Ġtrad": 1358,
      "Ġasset": 1359,
      "Ġinternational": 1360,
      "Ġapr": 1361,
      "Ġlead": 1362,
      "Ġart": 1363,
      "Ġauthor": 1364,
      "Ġrequirements": 1365,
      "Ġcompared": 1366,
      "Ġprincipal": 1367,
      "ator": 1368,
      "Ġsever": 1369,
      "ister": 1370,
      "Ġpot": 1371,
      "Ġaug": 1372,
      "way": 1373,
      ".,": 1374,
      "Ġsale": 1375,
      "Ġwhat": 1376,
      "mar": 1377,
      "Ġapril": 1378,
      "line": 1379,
      "Ġback": 1380,
      "Ġwrit": 1381,
      "ont": 1382,
      "Ġmake": 1383,
      "Ġtaxes": 1384,
      "round": 1385,
      "Ġmany": 1386,
      "reg": 1387,
      "Ġant": 1388,
      "Ġder": 1389,
      "based": 1390,
      "Ġbor": 1391,
      "Ġjuly": 1392,
      "Ġforeign": 1393,
      "Ġty": 1394,
      "Ġecon": 1395,
      "urch": 1396,
      "Ġeconom": 1397,
      "uro": 1398,
      "Ġair": 1399,
      "Ġreference": 1400,
      "Ġcre": 1401,
      "iron": 1402,
      "Ġthink": 1403,
      "Ġuniversity": 1404,
      "Ġcond": 1405,
      "Ġgain": 1406,
      "Ġexhib": 1407,
      "Ġlife": 1408,
      "ri": 1409,
      "Ġpursu": 1410,
      "ipment": 1411,
      "Ġfacility": 1412,
      "Ġpresident": 1413,
      "Ġnorth": 1414,
      "Ġseason": 1415,
      "Ġorgan": 1416,
      "Ġrestrict": 1417,
      "Ġaugust": 1418,
      "val": 1419,
      "Ġperson": 1420,
      "Ġimpro": 1421,
      "Ġsum": 1422,
      "Ġlease": 1423,
      "Ġ$,,": 1424,
      "bs": 1425,
      "Ġresearch": 1426,
      "Ġhold": 1427,
      "Ġimpair": 1428,
      "Ġgas": 1429,
      "raph": 1430,
      "hn": 1431,
      "Ġchief": 1432,
      "Ġsuccess": 1433,
      "Ġ(.": 1434,
      "ium": 1435,
      "Ġsell": 1436,
      "Ġhealth": 1437,
      "iation": 1438,
      "Ġsince": 1439,
      "Ġcustomer": 1440,
      "Ġfactors": 1441,
      "Ġcompanys": 1442,
      "ential": 1443,
      "urther": 1444,
      "port": 1445,
      "ety": 1446,
      "da": 1447,
      "Ġcomb": 1448,
      "ages": 1449,
      "Ġcorporation": 1450,
      "Ġdisclos": 1451,
      "ience": 1452,
      "he": 1453,
      "Ġnovember": 1454,
      "Ġlin": 1455,
      "ternal": 1456,
      "ouse": 1457,
      "Ġnow": 1458,
      "struct": 1459,
      "Ġhowever": 1460,
      "jor": 1461,
      "Ġrecognized": 1462,
      "Ġbuild": 1463,
      "Ġcontents": 1464,
      "Ġconn": 1465,
      "itive": 1466,
      "Ġge": 1467,
      "Ġsubst": 1468,
      "Ġemployees": 1469,
      "Ġamort": 1470,
      "ival": 1471,
      "ffic": 1472,
      "Ġsol": 1473,
      "Ġsw": 1474,
      "xt": 1475,
      "Ġorig": 1476,
      "endent": 1477,
      "Ġrights": 1478,
      "Ġinsurance": 1479,
      "Ġflows": 1480,
      "Ġline": 1481,
      "Ġequipment": 1482,
      "Ġcommitt": 1483,
      "Ġproceed": 1484,
      "Ġadmin": 1485,
      "ensive": 1486,
      "iver": 1487,
      "Ġlic": 1488,
      "vert": 1489,
      "ik": 1490,
      "Ġmarkets": 1491,
      "Ġsubsidiaries": 1492,
      "Ġsouth": 1493,
      "duc": 1494,
      "Ġreason": 1495,
      "Ġfound": 1496,
      "ars": 1497,
      "Ġestimated": 1498,
      "Ġaccounts": 1499,
      "Ġsur": 1500,
      "ann": 1501,
      "Ġpaid": 1502,
      "ources": 1503,
      "ised": 1504,
      "Ġexerc": 1505,
      "Ġorder": 1506,
      "ograph": 1507,
      "de": 1508,
      "til": 1509,
      "Ġlast": 1510,
      "Ġrepresent": 1511,
      "Ġcity": 1512,
      "Ġadd": 1513,
      "eng": 1514,
      "az": 1515,
      "Ġgener": 1516,
      "Ġusing": 1517,
      "Ġprot": 1518,
      "Ġdirector": 1519,
      "Ġmet": 1520,
      "Ġpercent": 1521,
      "Ġdescr": 1522,
      "Ġcare": 1523,
      "not": 1524,
      "----------------": 1525,
      "Ġdiffer": 1526,
      "Ġpayments": 1527,
      "Ġsame": 1528,
      "ern": 1529,
      "Ġhistor": 1530,
      "Ġcarry": 1531,
      "vers": 1532,
      "Ġenv": 1533,
      "Ġpursuant": 1534,
      "par": 1535,
      "ley": 1536,
      "Ġfurther": 1537,
      "Ġmajor": 1538,
      "ood": 1539,
      "Ġbelieve": 1540,
      "Ġmeth": 1541,
      "enn": 1542,
      "Ġtechnology": 1543,
      "Ġbenefit": 1544,
      "Ġeval": 1545,
      "Ġvarious": 1546,
      "Ġindic": 1547,
      "cy": 1548,
      "els": 1549,
      "Ġpower": 1550,
      "Ġopp": 1551,
      "Ġuntil": 1552,
      "Ġmaintain": 1553,
      "Ġfam": 1554,
      "Ġreceived": 1555,
      "Ġcondition": 1556,
      "ling": 1557,
      "Ġdown": 1558,
      "Ġparty": 1559,
      "Ġneed": 1560,
      "Ġobligations": 1561,
      "Ġenviron": 1562,
      "Ġstrateg": 1563,
      "Ġplans": 1564,
      "Ġagreements": 1565,
      "Ġimpairment": 1566,
      "Ġindustry": 1567,
      "Ġmr": 1568,
      "ification": 1569,
      "fol": 1570,
      "ending": 1571,
      "Ġregulatory": 1572,
      "Ġconditions": 1573,
      "Ġmeet": 1574,
      "by": 1575,
      "Ġmethod": 1576,
      "Ġconc": 1577,
      "Ġforward": 1578,
      "Ġren": 1579,
      "Ġproduction": 1580,
      "Ġassociated": 1581,
      "Ġopen": 1582,
      "Ġ(\"": 1583,
      "Ġadministr": 1584,
      "Ġarr": 1585,
      "Ġsenior": 1586,
      "Ġdiscuss": 1587,
      "emp": 1588,
      "Âł": 1589,
      "Ġprovided": 1590,
      "Ġsection": 1591,
      "Ġtest": 1592,
      "ify": 1593,
      "Ġliability": 1594,
      "iving": 1595,
      "ency": 1596,
      "Ġeuro": 1597,
      "Ġanal": 1598,
      "Ġwarr": 1599,
      "Ġla": 1600,
      "Ġindep": 1601,
      "aking": 1602,
      "Ġbegin": 1603,
      "Ġfootball": 1604,
      "Ġreview": 1605,
      "Ġposition": 1606,
      "Ġfees": 1607,
      "ather": 1608,
      "Ġlater": 1609,
      "ven": 1610,
      "Ġut": 1611,
      "Ġhim": 1612,
      "Ġenvironment": 1613,
      "Ġshort": 1614,
      "Ġlimited": 1615,
      "Ġtel": 1616,
      "oll": 1617,
      "Ġplayers": 1618,
      "to": 1619,
      "____": 1620,
      "Ġrest": 1621,
      "Ġcr": 1622,
      "Ġtransactions": 1623,
      "Ġderiv": 1624,
      "Ġcontracts": 1625,
      "Ġsett": 1626,
      "Ġenergy": 1627,
      "Ġamong": 1628,
      "other": 1629,
      "Ġcoll": 1630,
      "bo": 1631,
      "ĠâĢ": 1632,
      "ili": 1633,
      "Ġcurrently": 1634,
      "quent": 1635,
      "Ġattr": 1636,
      "tion": 1637,
      "Ġinstru": 1638,
      "Ġconsum": 1639,
      "Ġunits": 1640,
      "Ġlower": 1641,
      "Ġtrust": 1642,
      "orts": 1643,
      "ished": 1644,
      "ulated": 1645,
      "Ġinstitut": 1646,
      "Ġadop": 1647,
      "ware": 1648,
      "Ġborrow": 1649,
      "Ġlinks": 1650,
      ".\"": 1651,
      "Ġident": 1652,
      "Ġthous": 1653,
      "Ġregard": 1654,
      "Ġclos": 1655,
      "Ġalb": 1656,
      "Ġsegment": 1657,
      "Ġoption": 1658,
      "ually": 1659,
      "Ġpop": 1660,
      "Ġbar": 1661,
      "Ġestimates": 1662,
      "bal": 1663,
      "Ġincur": 1664,
      "Ġhigher": 1665,
      "Ġobtain": 1666,
      "Ġquest": 1667,
      "ross": 1668,
      "Ġsold": 1669,
      "Ġdid": 1670,
      "Ġreflect": 1671,
      "year": 1672,
      "Ġmonths": 1673,
      "Ġlocal": 1674,
      "Ġregulations": 1675,
      "Ġsystems": 1676,
      "Ġcontain": 1677,
      "Ġvery": 1678,
      "uch": 1679,
      "Ġstockholders": 1680,
      "isions": 1681,
      "external": 1682,
      "Ġmargin": 1683,
      "Ġsel": 1684,
      "Ġincludes": 1685,
      "Ġseveral": 1686,
      "br": 1687,
      "Ġnext": 1688,
      "Ġparticip": 1689,
      "Ġknown": 1690,
      "Ġ(âĢĵ": 1691,
      "Ġcounty": 1692,
      "Ġhere": 1693,
      "Ġlike": 1694,
      "Ġpotential": 1695,
      "Ġright": 1696,
      "Ġrelations": 1697,
      "Ġstart": 1698,
      "',": 1699,
      "will": 1700,
      "Ġsubstant": 1701,
      "loss": 1702,
      "Ġdepos": 1703,
      "Ġcollect": 1704,
      "Ġaff": 1705,
      "Ġexhibit": 1706,
      "arge": 1707,
      "sent": 1708,
      "ring": 1709,
      "Ġpost": 1710,
      "Ġlaws": 1711,
      "wh": 1712,
      "work": 1713,
      "Ġevent": 1714,
      "Ġportfol": 1715,
      "Ġjohn": 1716,
      "Ġreported": 1717,
      "Ġbelow": 1718,
      "ule": 1719,
      "Ġprices": 1720,
      "Ġcorporate": 1721,
      "ilar": 1722,
      "Ġacquired": 1723,
      "ves": 1724,
      "uce": 1725,
      "Ġregistrant": 1726,
      "Ġmil": 1727,
      "'re": 1728,
      "Ġarea": 1729,
      "ness": 1730,
      "ron": 1731,
      "Ġbenefits": 1732,
      "Ġcommittee": 1733,
      "Ġfail": 1734,
      "Ġprevious": 1735,
      "Ġyork": 1736,
      "li": 1737,
      "Ġmort": 1738,
      "ove": 1739,
      "Ġfacilities": 1740,
      "Ġprom": 1741,
      "Ġever": 1742,
      "Ġrisks": 1743,
      "go": 1744,
      "Ġfinal": 1745,
      "Ġwin": 1746,
      "Ġassess": 1747,
      "Ġll": 1748,
      "ptions": 1749,
      "Ġclaims": 1750,
      "ention": 1751,
      "Ġvari": 1752,
      "Ġdated": 1753,
      "Ġdoes": 1754,
      "Ġshow": 1755,
      "Ġincorporated": 1756,
      "\")": 1757,
      "Ġmid": 1758,
      "Ġcrit": 1759,
      "Ġcommission": 1760,
      "Ġgross": 1761,
      "Ġlist": 1762,
      "Ġset": 1763,
      "Ġpreferred": 1764,
      "Ġperiods": 1765,
      "Ġaudit": 1766,
      "Ġfinancing": 1767,
      "Ġgoing": 1768,
      "Ġhel": 1769,
      "Ġconf": 1770,
      "day": 1771,
      "Ġexisting": 1772,
      "co": 1773,
      "Ġdescrib": 1774,
      "oper": 1775,
      "ters": 1776,
      "inated": 1777,
      "ism": 1778,
      "Ġdistrict": 1779,
      "Ġday": 1780,
      "abor": 1781,
      "Ġcontribut": 1782,
      "quid": 1783,
      "Ġsmall": 1784,
      "Ġpayment": 1785,
      "Ġconsider": 1786,
      "Ġfull": 1787,
      "sentence": 1788,
      "Ġyour": 1789,
      "Ġsimilar": 1790,
      "Ġneg": 1791,
      "Ġestablished": 1792,
      "Ġeurope": 1793,
      "Ġx": 1794,
      "ague": 1795,
      "Ġpriv": 1796,
      "Ġawards": 1797,
      "Ġinvent": 1798,
      "Ġeconomic": 1799,
      "Ġconstruct": 1800,
      "Ġname": 1801,
      "Ġguid": 1802,
      "Ġmemb": 1803,
      "iance": 1804,
      "Ġproperties": 1805,
      "ulation": 1806,
      "Ġofficers": 1807,
      "med": 1808,
      "Ġinvol": 1809,
      "ients": 1810,
      "Ġindependent": 1811,
      "Ġfive": 1812,
      "Ġhome": 1813,
      "ner": 1814,
      "Ġportfolio": 1815,
      "greg": 1816,
      "Ġbir": 1817,
      "oking": 1818,
      "Ġevents": 1819,
      "Ġunc": 1820,
      "Ġthousands": 1821,
      "Ġable": 1822,
      "ension": 1823,
      "Ġaust": 1824,
      "Ġbecame": 1825,
      "irc": 1826,
      "Ġsecurity": 1827,
      "Ġearly": 1828,
      "Ġhead": 1829,
      "Ġnatural": 1830,
      "bur": 1831,
      "Ġmarketing": 1832,
      "alf": 1833,
      "Ġestate": 1834,
      "Ġclin": 1835,
      "Ġcor": 1836,
      "ps": 1837,
      "\".": 1838,
      "Ġwhether": 1839,
      "ires": 1840,
      "ll": 1841,
      "Ġliquid": 1842,
      "Ġoil": 1843,
      "ixed": 1844,
      "Ġwom": 1845,
      "Ġcharg": 1846,
      "cont": 1847,
      "amed": 1848,
      "Ġprofess": 1849,
      "Ġfunds": 1850,
      "pro": 1851,
      "Ġmult": 1852,
      "Ġalbum": 1853,
      "ules": 1854,
      "part": 1855,
      "unct": 1856,
      "ising": 1857,
      "Ġproduc": 1858,
      "ortun": 1859,
      "Ġmusic": 1860,
      "Ġdecrease": 1861,
      "Ġstandards": 1862,
      "ime": 1863,
      "Ġes": 1864,
      "put": 1865,
      "Ġprofit": 1866,
      "Ġhouse": 1867,
      "Ġbase": 1868,
      "Ġland": 1869,
      "Ġcanad": 1870,
      "ivid": 1871,
      "lex": 1872,
      "\",": 1873,
      "Ġbre": 1874,
      "Ġmortg": 1875,
      "att": 1876,
      "Ġglo": 1877,
      "ected": 1878,
      "Ġlarge": 1879,
      "Ġexc": 1880,
      "Ġcirc": 1881,
      "Ġapplicable": 1882,
      "Ġinstruments": 1883,
      "Ġdistribution": 1884,
      "iate": 1885,
      "Ġlocated": 1886,
      "Ġconsist": 1887,
      "Ġabove": 1888,
      "Ġshould": 1889,
      "Ġadversely": 1890,
      "Ġsumm": 1891,
      "Ġchamp": 1892,
      "iam": 1893,
      "reh": 1894,
      "Ġconduct": 1895,
      "Ġformer": 1896,
      "ocus": 1897,
      "Ġadverse": 1898,
      "Ġwest": 1899,
      "anch": 1900,
      "Ġopportun": 1901,
      "atives": 1902,
      "be": 1903,
      "imum": 1904,
      "Ġfourth": 1905,
      "Ġpolit": 1906,
      "inued": 1907,
      "................": 1908,
      "Ġrecover": 1909,
      "ai": 1910,
      "Ġbest": 1911,
      "Ġoriginal": 1912,
      "Ġallowance": 1913,
      "Ġamortization": 1914,
      "Ġprem": 1915,
      "Ġfamily": 1916,
      "Ġlarg": 1917,
      "Ġarm": 1918,
      "Ġweight": 1919,
      "Ġspecial": 1920,
      "thern": 1921,
      "Ġlimit": 1922,
      "Ġarrang": 1923,
      "Ġaccordance": 1924,
      "Ġdividends": 1925,
      "Ġgoodwill": 1926,
      "Ġplac": 1927,
      "ket": 1928,
      ".',": 1929,
      "Ġplace": 1930,
      "Ġdifferent": 1931,
      "Ġdil": 1932,
      "ane": 1933,
      "Ġsong": 1934,
      "Ġproced": 1935,
      "yal": 1936,
      "Ġportion": 1937,
      "Ġlegal": 1938,
      "Ġcourt": 1939,
      "Ġpartic": 1940,
      "ably": 1941,
      "Ġconnection": 1942,
      "Ġdemand": 1943,
      "Ġsl": 1944,
      "ecess": 1945,
      "rehensive": 1946,
      "Ġfocus": 1947,
      "Ġbeginning": 1948,
      "Ġrun": 1949,
      "Ġaggreg": 1950,
      "hips": 1951,
      "Ġunit": 1952,
      "Ġoccur": 1953,
      "Ġdetermined": 1954,
      "older": 1955,
      "Ġpolicies": 1956,
      "Ġlit": 1957,
      "Ġevalu": 1958,
      "Ġtyp": 1959,
      "Ġindivid": 1960,
      "ott": 1961,
      "Ġdescribed": 1962,
      "Ġvolum": 1963,
      "Ġjud": 1964,
      "aff": 1965,
      "Ġleague": 1966,
      "son": 1967,
      "Ġkey": 1968,
      "Ġregarding": 1969,
      "Ġdeath": 1970,
      "Ġmember": 1971,
      "Ġsoft": 1972,
      "Ġamended": 1973,
      "egr": 1974,
      "icing": 1975,
      "Ġrestricted": 1976,
      "Ġdays": 1977,
      "Ġtit": 1978,
      "see": 1979,
      "Ġcomprehensive": 1980,
      "Ġintang": 1981,
      "her": 1982,
      "Ġach": 1983,
      "Ġcompon": 1984,
      "of": 1985,
      "ution": 1986,
      "asing": 1987,
      "Ġposs": 1988,
      "Ġpayable": 1989,
      "ption": 1990,
      "ived": 1991,
      "Ġii": 1992,
      "Ġamend": 1993,
      "Ġmembers": 1994,
      "Ġaccept": 1995,
      "Ġcarrying": 1996,
      "ians": 1997,
      "Ġglobal": 1998,
      "Ġtake": 1999,
      "Ġentered": 2000,
      "Ġturn": 2001,
      "Ġoffice": 2002,
      "Ġexcept": 2003,
      "Ġhar": 2004,
      "Ġfeat": 2005,
      "rel": 2006,
      "Ġrecent": 2007,
      "Ġmortgage": 2008,
      "Ġclinical": 2009,
      "Ġprovides": 2010,
      "Ġmeasure": 2011,
      "less": 2012,
      "Ġtop": 2013,
      "Ġparticular": 2014,
      "Ġclub": 2015,
      "Ġequival": 2016,
      "Ġbrit": 2017,
      "Ġrat": 2018,
      "uted": 2019,
      "Ġquestion": 2020,
      "Ġcle": 2021,
      "alk": 2022,
      "encies": 2023,
      "Ġexperience": 2024,
      "Ġresources": 2025,
      "Ġrespons": 2026,
      "Ġgreat": 2027,
      "Ġgerm": 2028,
      "Ġregister": 2029,
      "Ġserved": 2030,
      "Ġq": 2031,
      "Ġllc": 2032,
      "Ġoffs": 2033,
      "born": 2034,
      "Ġstre": 2035,
      "Ġassumptions": 2036,
      "ables": 2037,
      "Ġbroad": 2038,
      "Ġbillion": 2039,
      "iet": 2040,
      "yn": 2041,
      "Ġking": 2042,
      "Ġgranted": 2043,
      "Ġste": 2044,
      "Ġsaf": 2045,
      "Ġintegr": 2046,
      "acy": 2047,
      "ck": 2048,
      "Ġpa": 2049,
      "Ġwithout": 2050,
      "Ġnear": 2051,
      "¿½": 2052,
      "ï¿½": 2053,
      "Ġknow": 2054,
      "Ġcover": 2055,
      "Ġshareholders": 2056,
      "sequent": 2057,
      "duction": 2058,
      "Ġpract": 2059,
      "Ġachie": 2060,
      "Ġissuance": 2061,
      "ories": 2062,
      "Ġtown": 2063,
      "Ġwon": 2064,
      "Ġsingle": 2065,
      "Ġstrong": 2066,
      "gress": 2067,
      "Ġcolle": 2068,
      "Ġtransaction": 2069,
      "Ġdefined": 2070,
      "Ġadministrative": 2071,
      "Ġvaluation": 2072,
      "Ġaccru": 2073,
      "Ġeven": 2074,
      "Ġhed": 2075,
      "Ġwater": 2076,
      "Ġexercise": 2077,
      "ave": 2078,
      "Ġpass": 2079,
      "Ġmanufacturing": 2080,
      "Ġprocedures": 2081,
      "Ġcompleted": 2082,
      "Ġdev": 2083,
      "Ġconstruction": 2084,
      "Ġproceeds": 2085,
      "Ġvers": 2086,
      "Ġuncertain": 2087,
      "Ġtarg": 2088,
      "Ġaccording": 2089,
      "Ġcontinued": 2090,
      "Ġengine": 2091,
      "though": 2092,
      "Ġamerica": 2093,
      "Ġaut": 2094,
      "Ġfixed": 2095,
      "Ġsched": 2096,
      "Ġaggregate": 2097,
      "Ġaccess": 2098,
      "bert": 2099,
      "Ġparties": 2100,
      "Ġanalys": 2101,
      "side": 2102,
      "ither": 2103,
      "Ġwomen": 2104,
      "Ġfollows": 2105,
      "|-": 2106,
      "Ġindividual": 2107,
      "Ġcontrols": 2108,
      "Ġevery": 2109,
      "Ġvot": 2110,
      "Ġreduc": 2111,
      "igation": 2112,
      "Ġsk": 2113,
      "Ġtrial": 2114,
      "Ġprograms": 2115,
      "Ġsix": 2116,
      "Ġra": 2117,
      "Ġaround": 2118,
      "Ġcommit": 2119,
      "ators": 2120,
      "Ġaustral": 2121,
      "pany": 2122,
      "Ġenter": 2123,
      "Ġir": 2124,
      "Ġworking": 2125,
      "col": 2126,
      "Ġdecl": 2127,
      ",\"": 2128,
      "Ġgames": 2129,
      "Ġweighted": 2130,
      "Ġsuccessful": 2131,
      "Ġmen": 2132,
      "Ġincent": 2133,
      "Ġcand": 2134,
      "reciation": 2135,
      "Ġapproval": 2136,
      "Ġcount": 2137,
      "Ġimport": 2138,
      "Ġvest": 2139,
      "Ġsuper": 2140,
      "Ġincurred": 2141,
      "Ġinitial": 2142,
      "Ġcurrency": 2143,
      "Ġmust": 2144,
      "Ġlow": 2145,
      "Ġalthough": 2146,
      "Ġdon": 2147,
      "Ġep": 2148,
      "Ġemployee": 2149,
      "Ġchampions": 2150,
      "Ġconvert": 2151,
      "back": 2152,
      "Ġbi": 2153,
      "Ġcontinu": 2154,
      "aint": 2155,
      "Ġfre": 2156,
      "Ġeduc": 2157,
      "Ġremaining": 2158,
      "Ġdisclosure": 2159,
      "Ġsoftware": 2160,
      "Ġpoint": 2161,
      "Ġreserv": 2162,
      "Ġguidance": 2163,
      "Ġpet": 2164,
      "Ġdivision": 2165,
      "Ġcert": 2166,
      "Ġmy": 2167,
      "arant": 2168,
      "Ġaccom": 2169,
      "uel": 2170,
      "Ġlevels": 2171,
      "Ġpast": 2172,
      "Ġaccrued": 2173,
      "Ġowned": 2174,
      "Ġreleased": 2175,
      "Ġten": 2176,
      "Ġhelp": 2177,
      "Ġmill": 2178,
      "Ġbook": 2179,
      "Ġnecess": 2180,
      "Ġlik": 2181,
      "Ġbecome": 2182,
      "Ġeff": 2183,
      "Ġperm": 2184,
      "let": 2185,
      "Ġprivate": 2186,
      "ris": 2187,
      "Ġdom": 2188,
      "Ġbuilding": 2189,
      "Ġsat": 2190,
      "Ġactual": 2191,
      "Ġstill": 2192,
      "Ġtreat": 2193,
      "ibility": 2194,
      "Ġcy": 2195,
      "ae": 2196,
      "Ġanticip": 2197,
      "Ġleases": 2198,
      "Ġroyal": 2199,
      "Ġtrain": 2200,
      "thers": 2201,
      "'t": 2202,
      "Ġconsidered": 2203,
      "Ġhum": 2204,
      "Ġgame": 2205,
      "Ġnamed": 2206,
      "ucture": 2207,
      "ms": 2208,
      "Ġanalysis": 2209,
      "apan": 2210,
      "au": 2211,
      "Ġhistory": 2212,
      "iforn": 2213,
      "Ġalong": 2214,
      "off": 2215,
      "Ġdepart": 2216,
      "ute": 2217,
      "Ġrange": 2218,
      "Ġintangible": 2219,
      "erve": 2220,
      "=\"": 2221,
      "aster": 2222,
      "Ġcandid": 2223,
      "Ġannoun": 2224,
      "Ġacquisitions": 2225,
      "Ġarch": 2226,
      "Ġpo": 2227,
      "new": 2228,
      "lying": 2229,
      "vement": 2230,
      "cast": 2231,
      "Ġsoc": 2232,
      "fficient": 2233,
      "Ġoffset": 2234,
      "Ġgiven": 2235,
      "Ġvi": 2236,
      "ifornia": 2237,
      "lation": 2238,
      "Ġchild": 2239,
      "Ġcompliance": 2240,
      "Ġprofessional": 2241,
      "Ġmuch": 2242,
      "ittle": 2243,
      "Ġpreviously": 2244,
      "Ġindustr": 2245,
      "rist": 2246,
      "Ġattribut": 2247,
      "Ġprep": 2248,
      "Ġtechnolog": 2249,
      "Ġdam": 2250,
      "Ġownership": 2251,
      "Ġcase": 2252,
      "Ġmodel": 2253,
      "Ġcamp": 2254,
      "Ġrad": 2255,
      "Ġenvironmental": 2256,
      "Ġimplement": 2257,
      "========": 2258,
      "Ġretail": 2259,
      "Ġmonth": 2260,
      "Ġcharact": 2261,
      "Ġspecific": 2262,
      "Ġresulting": 2263,
      "fas": 2264,
      "Ġoverall": 2265,
      "Ġpartnership": 2266,
      "ham": 2267,
      "ino": 2268,
      "eck": 2269,
      "Ġcalifornia": 2270,
      "Ġer": 2271,
      "sel": 2272,
      "Ġmatur": 2273,
      "nel": 2274,
      "Ġter": 2275,
      "me": 2276,
      "Ġcenter": 2277,
      "Ġdrug": 2278,
      "Ġtak": 2279,
      "Ġreports": 2280,
      "Ġanother": 2281,
      "Ġpark": 2282,
      "irement": 2283,
      "Ġbusinesses": 2284,
      "Ġrepl": 2285,
      "Ġsubsequent": 2286,
      "Ġbegan": 2287,
      "Ġprovisions": 2288,
      "Ġeast": 2289,
      "evision": 2290,
      "Ġguarant": 2291,
      "ler": 2292,
      "Ġmiss": 2293,
      "sc": 2294,
      "read": 2295,
      "Ġreceivable": 2296,
      "Ġmatters": 2297,
      "Ġcapac": 2298,
      "Ġeither": 2299,
      "Ġinventory": 2300,
      "Ġmer": 2301,
      "int": 2302,
      "Ġmag": 2303,
      "itted": 2304,
      "Ġwarrants": 2305,
      "na": 2306,
      "poses": 2307,
      "Ġread": 2308,
      "Ġcalc": 2309,
      "Ġrepurch": 2310,
      "Ġway": 2311,
      "que": 2312,
      "Ġreduce": 2313,
      "Ġ--------": 2314,
      "Ġjoin": 2315,
      "Ġsupply": 2316,
      "luding": 2317,
      "Ġexpos": 2318,
      "Ġrequires": 2319,
      "Ġlittle": 2320,
      "Ġbeh": 2321,
      "yle": 2322,
      "Ġprovision": 2323,
      "Ġ),": 2324,
      "Ġquarterly": 2325,
      "Ġlicense": 2326,
      "Ġcharge": 2327,
      "sue": 2328,
      "ark": 2329,
      "Ġplayed": 2330,
      "Ġsaid": 2331,
      "avor": 2332,
      "Ġcollege": 2333,
      "itors": 2334,
      "holder": 2335,
      "Ġpolicy": 2336,
      "equ": 2337,
      "Ġsubsidiary": 2338,
      "Ġhistorical": 2339,
      "cil": 2340,
      "Ġsqu": 2341,
      "eler": 2342,
      "itures": 2343,
      "itor": 2344,
      "raft": 2345,
      "Ġalloc": 2346,
      "Ġreasonable": 2347,
      "Ġchurch": 2348,
      "Ġpurposes": 2349,
      "Ġsepar": 2350,
      "Ġvill": 2351,
      "mon": 2352,
      "Ġnetwork": 2353,
      "mp": 2354,
      "Ġbirths": 2355,
      "Ġbritish": 2356,
      "Ġdoc": 2357,
      "ilt": 2358,
      "Ġve": 2359,
      "ob": 2360,
      "Ġmedical": 2361,
      "Ġcalled": 2362,
      "Ġcombination": 2363,
      "century": 2364,
      "umulated": 2365,
      "Ġord": 2366,
      "yl": 2367,
      "ille": 2368,
      "Ġsan": 2369,
      "enced": 2370,
      "Ġquality": 2371,
      "Ġincentive": 2372,
      "oints": 2373,
      "wards": 2374,
      "Ġdiff": 2375,
      "acks": 2376,
      "Ġareas": 2377,
      "Ġsheet": 2378,
      "Ġvir": 2379,
      "acc": 2380,
      "Ġblack": 2381,
      "Ġplant": 2382,
      "Ġconst": 2383,
      "ï¿½ï¿½": 2384,
      "Ġstation": 2385,
      "Ġvice": 2386,
      "wor": 2387,
      "Ġmaterially": 2388,
      "Ġwee": 2389,
      "Ġdepreciation": 2390,
      "Ġcause": 2391,
      "Ġpercentage": 2392,
      "Ġpen": 2393,
      "Ġdiscount": 2394,
      "Ġdoll": 2395,
      "Ġfield": 2396,
      "Ġfilms": 2397,
      "Ġaffected": 2398,
      "Ġaffili": 2399,
      "Ġconsumer": 2400,
      "Ġreserves": 2401,
      "aren": 2402,
      "americ": 2403,
      "Ġexpend": 2404,
      "Ġutil": 2405,
      "Ġapproved": 2406,
      "Ġdocu": 2407,
      "ana": 2408,
      "Ġretain": 2409,
      "Ġgeor": 2410,
      "Ġderivative": 2411,
      "Ġassociation": 2412,
      "Ġwebs": 2413,
      "Ġsit": 2414,
      "app": 2415,
      "Ġtimes": 2416,
      "Ġcharges": 2417,
      "ipp": 2418,
      "ington": 2419,
      "Ġtrade": 2420,
      "Ġassurance": 2421,
      "Ġjapan": 2422,
      "Ġpred": 2423,
      "Ġactivity": 2424,
      "lor": 2425,
      "Ġhy": 2426,
      "Ġtarget": 2427,
      "Ġje": 2428,
      "ony": 2429,
      "Ġadjusted": 2430,
      "Ġequivalents": 2431,
      "Ġrules": 2432,
      "Ġmean": 2433,
      "Ġrevol": 2434,
      "Ġrail": 2435,
      "Ġget": 2436,
      "Ġgains": 2437,
      "Ġpress": 2438,
      "ried": 2439,
      "osp": 2440,
      "ama": 2441,
      "rop": 2442,
      "emic": 2443,
      "Ġexcess": 2444,
      "Ġregistered": 2445,
      "Ġoffering": 2446,
      "Ġhand": 2447,
      "Ġcareer": 2448,
      "Ġconvertible": 2449,
      "ography": 2450,
      "ung": 2451,
      "ese": 2452,
      "Ġgreater": 2453,
      "Ġbill": 2454,
      "Ġthings": 2455,
      "atic": 2456,
      "Ġpatent": 2457,
      "utions": 2458,
      "Ġcompetition": 2459,
      "icult": 2460,
      "wise": 2461,
      "ford": 2462,
      "Ġgold": 2463,
      "Ġplat": 2464,
      "ico": 2465,
      "Ġroad": 2466,
      "Ġcommunity": 2467,
      "Ġcountry": 2468,
      "Ġcompar": 2469,
      "uck": 2470,
      "Ġtelevision": 2471,
      "looking": 2472,
      "Ġstandard": 2473,
      "ĠâĢĶ": 2474,
      "Ġincreases": 2475,
      "Ġmich": 2476,
      "Ġprimary": 2477,
      "idential": 2478,
      "ds": 2479,
      "Ġdiscussion": 2480,
      "Ġtra": 2481,
      "Ġlook": 2482,
      "Ġwritten": 2483,
      "Ġage": 2484,
      "Ġinterests": 2485,
      "Ġdeliv": 2486,
      "Ġrelating": 2487,
      "Ġmot": 2488,
      "Ġpoints": 2489,
      "Ġriver": 2490,
      "Ġpartners": 2491,
      "Ġreceive": 2492,
      "ering": 2493,
      "Ġfile": 2494,
      "Ġmerg": 2495,
      "Ġreserve": 2496,
      "Ġyes": 2497,
      "Ġequal": 2498,
      "Ġlikely": 2499,
      "ource": 2500,
      "Ġhalf": 2501,
      "Ġspace": 2502,
      "Ġconvers": 2503,
      "Ġchina": 2504,
      "gen": 2505,
      "Ġappear": 2506,
      "Ġ(,)": 2507,
      "Ġrom": 2508,
      "Ġexamp": 2509,
      "Ġdispos": 2510,
      "aged": 2511,
      "Ġsignificantly": 2512,
      "Ġacross": 2513,
      "Ġcompetitive": 2514,
      "care": 2515,
      "Ġaccumulated": 2516,
      "Ġaction": 2517,
      "Ġdifficult": 2518,
      "Ġrule": 2519,
      "ats": 2520,
      "Ġisland": 2521,
      "uk": 2522,
      "Ġside": 2523,
      "Ġcapacity": 2524,
      "oph": 2525,
      "Ġpricing": 2526,
      "dr": 2527,
      "real": 2528,
      "Ġamendment": 2529,
      "Ġgl": 2530,
      "Ġ).": 2531,
      "ones": 2532,
      "Ġpromot": 2533,
      "ison": 2534,
      "Ġthank": 2535,
      "Ġcannot": 2536,
      "Ġfree": 2537,
      "rench": 2538,
      "ma": 2539,
      "Ġtoday": 2540,
      "Ġsubstantial": 2541,
      "mal": 2542,
      "Ġsettlement": 2543,
      "anks": 2544,
      "Ġvolume": 2545,
      "unch": 2546,
      "empor": 2547,
      "Ġang": 2548,
      "Ġdav": 2549,
      "Ġ[": 2550,
      "Ġcircum": 2551,
      "ody": 2552,
      "american": 2553,
      "Ġvis": 2554,
      "Ġreally": 2555,
      "Ġdiluted": 2556,
      "'ve": 2557,
      "Ġsite": 2558,
      "Ġliquidity": 2559,
      "Ġfunct": 2560,
      "Ġregulation": 2561,
      "idge": 2562,
      "ges": 2563,
      "Ġpension": 2564,
      "Ġherein": 2565,
      "ining": 2566,
      "Ġstrategy": 2567,
      "izes": 2568,
      "Ġmatch": 2569,
      "Ġnecessary": 2570,
      "Ġther": 2571,
      "Ġdesigned": 2572,
      "Ġselling": 2573,
      "Ġopin": 2574,
      "ores": 2575,
      "Ġimportant": 2576,
      "angu": 2577,
      "Ġexpress": 2578,
      "Ġvalues": 2579,
      "enture": 2580,
      "iption": 2581,
      "Ġpurchased": 2582,
      "Ġannounced": 2583,
      "atively": 2584,
      "):": 2585,
      "Ġpersonnel": 2586,
      "Ġsolutions": 2587,
      "Ġwebsite": 2588,
      "Ġcontinuing": 2589,
      "Ġmaterials": 2590,
      "Ġphys": 2591,
      "ateral": 2592,
      "Ġpresented": 2593,
      "Ġdi": 2594,
      "Ġotherwise": 2595,
      "Ġtechnologies": 2596,
      "Ġintro": 2597,
      "Ġsafety": 2598,
      "Ġarrangements": 2599,
      "Ġconsult": 2600,
      "Ġjoint": 2601,
      "Ġthough": 2602,
      "Ġmaking": 2603,
      "Ġdou": 2604,
      "Ġadjustments": 2605,
      "people": 2606,
      "Ġdepartment": 2607,
      "Ġtransport": 2608,
      "Ġden": 2609,
      "atch": 2610,
      "Ġexpenditures": 2611,
      "Ġprob": 2612,
      "related": 2613,
      "Ġcommunic": 2614,
      "bit": 2615,
      "Ġreduction": 2616,
      "writ": 2617,
      "Ġmax": 2618,
      "Ġwilliam": 2619,
      "ects": 2620,
      "Ġreduced": 2621,
      "Ġtex": 2622,
      "Ġcentral": 2623,
      "estern": 2624,
      "Ġtrading": 2625,
      "Ġfirm": 2626,
      "Ġtitle": 2627,
      "sec": 2628,
      "hold": 2629,
      "ublic": 2630,
      "Ġcanada": 2631,
      "Ġextent": 2632,
      "Ġok": 2633,
      "jo": 2634,
      "Ġlet": 2635,
      "idence": 2636,
      "ger": 2637,
      "itary": 2638,
      "Ġdeposits": 2639,
      "Ġkind": 2640,
      "Ġelectric": 2641,
      "Ġpopulation": 2642,
      "Ġ(âĢĵ)": 2643,
      "Ġefforts": 2644,
      "lu": 2645,
      "Ġband": 2646,
      "Ġexceed": 2647,
      "Ġothers": 2648,
      "Ġcateg": 2649,
      "Ġdecreased": 2650,
      "Ġcharacter": 2651,
      "Ġmal": 2652,
      "Ġunion": 2653,
      "Ġdig": 2654,
      "Ġpropos": 2655,
      "Ġchrist": 2656,
      "vest": 2657,
      "Ġcircumst": 2658,
      "Ġstaff": 2659,
      "Ġreach": 2660,
      "Ġhaving": 2661,
      "Ġestimate": 2662,
      "Ġsfas": 2663,
      "Ġpublished": 2664,
      "Ġdeveloped": 2665,
      "Ġadopted": 2666,
      "Ġrefer": 2667,
      "Ġtook": 2668,
      "Ġfda": 2669,
      "Ġmultip": 2670,
      "eb": 2671,
      "Ġcanc": 2672,
      "Ġrelationships": 2673,
      "Ġoutside": 2674,
      "Ġfew": 2675,
      "Ġlib": 2676,
      "Ġbuilt": 2677,
      "Ġtren": 2678,
      "Ġafric": 2679,
      "Ġsay": 2680,
      "Ġrecognition": 2681,
      "Ġfas": 2682,
      "Ġattributable": 2683,
      "Ġill": 2684,
      "ael": 2685,
      "Ġforth": 2686,
      "tries": 2687,
      "Ġcode": 2688,
      "itch": 2689,
      "ondon": 2690,
      "Ġcountries": 2691,
      "iff": 2692,
      "party": 2693,
      "Ġcircumstances": 2694,
      "Ġopportunities": 2695,
      "Ġstreet": 2696,
      "Ġmun": 2697,
      "Ġce": 2698,
      "Ġitems": 2699,
      "erson": 2700,
      "Ġopinion": 2701,
      "Ġappropr": 2702,
      "ene": 2703,
      "Ġfee": 2704,
      "lier": 2705,
      "Ġmor": 2706,
      "ara": 2707,
      "Ġleast": 2708,
      "Ġwant": 2709,
      "Ġpossible": 2710,
      "Ġpremium": 2711,
      "Ġjudg": 2712,
      "izations": 2713,
      "Ġunable": 2714,
      "Ġcomput": 2715,
      "Ġactions": 2716,
      "Ġmedic": 2717,
      "Ġruss": 2718,
      "ideo": 2719,
      "Ġchair": 2720,
      "Ġdecline": 2721,
      "Ġlitigation": 2722,
      "ape": 2723,
      "Ġconting": 2724,
      "operator": 2725,
      "Ġsom": 2726,
      "Ġplatform": 2727,
      "________": 2728,
      "Ġlabor": 2729,
      "Ġissue": 2730,
      "Ġwarrant": 2731,
      "Ġminimum": 2732,
      "Ġult": 2733,
      "Ġold": 2734,
      "Ġcult": 2735,
      "ca": 2736,
      "Ġratio": 2737,
      "Ġship": 2738,
      "inary": 2739,
      "going": 2740,
      "Ġded": 2741,
      "Ġacceler": 2742,
      "Ġobs": 2743,
      "Ġplus": 2744,
      "Ġtherefore": 2745,
      "Ġcaus": 2746,
      "Ġsocial": 2747,
      "Ġcommitments": 2748,
      "Ġborn": 2749,
      "Ġrecords": 2750,
      "Ġ//": 2751,
      "Ġalign": 2752,
      "Ġiniti": 2753,
      "Ġprojects": 2754,
      "ze": 2755,
      "Ġdetermine": 2756,
      "Ġholders": 2757,
      "Ġcollateral": 2758,
      "Ġaccompany": 2759,
      "vements": 2760,
      "Ġexample": 2761,
      "living": 2762,
      "Ġhuman": 2763,
      "continued": 2764,
      "Ġcompos": 2765,
      "Ġsav": 2766,
      "Ġoften": 2767,
      "ani": 2768,
      "oks": 2769,
      "clus": 2770,
      "puts": 2771,
      "izing": 2772,
      "ored": 2773,
      "Ġeducation": 2774,
      "Ġyoun": 2775,
      "Ġprinciples": 2776,
      "Ġentities": 2777,
      "Ġcomponents": 2778,
      "Ġfailure": 2779,
      "Ġcentury": 2780,
      "xy": 2781,
      "Ġhot": 2782,
      "Ġlot": 2783,
      "Ġregion": 2784,
      "Ġson": 2785,
      "incorporated": 2786,
      "Ġbasic": 2787,
      "after": 2788,
      "Ġchall": 2789,
      "Ġemployment": 2790,
      "Ġadvert": 2791,
      "lied": 2792,
      "Ġ,.": 2793,
      "Ġlab": 2794,
      "ĠĊĊ": 2795,
      "Ġsecured": 2796,
      "Ġapplications": 2797,
      "Ġexpand": 2798,
      "Ġbrand": 2799,
      "ged": 2800,
      "ios": 2801,
      "umb": 2802,
      "Ġdetail": 2803,
      "Ġenglish": 2804,
      "Ġple": 2805,
      "Ġaccompanying": 2806,
      "sk": 2807,
      "Ġapproach": 2808,
      "Ġholding": 2809,
      "Ġpersonal": 2810,
      "Ġcur": 2811,
      "Ġtog": 2812,
      "imate": 2813,
      "Ġfavor": 2814,
      "Ġreplac": 2815,
      "head": 2816,
      "Ġborrowings": 2817,
      "Ġciv": 2818,
      "Ġspe": 2819,
      "Ġlondon": 2820,
      "iveness": 2821,
      "Ġobligation": 2822,
      "Ġstor": 2823,
      "Ġhear": 2824,
      "Ġpositions": 2825,
      "hist": 2826,
      "Ġrelease": 2827,
      "akes": 2828,
      "Ġtexas": 2829,
      "Ġga": 2830,
      "Ġsubm": 2831,
      "Ġfinance": 2832,
      "Ġeuropean": 2833,
      "Ġlat": 2834,
      "eal": 2835,
      "Ġaltern": 2836,
      "Ġentity": 2837,
      "ems": 2838,
      "Ġprotection": 2839,
      "Ġlegis": 2840,
      "dom": 2841,
      "Ġled": 2842,
      "Ġflo": 2843,
      "umn": 2844,
      "Ġmajority": 2845,
      "Ġforce": 2846,
      "Ġcup": 2847,
      "Ġautom": 2848,
      "Ġeas": 2849,
      "Ġapplication": 2850,
      "Ġsubstantially": 2851,
      "Ġtogether": 2852,
      "Ġ(),": 2853,
      "Ġarmy": 2854,
      "right": 2855,
      "Ġview": 2856,
      "Ġtreatment": 2857,
      "Ġobject": 2858,
      "Ġbenefic": 2859,
      "arters": 2860,
      "Ġindicate": 2861,
      "Ġtalk": 2862,
      "Ġcontractual": 2863,
      "Ġconversion": 2864,
      "Ġseek": 2865,
      "ault": 2866,
      "aps": 2867,
      "Ġcandidates": 2868,
      "Ġdividend": 2869,
      "Ġput": 2870,
      "emporary": 2871,
      "fe": 2872,
      "Ġadequ": 2873,
      "Ġlines": 2874,
      "Ġpatients": 2875,
      "Ġcompetitors": 2876,
      "Ġnav": 2877,
      "Ġsil": 2878,
      "ney": 2879,
      "Ġchildren": 2880,
      "Ġconsideration": 2881,
      "Ġlight": 2882,
      "Ġwhol": 2883,
      "ground": 2884,
      "burg": 2885,
      "Ġadoption": 2886,
      "Ġincreasing": 2887,
      "augh": 2888,
      "fr": 2889,
      "Ġvillage": 2890,
      "Ġstep": 2891,
      "Ġpharm": 2892,
      "Ġhosp": 2893,
      "Ġholdings": 2894,
      "tenance": 2895,
      "Ġbur": 2896,
      "Ġdeg": 2897,
      "Ġfully": 2898,
      "Ġviol": 2899,
      "time": 2900,
      "Ġintel": 2901,
      "Ġsupplement": 2902,
      "anced": 2903,
      "Ġadvis": 2904,
      "Ġmeeting": 2905,
      "Ġissues": 2906,
      "Ġdiscont": 2907,
      "Ġelection": 2908,
      "Ġbig": 2909,
      "Ġcross": 2910,
      "ania": 2911,
      "Ġindian": 2912,
      "sch": 2913,
      "Ġjur": 2914,
      "ective": 2915,
      "Ġoperation": 2916,
      "Ġmaintenance": 2917,
      "Ġcomplete": 2918,
      "Ġpolitical": 2919,
      "Ġmc": 2920,
      "Ġclosing": 2921,
      "Ġplayer": 2922,
      "Ġaddress": 2923,
      "Ġpip": 2924,
      "Ġital": 2925,
      "Ġoperate": 2926,
      "hic": 2927,
      "Ġbetter": 2928,
      "Ġleft": 2929,
      "Ġphil": 2930,
      "Ġrestruct": 2931,
      "Ġsouthern": 2932,
      "ope": 2933,
      "Ġcouncil": 2934,
      "eria": 2935,
      "Ġspecies": 2936,
      "ull": 2937,
      "Ġstudy": 2938,
      "Ġdirectly": 2939,
      "Ġsufficient": 2940,
      "Ġcop": 2941,
      "Ġdeposit": 2942,
      "Ġvict": 2943,
      "Ġdoub": 2944,
      "Ġmedia": 2945,
      "Ġfrench": 2946,
      "Ġlate": 2947,
      "Ġindex": 2948,
      "Ġrich": 2949,
      "Ġupd": 2950,
      "omm": 2951,
      "ging": 2952,
      "Ġfood": 2953,
      "ned": 2954,
      "Ġeffects": 2955,
      "ida": 2956,
      "Ġund": 2957,
      "iring": 2958,
      "Ġlaunch": 2959,
      "bor": 2960,
      "Ġacad": 2961,
      "Ġadditionally": 2962,
      "Ġens": 2963,
      "Ġassist": 2964,
      "Ġdisclosures": 2965,
      "Ġattract": 2966,
      "Ġvolat": 2967,
      "ises": 2968,
      "Ġperformed": 2969,
      "Ġsoci": 2970,
      "Ġchann": 2971,
      "--------------------------------": 2972,
      "ha": 2973,
      "Ġthroughout": 2974,
      "Ġdeal": 2975,
      "Ġassessment": 2976,
      "Ġcheck": 2977,
      "Ġnature": 2978,
      "Ġpartner": 2979,
      "Ġcollabor": 2980,
      "Ġrenew": 2981,
      "Ġcorp": 2982,
      "Ġcourse": 2983,
      "Ġactive": 2984,
      "()": 2985,
      "Ġexperi": 2986,
      "Ġmass": 2987,
      "Ġhon": 2988,
      "Ġcell": 2989,
      "ature": 2990,
      "Ġmex": 2991,
      "Ġfunding": 2992,
      "Ġproduced": 2993,
      "Ġinstitutions": 2994,
      "Ġappropriate": 2995,
      "Ġmanufactur": 2996,
      "Ġlonger": 2997,
      "lin": 2998,
      "Ġmac": 2999,
      "Ġtreas": 3000,
      "Ġdefin": 3001,
      "ensed": 3002,
      "Ġpal": 3003,
      "Ġsyn": 3004,
      "Ġhospital": 3005,
      "Ġrepurchase": 3006,
      "Ġinvestors": 3007,
      "aur": 3008,
      "ban": 3009,
      "iction": 3010,
      "illed": 3011,
      "Ġvideo": 3012,
      "Ġsources": 3013,
      "Ġiii": 3014,
      "Ġbanks": 3015,
      "Ġsigned": 3016,
      "Ġmaturity": 3017,
      "Ġgreen": 3018,
      "Ġaustralia": 3019,
      "uations": 3020,
      "Ġmight": 3021,
      "\"),": 3022,
      "Ġjour": 3023,
      "Ġretirement": 3024,
      "Ġgerman": 3025,
      "eep": 3026,
      "Ġneeds": 3027,
      "Ġfluct": 3028,
      "Ġtypically": 3029,
      "Ġclear": 3030,
      "Ġintellect": 3031,
      "pre": 3032,
      "Ġsus": 3033,
      "Ġstrategic": 3034,
      "Ġtype": 3035,
      "issions": 3036,
      "Ġfuel": 3037,
      "Ġinn": 3038,
      "Ġbit": 3039,
      "Ġstar": 3040,
      "Ġaccepted": 3041,
      "Ġwash": 3042,
      "ville": 3043,
      "Ġresulted": 3044,
      "Ġenh": 3045,
      "Ġyield": 3046,
      "Ġround": 3047,
      "Ġrock": 3048,
      "Ġsegments": 3049,
      "Ġhard": 3050,
      "Ġprevent": 3051,
      "Ġintellectual": 3052,
      "anguage": 3053,
      "Ġcard": 3054,
      "mer": 3055,
      "Ġmerger": 3056,
      "Ġvehic": 3057,
      "sw": 3058,
      "icipal": 3059,
      "Ġtaken": 3060,
      "fil": 3061,
      "empt": 3062,
      "isd": 3063,
      "Ġworks": 3064,
      "Ġevaluation": 3065,
      "Ġlt": 3066,
      "Ġauthorized": 3067,
      "Ġelected": 3068,
      "Ġofficial": 3069,
      "Ġstudies": 3070,
      "Ġwal": 3071,
      "Ġmilitary": 3072,
      "aging": 3073,
      "Ġorganization": 3074,
      "Ġeth": 3075,
      "ides": 3076,
      "Ġcivil": 3077,
      "Ġrealized": 3078,
      "Ġhighly": 3079,
      "ush": 3080,
      "Ġvo": 3081,
      "Ġgrad": 3082,
      "Ġwestern": 3083,
      "Ġpurchases": 3084,
      "Ġindustrial": 3085,
      "Ġcoverage": 3086,
      "Ġdu": 3087,
      "Ġprogress": 3088,
      "inter": 3089,
      "Ġwind": 3090,
      "field": 3091,
      "Ġuk": 3092,
      "Ġsatis": 3093,
      "Ġcases": 3094,
      "Ġstyle": 3095,
      "Ġmultiple": 3096,
      "Ġtransfer": 3097,
      "emed": 3098,
      "Ġweek": 3099,
      "itional": 3100,
      "Ġenc": 3101,
      "Ġwhite": 3102,
      "Ġmix": 3103,
      "eline": 3104,
      "realized": 3105,
      "elf": 3106,
      "Ġresidential": 3107,
      "Ġcast": 3108,
      "Ġpartially": 3109,
      "ka": 3110,
      "ode": 3111,
      "ustain": 3112,
      "Ġfasb": 3113,
      "Ġnormal": 3114,
      "exp": 3115,
      "Ġyoung": 3116,
      "Ġregistration": 3117,
      "Ġlou": 3118,
      "oth": 3119,
      "Ġdist": 3120,
      "ting": 3121,
      "Ġprosp": 3122,
      "Ġunderlying": 3123,
      "Ġelectron": 3124,
      "Ġtrack": 3125,
      "Ġbelieves": 3126,
      "west": 3127,
      "Ġconference": 3128,
      "view": 3129,
      "Ġsecret": 3130,
      "ox": 3131,
      "lies": 3132,
      "Ġ;": 3133,
      "Ġadjustment": 3134,
      "Ġchampionship": 3135,
      "Ġdied": 3136,
      "Ġmeasures": 3137,
      "Ġpatents": 3138,
      "Ġcreated": 3139,
      "Ġnom": 3140,
      "Ġgot": 3141,
      "Ġhol": 3142,
      "Ġcoup": 3143,
      "Ġinstall": 3144,
      "wide": 3145,
      "Ġradio": 3146,
      "rupt": 3147,
      "Ġrole": 3148,
      "luded": 3149,
      "Ġfall": 3150,
      "ude": 3151,
      "Ġdavid": 3152,
      "Ġsummary": 3153,
      "ker": 3154,
      "ways": 3155,
      "Ġunrealized": 3156,
      "ifying": 3157,
      "Ġproviding": 3158,
      "Ġtro": 3159,
      "ica": 3160,
      "Ġdocument": 3161,
      "Ġbond": 3162,
      "Ġsummer": 3163,
      "Ġjurisd": 3164,
      "Ġrepublic": 3165,
      "igned": 3166,
      "with": 3167,
      "Ġhost": 3168,
      "Ġquant": 3169,
      "ming": 3170,
      "inations": 3171,
      "Ġmoney": 3172,
      "Ġentire": 3173,
      "ĠĊĠĊ": 3174,
      "ike": 3175,
      "Ġearned": 3176,
      "Ġsustain": 3177,
      "Ġcam": 3178,
      "Ġstage": 3179,
      "inate": 3180,
      "attle": 3181,
      "Ġ$,.": 3182,
      "\").": 3183,
      "Ġlargest": 3184,
      "Ġpenal": 3185,
      "arch": 3186,
      "Ġcomplex": 3187,
      "istics": 3188,
      "Ġjames": 3189,
      "Ġdiscussed": 3190,
      "Ġnone": 3191,
      "Ġ($": 3192,
      "Ġdiscontinued": 3193,
      "Ġrestructuring": 3194,
      "Ġmunicipal": 3195,
      "Ġtiming": 3196,
      "kn": 3197,
      "Ġsheets": 3198,
      "Ġtur": 3199,
      "Ġaccordingly": 3200,
      "Ġdivers": 3201,
      "Ġalle": 3202,
      "Ġtraining": 3203,
      "Ġtermination": 3204,
      "Ġpenn": 3205,
      "Ġstated": 3206,
      "Ġdecision": 3207,
      "Ġeffectiveness": 3208,
      "omes": 3209,
      "Ġchairman": 3210,
      "raz": 3211,
      "ament": 3212,
      "Ġdigital": 3213,
      "no": 3214,
      "craft": 3215,
      "Ġexposure": 3216,
      "Ġengland": 3217,
      "Ġcertific": 3218,
      "Ġinflu": 3219,
      "Ġstores": 3220,
      "rew": 3221,
      "Ġgrand": 3222,
      "ointed": 3223,
      "Ġamortized": 3224,
      "Ġdeliver": 3225,
      "Ġclassified": 3226,
      "Ġrestated": 3227,
      "Ġmoved": 3228,
      "Ġgive": 3229,
      "den": 3230,
      "Ġ(âĢĵ),": 3231,
      "Ġwashington": 3232,
      "'ll": 3233,
      "Ġbanking": 3234,
      "Ġfar": 3235,
      "Ġcombined": 3236,
      "down": 3237,
      "Ġindia": 3238,
      "Ġadvertising": 3239,
      "ba": 3240,
      "Ġimmed": 3241,
      "Ġresponsible": 3242,
      "Ġasc": 3243,
      "Ġelim": 3244,
      "play": 3245,
      "Ġcoach": 3246,
      "Ġaccounted": 3247,
      "Ġproceedings": 3248,
      "Ġnegative": 3249,
      "eter": 3250,
      "Ġmention": 3251,
      "ration": 3252,
      "Ġfind": 3253,
      "Ġstructure": 3254,
      "Ġonce": 3255,
      "vent": 3256,
      "Ġtour": 3257,
      "Ġ(,,": 3258,
      "Ġproxy": 3259,
      "Ġreim": 3260,
      "ago": 3261,
      "Ġthanks": 3262,
      "Ġcritical": 3263,
      "Ġselected": 3264,
      "Ġho": 3265,
      "Ġmem": 3266,
      "illing": 3267,
      "Ġthom": 3268,
      "Ġfem": 3269,
      "Ġap": 3270,
      "tax": 3271,
      "Ġvariety": 3272,
      "ben": 3273,
      "Ġprotect": 3274,
      "Ġol": 3275,
      "Ġrevolving": 3276,
      "dle": 3277,
      "Ġemerg": 3278,
      "Ġstarted": 3279,
      "entures": 3280,
      "Ġstore": 3281,
      "wood": 3282,
      "Ġcanadian": 3283,
      "Ġdegree": 3284,
      "Ġinvolved": 3285,
      "Ġorganizations": 3286,
      "Ġrepresents": 3287,
      "Ġhous": 3288,
      "Ġflor": 3289,
      "ops": 3290,
      "Ġrating": 3291,
      "bi": 3292,
      "Ġreturns": 3293,
      "Ġrestrictions": 3294,
      "Ġhall": 3295,
      "Ġmale": 3296,
      "Ġet": 3297,
      "Ġgenerated": 3298,
      "Ġentit": 3299,
      "ender": 3300,
      "Ġdelivery": 3301,
      "Ġregular": 3302,
      "estic": 3303,
      "Ġclients": 3304,
      "color": 3305,
      "Ġtrials": 3306,
      "emy": 3307,
      "Ġmanage": 3308,
      "itative": 3309,
      "Ġstatus": 3310,
      "Ġoly": 3311,
      "Ġreimbur": 3312,
      "Ġdut": 3313,
      "Ġparticularly": 3314,
      "Ġvariable": 3315,
      "Ġsquare": 3316,
      "Ġkingdom": 3317,
      "Ġconcern": 3318,
      "Ġagreed": 3319,
      "Ġquot": 3320,
      "Ġsports": 3321,
      "Ġcro": 3322,
      "eum": 3323,
      "Ġface": 3324,
      "Ġur": 3325,
      "Ġopportunity": 3326,
      "history": 3327,
      "Ġtransition": 3328,
      "Ġprepar": 3329,
      "rest": 3330,
      "Ġcollection": 3331,
      "ying": 3332,
      "ump": 3333,
      "Ġ.%,": 3334,
      "Ġagencies": 3335,
      "onse": 3336,
      "Ġolymp": 3337,
      "Ġcat": 3338,
      "Ġcore": 3339,
      "Ġanti": 3340,
      "Ġgroups": 3341,
      "ansion": 3342,
      "han": 3343,
      "Ġlisted": 3344,
      "Ġsociety": 3345,
      "ountain": 3346,
      "Ġtesting": 3347,
      "Ġleading": 3348,
      "Ġcame": 3349,
      "Ġfrance": 3350,
      "Ġinvesting": 3351,
      "Ġ%,": 3352,
      "ander": 3353,
      "gu": 3354,
      "Ġongoing": 3355,
      "Ġhill": 3356,
      "Ġearlier": 3357,
      "Ġteams": 3358,
      "Ġcontained": 3359,
      "mark": 3360,
      "Ġdeaths": 3361,
      "Ġbat": 3362,
      "Ġdistributions": 3363,
      "Ġmart": 3364,
      "Ġrequest": 3365,
      "Ġanticipated": 3366,
      "Ġcit": 3367,
      "Ġphase": 3368,
      "Ġharm": 3369,
      "Ġseen": 3370,
      "Ġclose": 3371,
      "Ġmanager": 3372,
      "Ġnovel": 3373,
      "Ġnorthern": 3374,
      "Ġfather": 3375,
      "pose": 3376,
      "Ġrepay": 3377,
      "erous": 3378,
      "Ġver": 3379,
      "Ġjournal": 3380,
      "Ġmis": 3381,
      "Ġmargins": 3382,
      "eful": 3383,
      "Ġanaly": 3384,
      "Ġrecon": 3385,
      "ours": 3386,
      "ta": 3387,
      "mb": 3388,
      "Ġjoined": 3389,
      "Ġwa": 3390,
      ".)": 3391,
      "reng": 3392,
      "ades": 3393,
      "Ġokay": 3394,
      "used": 3395,
      "Ġconsistent": 3396,
      "Ġpositive": 3397,
      "Ġsect": 3398,
      "Ġwood": 3399,
      "Ġmillions": 3400,
      "utical": 3401,
      "Ġengineering": 3402,
      "Ġovers": 3403,
      "Ġchem": 3404,
      "Ġhealthcare": 3405,
      "Ġcomponent": 3406,
      "ror": 3407,
      "Ġcum": 3408,
      "gg": 3409,
      "Ġagency": 3410,
      "Ġcome": 3411,
      "Ġcolor": 3412,
      "fo": 3413,
      "Ġpaul": 3414,
      "Ġfire": 3415,
      "Ġregional": 3416,
      "Ġspecified": 3417,
      "Ġoccup": 3418,
      "Ġcomply": 3419,
      "Ġenterpr": 3420,
      "ivity": 3421,
      "ada": 3422,
      "Ġcho": 3423,
      "Ġvolatility": 3424,
      "Ġconsists": 3425,
      "ipt": 3426,
      "lived": 3427,
      "ster": 3428,
      "Ġrac": 3429,
      "Ġbon": 3430,
      "bu": 3431,
      "ius": 3432,
      "Ġreceivables": 3433,
      "Ġ-,": 3434,
      "Ġstreng": 3435,
      "la": 3436,
      "Ġwent": 3437,
      "Ġground": 3438,
      "Ġcoven": 3439,
      "Ġca": 3440,
      "Ġincorpor": 3441,
      "Ġsun": 3442,
      "iment": 3443,
      "Ġpan": 3444,
      "ological": 3445,
      "Ġbalances": 3446,
      "osed": 3447,
      "Ġcommod": 3448,
      "Ġlouis": 3449,
      "ician": 3450,
      "Ġlive": 3451,
      "Ġimprovements": 3452,
      "Ġscience": 3453,
      "tt": 3454,
      "Ġplaces": 3455,
      "fin": 3456,
      "Ġpractices": 3457,
      "ulative": 3458,
      "Ġresponse": 3459,
      "Ġdelay": 3460,
      "Ġhor": 3461,
      "Ġeffic": 3462,
      "Ġexam": 3463,
      "ya": 3464,
      "orning": 3465,
      "Ġuses": 3466,
      "Ġworked": 3467,
      "Ġdiscover": 3468,
      "Ġrob": 3469,
      "Ġcovered": 3470,
      "Ġinputs": 3471,
      "Ġchalleng": 3472,
      "Ġmur": 3473,
      "Ġseven": 3474,
      "Ġadministration": 3475,
      "ique": 3476,
      "ift": 3477,
      "Ġauthorities": 3478,
      "Ġpage": 3479,
      "ston": 3480,
      "Ġsize": 3481,
      "Ġconducted": 3482,
      "come": 3483,
      "bc": 3484,
      "Ġlives": 3485,
      "Ġpredict": 3486,
      "Ġfranc": 3487,
      "Ġbuildings": 3488,
      "Ġlos": 3489,
      "astr": 3490,
      "Ġsource": 3491,
      "ened": 3492,
      "Ġnever": 3493,
      "duce": 3494,
      "Ġsound": 3495,
      "Ġfri": 3496,
      "Ġcounter": 3497,
      "house": 3498,
      "Ġspons": 3499,
      "vid": 3500,
      "Ġidentified": 3501,
      "Ġlost": 3502,
      "Ġebit": 3503,
      "Ġacquire": 3504,
      "icians": 3505,
      "Ġmeasurement": 3506,
      "Ġfarm": 3507,
      "Ġdomestic": 3508,
      "Ġexclus": 3509,
      "Ġbey": 3510,
      "aceutical": 3511,
      "Ġstory": 3512,
      "Ġpresentation": 3513,
      "Ġtaking": 3514,
      "Ġprobl": 3515,
      "Ġaffiliates": 3516,
      "ams": 3517,
      "ening": 3518,
      "most": 3519,
      "Ġrap": 3520,
      "Ġtraditional": 3521,
      "Ġseparate": 3522,
      "Ġmuseum": 3523,
      "Ġsent": 3524,
      "Ġinj": 3525,
      "Ġrecovery": 3526,
      "cle": 3527,
      "ietary": 3528,
      "Ġimprove": 3529,
      "Ġ().": 3530,
      "Ġiv": 3531,
      "Ġenfor": 3532,
      "Ġrepresented": 3533,
      "Ġgermany": 3534,
      "Ġtravel": 3535,
      "Ġcriteria": 3536,
      "Ġfel": 3537,
      "Ġpack": 3538,
      "aring": 3539,
      "Ġrede": 3540,
      "Ġrobert": 3541,
      "Ġabs": 3542,
      "Ġexpansion": 3543,
      "Ġstatut": 3544,
      "iting": 3545,
      "Ġreimburs": 3546,
      "Ġstruct": 3547,
      "Ġber": 3548,
      "Ġlimitations": 3549,
      "Ġcath": 3550,
      "liers": 3551,
      "Ġfront": 3552,
      "anish": 3553,
      "Ġeight": 3554,
      "Ġparen": 3555,
      "net": 3556,
      "Ġmob": 3557,
      "Ġproposed": 3558,
      "Ġepis": 3559,
      "Ġsummar": 3560,
      "Ġstockholder": 3561,
      "Ġonline": 3562,
      "Ġfif": 3563,
      "Ġappointed": 3564,
      "control": 3565,
      "rect": 3566,
      "Ġqualified": 3567,
      "Ġcomes": 3568,
      "reek": 3569,
      "Ġmexico": 3570,
      "nes": 3571,
      "Ġschedule": 3572,
      "Ġvirgin": 3573,
      "Ġsar": 3574,
      "Ġstra": 3575,
      "Ġcontributions": 3576,
      "Ġtaxable": 3577,
      "Ġweak": 3578,
      "Ġdriven": 3579,
      "itz": 3580,
      "Ġgeneration": 3581,
      "Ġtechnical": 3582,
      "Ġresol": 3583,
      "bers": 3584,
      "Ġframe": 3585,
      "Ġsuppliers": 3586,
      "Ġimm": 3587,
      "Ġdise": 3588,
      "Ġasu": 3589,
      "Ġham": 3590,
      "ots": 3591,
      "Ġversion": 3592,
      "Ġindicated": 3593,
      "Ġreturned": 3594,
      "vant": 3595,
      "Ġaircraft": 3596,
      "ste": 3597,
      "Ġoperational": 3598,
      "Ġcas": 3599,
      "Ġtreasury": 3600,
      "Ġopened": 3601,
      "Ġstudents": 3602,
      "def": 3603,
      "Ġesp": 3604,
      "Ġevidence": 3605,
      "iately": 3606,
      "Ġbg": 3607,
      "Ġmic": 3608,
      "Ġmorning": 3609,
      "Ġbranch": 3610,
      "Ġpropr": 3611,
      "Ġbud": 3612,
      "Ġorders": 3613,
      "car": 3614,
      "istic": 3615,
      "Ġinher": 3616,
      "Ġartic": 3617,
      "Ġassumed": 3618,
      "pa": 3619,
      "ero": 3620,
      "Ġgeorge": 3621,
      "Ġaccelerated": 3622,
      "ocr": 3623,
      "Ġpersons": 3624,
      "entially": 3625,
      "Ġentitled": 3626,
      "uled": 3627,
      "fair": 3628,
      "Ġparts": 3629,
      "Ġsavings": 3630,
      "des": 3631,
      "Ġtypes": 3632,
      "Ġmonitor": 3633,
      "Ġanim": 3634,
      "Ġsho": 3635,
      "Ġmary": 3636,
      "Ġtransportation": 3637,
      "Ġexplor": 3638,
      "Ġbeneficial": 3639,
      "men": 3640,
      "Ġsaw": 3641,
      "iously": 3642,
      "level": 3643,
      "Ġheav": 3644,
      "Ġstrength": 3645,
      "Ġrecl": 3646,
      "Ġending": 3647,
      "Ġdollar": 3648,
      "emption": 3649,
      "Ġcontinues": 3650,
      "ww": 3651,
      "Ġcoast": 3652,
      "works": 3653,
      "Ġmichael": 3654,
      "Ġinternet": 3655,
      "Ġps": 3656,
      "Ġdifferences": 3657,
      "Ġsuccessfully": 3658,
      "berg": 3659,
      "olic": 3660,
      "thing": 3661,
      "Ġadded": 3662,
      "use": 3663,
      "Ġinfr": 3664,
      "do": 3665,
      "Ġltd": 3666,
      "Ġprofitability": 3667,
      "Ġbeyond": 3668,
      "Ġexperienced": 3669,
      "Ġcompletion": 3670,
      "ote": 3671,
      "comm": 3672,
      "Ġcompete": 3673,
      "Ġuncertainties": 3674,
      "Ġnews": 3675,
      "Ġfranch": 3676,
      "Ġmentioned": 3677,
      "Ġrecently": 3678,
      "Ġflorida": 3679,
      "Ġconcent": 3680,
      "rote": 3681,
      "Ġdest": 3682,
      "Ġexpectations": 3683,
      "ception": 3684,
      "ally": 3685,
      "Ġyet": 3686,
      "Ġcarol": 3687,
      "ele": 3688,
      "Ġserve": 3689,
      "Ġmerch": 3690,
      "Ġmaster": 3691,
      "Ġfeatures": 3692,
      "onom": 3693,
      "Ġauthority": 3694,
      "Ġlooking": 3695,
      "Ġrecognize": 3696,
      "astructure": 3697,
      "pite": 3698,
      "Ġderivatives": 3699,
      "Ġsem": 3700,
      "resp": 3701,
      "ona": 3702,
      "Ġcaused": 3703,
      "Ġnas": 3704,
      "Ġproprietary": 3705,
      "Ġprocessing": 3706,
      "Ġcontains": 3707,
      "Ġachieve": 3708,
      "itar": 3709,
      "Ġsn": 3710,
      "Ġuseful": 3711,
      "Ġreflected": 3712,
      "Ġmaximum": 3713,
      "Ġsa": 3714,
      "Ġarchit": 3715,
      "Ġtrends": 3716,
      "unt": 3717,
      "Ġdraw": 3718,
      "Ġebitda": 3719,
      "Ġlog": 3720,
      "Ġcoal": 3721,
      "Ġdepend": 3722,
      "Ġavailability": 3723,
      "ï¿½ï¿½ï¿½ï¿½": 3724,
      "Ġelig": 3725,
      "including": 3726,
      "Ġrang": 3727,
      "ols": 3728,
      "Ġfavorable": 3729,
      "Ġgeograph": 3730,
      "Ġclosed": 3731,
      "Ġformed": 3732,
      "Ġrelationship": 3733,
      "Ġdeduct": 3734,
      "Ġrestaur": 3735,
      "Ġgenerate": 3736,
      "Ġball": 3737,
      "Ġmedal": 3738,
      "Ġbul": 3739,
      "Ġagent": 3740,
      "Ġmountain": 3741,
      "Ġalternative": 3742,
      "Ġaustralian": 3743,
      "||": 3744,
      "Ġdefault": 3745,
      "Ġtimely": 3746,
      "Ġcovid": 3747,
      "cons": 3748,
      "Ġlocation": 3749,
      "Ġexist": 3750,
      "Ġword": 3751,
      "Ġath": 3752,
      "ado": 3753,
      "Ġimpacted": 3754,
      "Ġappe": 3755,
      "abilities": 3756,
      "Ġbay": 3757,
      "ula": 3758,
      "inese": 3759,
      "Ġmiddle": 3760,
      "Ġmodern": 3761,
      "Ġwells": 3762,
      "Ġintended": 3763,
      "Ġrespective": 3764,
      "Ġinfrastructure": 3765,
      "Ġrelative": 3766,
      "Ġwil": 3767,
      "ishing": 3768,
      "ari": 3769,
      "âĢĶ": 3770,
      "Ġstorage": 3771,
      "Ġfocused": 3772,
      "hood": 3773,
      "arks": 3774,
      "ota": 3775,
      "Ġphot": 3776,
      "Ġinstitute": 3777,
      "Ġque": 3778,
      "Ġadequate": 3779,
      "Ġextended": 3780,
      "aired": 3781,
      "ready": 3782,
      "Ġcharged": 3783,
      "Ġfiler": 3784,
      "Ġpopular": 3785,
      "Ġsongs": 3786,
      "Ġpharmaceutical": 3787,
      "comp": 3788,
      "Ġventure": 3789,
      "Ġactually": 3790,
      "Ġlu": 3791,
      "Ġadvant": 3792,
      "Ġmeasured": 3793,
      "Ġbgcolor": 3794,
      "Ġrent": 3795,
      "Ġapplied": 3796,
      "Ġgaap": 3797,
      "notes": 3798,
      "Ġunless": 3799,
      "Ġmarried": 3800,
      "Ġrental": 3801,
      "cription": 3802,
      "Ġhapp": 3803,
      "Ġlake": 3804,
      "Ġcompr": 3805,
      "can": 3806,
      "urring": 3807,
      "Ġmanufacturers": 3808,
      "Ġinsp": 3809,
      "Ġcapitalized": 3810,
      "Ġminister": 3811,
      "Ġjose": 3812,
      "ls": 3813,
      "Ġmad": 3814,
      "Ġconnect": 3815,
      "Ġgoods": 3816,
      "Ġsens": 3817,
      "Ġnumerous": 3818,
      "ext": 3819,
      "umni": 3820,
      "Ġintroduc": 3821,
      "cash": 3822,
      "lia": 3823,
      "organ": 3824,
      "Ġpac": 3825,
      "Ġweb": 3826,
      "Ġresid": 3827,
      "Ġminor": 3828,
      "---": 3829,
      "align": 3830,
      "Ġevaluating": 3831,
      "iii": 3832,
      "Ġdrive": 3833,
      "Ġquick": 3834,
      "Ġdefe": 3835,
      "hen": 3836,
      "Ġreasonably": 3837,
      "Ġlocations": 3838,
      "Ġcreate": 3839,
      "mental": 3840,
      "Ġmeaning": 3841,
      "Ġinnov": 3842,
      "Ġowners": 3843,
      "Ġsmaller": 3844,
      "Ġleverage": 3845,
      "Ġmel": 3846,
      "Ġcommunications": 3847,
      "ky": 3848,
      "Ġgoal": 3849,
      "Ġdollars": 3850,
      "olit": 3851,
      "Ġscient": 3852,
      "Ġfest": 3853,
      "Ġproviders": 3854,
      "lant": 3855,
      "Ġcapt": 3856,
      "Ġgoals": 3857,
      "qual": 3858,
      "aign": 3859,
      "owned": 3860,
      "Ġlarger": 3861,
      "Ġess": 3862,
      "retion": 3863,
      "Ġpenalties": 3864,
      "Ġbuy": 3865,
      "emn": 3866,
      "Ġfort": 3867,
      "Ġtransm": 3868,
      "Ġvoting": 3869,
      "etting": 3870,
      "Ġvesting": 3871,
      "Ġmanaged": 3872,
      "Ġpipeline": 3873,
      "Ġvoc": 3874,
      "outh": 3875,
      "iana": 3876,
      "Ġip": 3877,
      "get": 3878,
      "Ġsusp": 3879,
      "Ġbooks": 3880,
      "more": 3881,
      "Ġchap": 3882,
      "Ġchanged": 3883,
      "Ġchannel": 3884,
      "Ġdeemed": 3885,
      "Ġdirected": 3886,
      "Ġunderwrit": 3887,
      "ij": 3888,
      "urrent": 3889,
      "Ġwall": 3890,
      "Ġdates": 3891,
      "Ġalready": 3892,
      "Ġcategory": 3893,
      "Ġcontent": 3894,
      "Ġresponsibility": 3895,
      "Ġdeveloping": 3896,
      "Ġthomas": 3897,
      "Ġreform": 3898,
      "hl": 3899,
      "Ġstations": 3900,
      "Ġrace": 3901,
      "lim": 3902,
      "Ġprovince": 3903,
      "Ġcontingent": 3904,
      "Ġtal": 3905,
      "ym": 3906,
      "Ġmach": 3907,
      "Ġdebut": 3908,
      "ream": 3909,
      "Ġversus": 3910,
      "Ġfle": 3911,
      "Ġshows": 3912,
      "benef": 3913,
      "Ġwrote": 3914,
      "Ġmove": 3915,
      "Ġreferred": 3916,
      "Ġensure": 3917,
      "Ġdependent": 3918,
      "Ġasia": 3919,
      "fl": 3920,
      "omb": 3921,
      "Ġmaybe": 3922,
      "Ġoriginally": 3923,
      "Ġawarded": 3924,
      "employ": 3925,
      "Ġprocesses": 3926,
      "Ġesc": 3927,
      "aker": 3928,
      "Ġangel": 3929,
      "Ġfluctuations": 3930,
      "yr": 3931,
      "Ġke": 3932,
      "imes": 3933,
      "razil": 3934,
      "state": 3935,
      "Ġattempt": 3936,
      "Ġvolumes": 3937,
      "Ġseeing": 3938,
      "Ġhen": 3939,
      "ebted": 3940,
      "Ġbehalf": 3941,
      "chan": 3942,
      "emember": 3943,
      "Ġrather": 3944,
      "airs": 3945,
      "Ġobtained": 3946,
      "Ġliving": 3947,
      "Ġindebted": 3948,
      "Ġschools": 3949,
      "Ġtv": 3950,
      "Ġpreparation": 3951,
      "Ġrailway": 3952,
      "interest": 3953,
      "ffer": 3954,
      "Ġletter": 3955,
      "une": 3956,
      "Ġcovenants": 3957,
      "Ġcumulative": 3958,
      "Ġdespite": 3959,
      "ald": 3960,
      "Ġ%.": 3961,
      "Ġtheat": 3962,
      "Ġattack": 3963,
      "ead": 3964,
      "Ġhedge": 3965,
      "Ġthus": 3966,
      "Ġlear": 3967,
      "Ġconstitut": 3968,
      "Ġself": 3969,
      "ided": 3970,
      "Ġimmediately": 3971,
      "Ġindebtedness": 3972,
      "Ġsatisf": 3973,
      "band": 3974,
      "Ġindividuals": 3975,
      "pret": 3976,
      "doll": 3977,
      "Ġnegot": 3978,
      "Ġunf": 3979,
      "value": 3980,
      "Ġpolice": 3981,
      "Ġoccurred": 3982,
      "...": 3983,
      "Ġindustries": 3984,
      "elines": 3985,
      "Ġjudgment": 3986,
      "Ġinherent": 3987,
      "Ġoffices": 3988,
      "Ġsam": 3989,
      "Ġask": 3990,
      "Ġdefic": 3991,
      "Ġrevers": 3992,
      "Ġteach": 3993,
      "âĢĿ": 3994,
      "Ġfrank": 3995,
      "Ġimprovement": 3996,
      "ids": 3997,
      "Ġgovernance": 3998,
      "Ġoh": 3999,
      "Ġscott": 4000,
      "Ġanticipate": 4001,
      "Ġsites": 4002,
      "place": 4003,
      "Ġinvestor": 4004,
      "Ġvary": 4005,
      "Ġfiling": 4006,
      "Ġparticipants": 4007,
      "Ġstraight": 4008,
      "Ġfinished": 4009,
      "Ġbody": 4010,
      "Ġdemon": 4011,
      "Ġmanner": 4012,
      "wa": 4013,
      "Ġmonthly": 4014,
      "ledge": 4015,
      "Ġalbums": 4016,
      "Ġplaced": 4017,
      "Ġcampaign": 4018,
      "Ġroom": 4019,
      "Ġlove": 4020,
      "Ġarg": 4021,
      "Ġmeans": 4022,
      "eg": 4023,
      "Ġfounded": 4024,
      "Ġsr": 4025,
      "Ġinitiatives": 4026,
      "Ġterrit": 4027,
      "Ġaudits": 4028,
      "reat": 4029,
      "Ġremained": 4030,
      "insurance": 4031,
      "Ġhistoric": 4032,
      "Ġgir": 4033,
      "Ġwrite": 4034,
      "Ġupdate": 4035,
      "Ġsets": 4036,
      "Ġtemporary": 4037,
      "Ġarchitect": 4038,
      "Ġdefend": 4039,
      "Ġplease": 4040,
      "amb": 4041,
      "Ġgeorg": 4042,
      "Ġimpaired": 4043,
      "Ġcomputer": 4044,
      "Ġshall": 4045,
      "Ġsubord": 4046,
      "Ġcommunities": 4047,
      "Ġreclass": 4048,
      "mo": 4049,
      "Ġgar": 4050,
      "Ġlanguage": 4051,
      "ites": 4052,
      "ray": 4053,
      "where": 4054,
      "elve": 4055,
      "Ġeastern": 4056,
      "Ġremed": 4057,
      "Ġbattle": 4058,
      "my": 4059,
      "iency": 4060,
      "Ġblock": 4061,
      "Ġnight": 4062,
      "Ġvirginia": 4063,
      "Ġpain": 4064,
      "respond": 4065,
      "hi": 4066,
      "ifications": 4067,
      "Ġentergy": 4068,
      "well": 4069,
      "Ġpurpose": 4070,
      "road": 4071,
      "ensus": 4072,
      "Ġspecif": 4073,
      "Ġcomparable": 4074,
      "Ġdesignated": 4075,
      "Ġele": 4076,
      "Ġquestions": 4077,
      "known": 4078,
      "iated": 4079,
      "oring": 4080,
      "Ġconserv": 4081,
      "market": 4082,
      "Ġinvestig": 4083,
      "Ġquarters": 4084,
      "benefit": 4085,
      "Ġexcluding": 4086,
      "Ġ========": 4087,
      "Ġeffectively": 4088,
      "Ġafrica": 4089,
      "Ġgall": 4090,
      "Ġpand": 4091,
      "Ġnoted": 4092,
      "Ġchinese": 4093,
      "Ġdescription": 4094,
      "Ġeligible": 4095,
      "ength": 4096,
      "Ġobserv": 4097,
      "Ġmont": 4098,
      "atri": 4099,
      "Ġindemn": 4100,
      "aud": 4101,
      "dic": 4102,
      "Ġaway": 4103,
      "Ġinterpret": 4104,
      "Ġpaper": 4105,
      "Ġremains": 4106,
      "oming": 4107,
      "ester": 4108,
      "Ġmulti": 4109,
      "Ġroman": 4110,
      "Ġtourn": 4111,
      "rain": 4112,
      "Ġdaugh": 4113,
      "Ġvote": 4114,
      "Ġbroadcast": 4115,
      "Ġcoming": 4116,
      "Ġtom": 4117,
      "Ġdoing": 4118,
      "Ġtwelve": 4119,
      "Ġwholly": 4120,
      "Ġcongress": 4121,
      "Ġcorrespond": 4122,
      "Ġide": 4123,
      "Ġchain": 4124,
      "iture": 4125,
      "Ġsecretary": 4126,
      "Ġemb": 4127,
      "Ġwhose": 4128,
      "Ġimproved": 4129,
      "Ġoperated": 4130,
      "Ġallocated": 4131,
      "aware": 4132,
      "Ġcut": 4133,
      "Ġconver": 4134,
      "Ġforces": 4135,
      "Ġbad": 4136,
      "Ġshown": 4137,
      "list": 4138,
      "oma": 4139,
      "Ġwhole": 4140,
      "Ġgrowing": 4141,
      "Ġbring": 4142,
      "perform": 4143,
      "nor": 4144,
      "Ġnegatively": 4145,
      "Ġmagaz": 4146,
      "Ġadvanced": 4147,
      "Ġconv": 4148,
      "Ġmatter": 4149,
      "etters": 4150,
      "Ġom": 4151,
      "Ġasp": 4152,
      "Ġworldwide": 4153,
      "lands": 4154,
      "Ġ#": 4155,
      "ylv": 4156,
      "Ġwid": 4157,
      "Ġ----": 4158,
      "ught": 4159,
      "liament": 4160,
      "Ġalex": 4161,
      "Ġcorrect": 4162,
      "Ġproduce": 4163,
      "erved": 4164,
      "Ġdeclared": 4165,
      "bon": 4166,
      "apt": 4167,
      "Ġspread": 4168,
      "ancy": 4169,
      "Ġinterim": 4170,
      "Ġjapanese": 4171,
      "Ġredemption": 4172,
      "vey": 4173,
      "Ġpractice": 4174,
      "Ġacademy": 4175,
      "Ġnotice": 4176,
      "Ġsubsequently": 4177,
      "face": 4178,
      "Ġrank": 4179,
      "Ġrh": 4180,
      "Ġdevices": 4181,
      "Ġkore": 4182,
      "dd": 4183,
      "Ġdur": 4184,
      "wer": 4185,
      "cement": 4186,
      "Ġdemonstr": 4187,
      "Ġmicro": 4188,
      "Ġwide": 4189,
      "Ġcharles": 4190,
      "center": 4191,
      "Ġfurn": 4192,
      "ĠâĢľ": 4193,
      "lear": 4194,
      "Ġdone": 4195,
      "Ġowner": 4196,
      "Ġcarried": 4197,
      "Ġarts": 4198,
      "reen": 4199,
      "Ġcommodity": 4200,
      "Ġinitially": 4201,
      "gar": 4202,
      "eration": 4203,
      "ictions": 4204,
      "inn": 4205,
      "Ġreb": 4206,
      "Ġframework": 4207,
      "Ġmand": 4208,
      "................................": 4209,
      "Ġliter": 4210,
      "Ġkeep": 4211,
      "Ġfootballers": 4212,
      "Ġslow": 4213,
      "har": 4214,
      "Ġspecifically": 4215,
      "Ġbrown": 4216,
      "ecially": 4217,
      "tract": 4218,
      "iers": 4219,
      "roll": 4220,
      "era": 4221,
      "Ġnar": 4222,
      "company": 4223,
      "Ġrelevant": 4224,
      "Ġconsulting": 4225,
      "Ġintegrated": 4226,
      "Ġfeet": 4227,
      "Ġarrangement": 4228,
      "bb": 4229,
      "rought": 4230,
      "ketball": 4231,
      "Ġsmith": 4232,
      "rael": 4233,
      "Ġalumni": 4234,
      "Ġvend": 4235,
      "Ġvia": 4236,
      "ylvania": 4237,
      "Ġdemocr": 4238,
      "Ġchart": 4239,
      "Ġrein": 4240,
      "Ġbreak": 4241,
      "eas": 4242,
      "Ġintend": 4243,
      "ques": 4244,
      "Ġcorn": 4245,
      "Ġevaluate": 4246,
      "orter": 4247,
      "Ġraw": 4248,
      "lit": 4249,
      "odes": 4250,
      "ano": 4251,
      "self": 4252,
      "Ġcalculated": 4253,
      "Ġblo": 4254,
      "Ġstatutory": 4255,
      "viously": 4256,
      "mus": 4257,
      "Ġbrazil": 4258,
      "Ġculture": 4259,
      "Ġwife": 4260,
      "Ġmit": 4261,
      "Ġprohib": 4262,
      "Ġreli": 4263,
      "Ġfight": 4264,
      "Ġdamage": 4265,
      "controlling": 4266,
      "Ġletters": 4267,
      "Ġtranslation": 4268,
      "Ġzeal": 4269,
      "Ġexternal": 4270,
      "Ġdetermination": 4271,
      "Ġapply": 4272,
      "Ġprepared": 4273,
      "Ġinstead": 4274,
      "Ġtowns": 4275,
      "Ġparliament": 4276,
      "Ġlibr": 4277,
      "Ġfa": 4278,
      "ansas": 4279,
      "Ġdoubt": 4280,
      "Ġafrican": 4281,
      "Ġaccr": 4282,
      "Ġprobably": 4283,
      "Ġprojected": 4284,
      "Ġmother": 4285,
      "za": 4286,
      "secured": 4287,
      "Ġvalley": 4288,
      "Ġpotentially": 4289,
      "Ġintroduced": 4290,
      "Ġallows": 4291,
      "retirement": 4292,
      "sa": 4293,
      "Ġsand": 4294,
      "Ġtor": 4295,
      "Ġgrants": 4296,
      "ete": 4297,
      "ask": 4298,
      "Ġshareholder": 4299,
      "Ġoffered": 4300,
      "igan": 4301,
      "Ġmaturities": 4302,
      "Ġpeak": 4303,
      "Ġlack": 4304,
      "Ġtotaled": 4305,
      "Ġgradu": 4306,
      "Ġlegisl": 4307,
      "Ġdrilling": 4308,
      "aily": 4309,
      "Ġsea": 4310,
      "ew": 4311,
      "Ġenterprise": 4312,
      "Ġplanning": 4313,
      "stand": 4314,
      "Ġconsisted": 4315,
      "Ġassemb": 4316,
      "Ġinstitution": 4317,
      "'m": 4318,
      "Ġspending": 4319,
      "Ġperforming": 4320,
      "Ġbreach": 4321,
      "Ġofferings": 4322,
      "Ġpatient": 4323,
      "Ġcentre": 4324,
      "Ġzealand": 4325,
      "ireland": 4326,
      "united": 4327,
      "sylvania": 4328,
      "Ġcenters": 4329,
      "Ġmobile": 4330,
      "Ġespecially": 4331,
      "stat": 4332,
      "Ġcarolina": 4333,
      "Ġbonds": 4334,
      "Ġdifference": 4335,
      "Ġ(-": 4336,
      "Ġcontribution": 4337,
      "Ġsure": 4338,
      "Ġreached": 4339,
      "Ġaccur": 4340,
      "water": 4341,
      "Ġtradem": 4342,
      "Ġrapid": 4343,
      "Ġknowledge": 4344,
      "Ġidentify": 4345,
      "Ġcredits": 4346,
      "Ġdetermining": 4347,
      "Ġsuffer": 4348,
      "Ġderived": 4349,
      "Ġmethods": 4350,
      "Ġcertificate": 4351,
      "Ġmut": 4352,
      "ĠâĢĵ,": 4353,
      "recogn": 4354,
      "Ġhotel": 4355,
      "Ġallowed": 4356,
      "aves": 4357,
      "ession": 4358,
      "Ġtransferred": 4359,
      "Ġjew": 4360,
      "Ġ(.)": 4361,
      "Ġissuer": 4362,
      "ancing": 4363,
      "Ġliber": 4364,
      "Ġplanned": 4365,
      "Ġbirth": 4366,
      "Ġhur": 4367,
      "dec": 4368,
      "Ġhedging": 4369,
      "ersey": 4370,
      "Ġcarryfor": 4371,
      "Ġdyn": 4372,
      "Ġexpire": 4373,
      "Ġordinary": 4374,
      "Ġpermitted": 4375,
      "Ġinventories": 4376,
      "Ġnd": 4377,
      "pres": 4378,
      "Ġforest": 4379,
      "ulf": 4380,
      "ny": 4381,
      "Ġentertain": 4382,
      "Ġprime": 4383,
      "Ġfig": 4384,
      "etic": 4385,
      "Ġnames": 4386,
      "Ġcouple": 4387,
      "Ġbridge": 4388,
      "Ġ.%.": 4389,
      "Ġparticipation": 4390,
      "Ġblue": 4391,
      "Ġguitar": 4392,
      "Ġexploration": 4393,
      "Ġid": 4394,
      "Ġrussian": 4395,
      "sen": 4396,
      "Ġpennsylvania": 4397,
      "Ġbonus": 4398,
      "Ġnuc": 4399,
      "Ġlegislation": 4400,
      "Ġadvance": 4401,
      "Ġfeel": 4402,
      "Ġdelaware": 4403,
      "Ġretained": 4404,
      "Ġtowards": 4405,
      "Ġdaily": 4406,
      "Ġmakes": 4407,
      "ductions": 4408,
      "Ġreviews": 4409,
      "Ġvested": 4410,
      "Ġmechan": 4411,
      "Ġpremiums": 4412,
      "Ġfestival": 4413,
      "ye": 4414,
      "Ġpacific": 4415,
      "law": 4416,
      "Ġexercised": 4417,
      "Ġcommand": 4418,
      "ini": 4419,
      "Ġalways": 4420,
      "point": 4421,
      "Ġnine": 4422,
      "Ġlicens": 4423,
      "Ġcomment": 4424,
      "Ġforms": 4425,
      "Ġgun": 4426,
      "Ġsant": 4427,
      "john": 4428,
      "agn": 4429,
      "Ġstrategies": 4430,
      "Ġraise": 4431,
      "Ġdamages": 4432,
      "unction": 4433,
      "eto": 4434,
      "Ġbrands": 4435,
      "Ġpret": 4436,
      "icago": 4437,
      "Ġsoon": 4438,
      "Ġsuperv": 4439,
      "Ġassembly": 4440,
      "Ġfollowed": 4441,
      "Ġsubordinated": 4442,
      "Ġcommitment": 4443,
      "Ġmanaging": 4444,
      "ips": 4445,
      "Ġengaged": 4446,
      "Ġunp": 4447,
      "Ġadvantage": 4448,
      "Ġquoted": 4449,
      "Ġpending": 4450,
      "vested": 4451,
      "Ġscheduled": 4452,
      "Ġrepresenting": 4453,
      "Ġeconomy": 4454,
      "ole": 4455,
      "Ġlabel": 4456,
      "Ġathlet": 4457,
      "Ġms": 4458,
      "Ġroute": 4459,
      "Ġexpl": 4460,
      "iration": 4461,
      "Ġreflects": 4462,
      "Ġleader": 4463,
      "Ġultim": 4464,
      "note": 4465,
      "ita": 4466,
      "Ġrefin": 4467,
      "Ġfranchise": 4468,
      "Ġbrought": 4469,
      "Ġgave": 4470,
      "Ġdisease": 4471,
      "Ġroyalty": 4472,
      "isable": 4473,
      "Ġdocuments": 4474,
      "Ġmanufacture": 4475,
      "inois": 4476,
      "Ġlicenses": 4477,
      "pped": 4478,
      "ously": 4479,
      "Ġmaintaining": 4480,
      "aming": 4481,
      "Ġchampionships": 4482,
      "ko": 4483,
      "Ġbroker": 4484,
      "Ġsurv": 4485,
      "Ġhistorically": 4486,
      "Ġplants": 4487,
      "Ġitalian": 4488,
      "enders": 4489,
      "Ġolympics": 4490,
      "Ġsort": 4491,
      "person": 4492,
      "Ġhighest": 4493,
      "Ġlending": 4494,
      "Ġimplementation": 4495,
      "ricult": 4496,
      "Ġartists": 4497,
      "Ġfoundation": 4498,
      "=#": 4499,
      "Ġvan": 4500,
      "Ġlength": 4501,
      "Ġconcluded": 4502,
      "Ġtournament": 4503,
      "istry": 4504,
      "board": 4505,
      "Ġforfe": 4506,
      "Ġallocation": 4507,
      "Ġjersey": 4508,
      "Ġstarting": 4509,
      "ales": 4510,
      "Ġutility": 4511,
      "Ġpeter": 4512,
      "Ġappeared": 4513,
      "crib": 4514,
      "ena": 4515,
      "Ġbox": 4516,
      "Ġexhibits": 4517,
      "Ġdepending": 4518,
      "ola": 4519,
      "Ġtell": 4520,
      "fc": 4521,
      "recognized": 4522,
      "Ġjurisdictions": 4523,
      "Ġcandidate": 4524,
      "Ġweather": 4525,
      "Ġlawsu": 4526,
      "ych": 4527,
      "usion": 4528,
      "Ġmovement": 4529,
      "Ġsugg": 4530,
      "Ġkm": 4531,
      "dollars": 4532,
      "Ġannually": 4533,
      "Ġ+": 4534,
      "Ġven": 4535,
      "rich": 4536,
      "Ġwire": 4537,
      "Ġtoo": 4538,
      "Ġalmost": 4539,
      "Ġdecisions": 4540,
      "Ġrichard": 4541,
      "Ġcapabilities": 4542,
      "Ġuncertainty": 4543,
      "Ġgod": 4544,
      "oles": 4545,
      "under": 4546,
      "Ġdelivered": 4547,
      "Ġsuggest": 4548,
      "current": 4549,
      "Ġpandemic": 4550,
      "Ġcancer": 4551,
      "Ġindirect": 4552,
      "Ġrelatively": 4553,
      "Ġkar": 4554,
      "Ġbasketball": 4555,
      "inct": 4556,
      "Ġfeature": 4557,
      "top": 4558,
      "Ġcharter": 4559,
      "Ġlink": 4560,
      "Ġhit": 4561,
      "daq": 4562,
      "Ġmoving": 4563,
      "Ġgh": 4564,
      "Ġmodels": 4565,
      "Ġultimately": 4566,
      "Ġchemical": 4567,
      "Ġfemale": 4568,
      "Ġreimbursement": 4569,
      "Ġahead": 4570,
      "Ġheadqu": 4571,
      "Ġinstruct": 4572,
      "Ġreplaced": 4573,
      "Ġbankrupt": 4574,
      "Ġcolumb": 4575,
      "Ġsupplemental": 4576,
      "Ġplaying": 4577,
      "utes": 4578,
      "edy": 4579,
      "Ġ=": 4580,
      "Ġneeded": 4581,
      "win": 4582,
      "this": 4583,
      "rated": 4584,
      "cap": 4585,
      "sured": 4586,
      "Ġweeks": 4587,
      "don": 4588,
      "amily": 4589,
      "action": 4590,
      "olf": 4591,
      "tar": 4592,
      "Ġleased": 4593,
      "Ġclean": 4594,
      "bour": 4595,
      "ja": 4596,
      "iber": 4597,
      "sm": 4598,
      "Ġexercisable": 4599,
      "Ġconcer": 4600,
      "Ġwhom": 4601,
      "Ġgeorgia": 4602,
      "Ġepisode": 4603,
      "Ġisrael": 4604,
      "idae": 4605,
      "Ġdefense": 4606,
      "Ġohio": 4607,
      "Ġunsecured": 4608,
      "Ġgovernmental": 4609,
      "ella": 4610,
      "Ġlad": 4611,
      "roy": 4612,
      "Ġdaughter": 4613,
      "Ġbrother": 4614,
      "Ġcolon": 4615,
      "Ġcomprised": 4616,
      "rate": 4617,
      "Ġconform": 4618,
      "Ġelse": 4619,
      "draw": 4620,
      "Ġperiodic": 4621,
      "Ġillinois": 4622,
      "Ġreput": 4623,
      "Ġextension": 4624,
      "Ġunrecognized": 4625,
      "class": 4626,
      "Ġevol": 4627,
      "asc": 4628,
      "aly": 4629,
      "appro": 4630,
      "Ġcensus": 4631,
      "eds": 4632,
      "Ġhyd": 4633,
      "Ġusually": 4634,
      "Ġobviously": 4635,
      "Ġgard": 4636,
      "Ġearth": 4637,
      "urs": 4638,
      "ala": 4639,
      "Ġindepend": 4640,
      "Ġ------------": 4641,
      "Ġsquad": 4642,
      "Ġtenn": 4643,
      "Ġpool": 4644,
      "Ġnumbers": 4645,
      "Ġshipp": 4646,
      "Ġdisposal": 4647,
      "Ġmining": 4648,
      "Ġterminated": 4649,
      "Ġcd": 4650,
      "uan": 4651,
      "Ġenact": 4652,
      "Ġlaunched": 4653,
      "Ġamendments": 4654,
      "Ġtherap": 4655,
      "Ġrelig": 4656,
      "Ġtransl": 4657,
      "Ġconsolidation": 4658,
      "Ġireland": 4659,
      "Ġagricult": 4660,
      "elled": 4661,
      "Ġchicago": 4662,
      "Ġaudited": 4663,
      "Ġhimself": 4664,
      "Ġvehicles": 4665,
      "Ġredeem": 4666,
      "ruption": 4667,
      "Ġworkers": 4668,
      "Ġinvolve": 4669,
      "Ġcertification": 4670,
      "Ġconverted": 4671,
      "Ġmission": 4672,
      "Ġscr": 4673,
      "Ġclient": 4674,
      "Ġpreced": 4675,
      "Ġmount": 4676,
      "Ġsilver": 4677,
      "Ġhom": 4678,
      "active": 4679,
      "Ġrecomm": 4680,
      "Ġkh": 4681,
      "Ġreinsurance": 4682,
      "ills": 4683,
      "Ġgra": 4684,
      "ipl": 4685,
      "Ġvehicle": 4686,
      "rey": 4687,
      "Ġny": 4688,
      "Ġprofessor": 4689,
      "ething": 4690,
      "Ġartist": 4691,
      "Ġconsumers": 4692,
      "Ġanc": 4693,
      "Ġhousing": 4694,
      "Ġvictor": 4695,
      "stock": 4696,
      "Ġcalcul": 4697,
      "ura": 4698,
      "Ġmagazine": 4699,
      "Ġincorporation": 4700,
      "-(": 4701,
      "track": 4702,
      "Ġopening": 4703,
      "ĠÂ": 4704,
      "iences": 4705,
      "ki": 4706,
      "Ġpressure": 4707,
      "Ġmaintained": 4708,
      "-,": 4709,
      "Ġelements": 4710,
      "itation": 4711,
      "Ġnetworks": 4712,
      "Ġeventually": 4713,
      "Ġentertainment": 4714,
      "Ġceo": 4715,
      "Ġexpert": 4716,
      "Ġdiscretion": 4717,
      "Ġlie": 4718,
      "Ġdevice": 4719,
      "background": 4720,
      "aut": 4721,
      "Ġforecast": 4722,
      "ded": 4723,
      "ĠâĢĵ.": 4724,
      "Ġbow": 4725,
      "ilies": 4726,
      "bre": 4727,
      "Ġstay": 4728,
      "Ġlargely": 4729,
      "Ġmos": 4730,
      "Ġmineral": 4731,
      "manent": 4732,
      "Ġwaste": 4733,
      "Ġparis": 4734,
      "Ġphysical": 4735,
      "erman": 4736,
      "eph": 4737,
      "Ġnasdaq": 4738,
      "Ġsteel": 4739,
      "Ġcontributed": 4740,
      "spec": 4741,
      "log": 4742,
      "eed": 4743,
      "key": 4744,
      "Ġsafe": 4745,
      "Ġwel": 4746,
      "Ġjunior": 4747,
      "Ġelectronic": 4748,
      "Ġpath": 4749,
      "Ġfunded": 4750,
      "Ġwholes": 4751,
      "dered": 4752,
      "Ġlimits": 4753,
      "Ġfinally": 4754,
      "Ġdoct": 4755,
      "Ġadvances": 4756,
      "Ġequivalent": 4757,
      "Ġchristian": 4758,
      "Ġlibor": 4759,
      "rick": 4760,
      "mond": 4761,
      "gy": 4762,
      "viet": 4763,
      "Ġachieved": 4764,
      "Ġsubmitted": 4765,
      "Ġinfring": 4766,
      "Ġadm": 4767,
      "Ġlif": 4768,
      "Ġborrowing": 4769,
      "Ġmess": 4770,
      "Ġproblems": 4771,
      "ette": 4772,
      "Ġindependence": 4773,
      "Ġfrequent": 4774,
      "Ġschedules": 4775,
      "Ġclar": 4776,
      "pping": 4777,
      "Ġfra": 4778,
      "uit": 4779,
      "Ġatlant": 4780,
      "sale": 4781,
      "Ġtransmission": 4782,
      "Ġdelays": 4783,
      "Ġfunction": 4784,
      "Ġleadership": 4785,
      "Ġsimp": 4786,
      "Ġgeographic": 4787,
      "Ġox": 4788,
      "Ġextensive": 4789,
      "ricket": 4790,
      "Ġexpanded": 4791,
      "theast": 4792,
      "average": 4793,
      "early": 4794,
      "Ġ-)": 4795,
      "Ġthereafter": 4796,
      "Ġserving": 4797,
      "orney": 4798,
      "Ġtheatre": 4799,
      "Ġsomething": 4800,
      "Ġhenry": 4801,
      "Ġguarantee": 4802,
      "agement": 4803,
      "Ġspent": 4804,
      "Ġpil": 4805,
      "selves": 4806,
      "isco": 4807,
      "Ġdepends": 4808,
      "Ġpermanent": 4809,
      "Ġpretty": 4810,
      "Ġmanagements": 4811,
      "ners": 4812,
      "Ġoptim": 4813,
      "Ġlibrary": 4814,
      "oid": 4815,
      "cs": 4816,
      "Ġlicensed": 4817,
      "Ġslight": 4818,
      "Ġmodified": 4819,
      "Ġoffers": 4820,
      "Ġbankruptcy": 4821,
      "va": 4822,
      "Ġsomet": 4823,
      "Ġscope": 4824,
      "hire": 4825,
      "Ġjudgments": 4826,
      "las": 4827,
      "rs": 4828,
      "Ġgovernor": 4829,
      "ockey": 4830,
      "Ġangeles": 4831,
      "Ġpow": 4832,
      "Ġrely": 4833,
      "Ġwalk": 4834,
      "Ġdouble": 4835,
      "Ġhours": 4836,
      "itable": 4837,
      "ican": 4838,
      "iced": 4839,
      "hu": 4840,
      "Ġcatholic": 4841,
      "Ġbehind": 4842,
      "Ġlas": 4843,
      "Ġultimate": 4844,
      "ental": 4845,
      "Ġrespond": 4846,
      "Ġaccrual": 4847,
      "Ġspring": 4848,
      "icated": 4849,
      "Ġtem": 4850,
      "Ġselect": 4851,
      "Ġprec": 4852,
      "Ġoutcome": 4853,
      "Ġec": 4854,
      "Ġregions": 4855,
      "Ġpresents": 4856,
      "etts": 4857,
      "Ġconj": 4858,
      "Ġestablishments": 4859,
      "Ġstudio": 4860,
      "Ġscot": 4861,
      "mod": 4862,
      "Ġrd": 4863,
      "Ġcomments": 4864,
      "Ġmov": 4865,
      "Ġwat": 4866,
      "Ġstudent": 4867,
      "Ġswap": 4868,
      "Ġattorney": 4869,
      "Ġdeploy": 4870,
      "Ġfleet": 4871,
      "Ġclo": 4872,
      "lam": 4873,
      "Ġsinger": 4874,
      "Ġspanish": 4875,
      "Ġairport": 4876,
      "Ġitaly": 4877,
      "Ġfer": 4878,
      "Ġsalary": 4879,
      "Ġtext": 4880,
      "ains": 4881,
      "Ġreductions": 4882,
      "achus": 4883,
      "Ġpolitician": 4884,
      "Ġbanc": 4885,
      "Ġtraded": 4886,
      "Ġsequ": 4887,
      "Ġprobable": 4888,
      "Ġservicing": 4889,
      "Ġreit": 4890,
      "Ġkilled": 4891,
      "oke": 4892,
      "ken": 4893,
      "Ġinstrument": 4894,
      "je": 4895,
      "ho": 4896,
      "Ġpublicly": 4897,
      "fa": 4898,
      "Ġflex": 4899,
      "Ġtier": 4900,
      "istan": 4901,
      "iro": 4902,
      "//": 4903,
      "Ġmine": 4904,
      "Ġjr": 4905,
      "from": 4906,
      "offs": 4907,
      "Ġmilest": 4908,
      "left": 4909,
      "Ġheart": 4910,
      "Ġminim": 4911,
      "gal": 4912,
      "Ġcrim": 4913,
      "Ġswed": 4914,
      "encing": 4915,
      "Ġdevelopments": 4916,
      "Ġnavy": 4917,
      "Ġcollaboration": 4918,
      "Ġhop": 4919,
      "Ġcommitted": 4920,
      "like": 4921,
      "ien": 4922,
      "Ġnuclear": 4923,
      "Ġarising": 4924,
      "Ġitself": 4925,
      "Ġfunctions": 4926,
      "hab": 4927,
      ");": 4928,
      "Ġwriting": 4929,
      "Ġdro": 4930,
      "Ġcarryforwards": 4931,
      "Ġsolid": 4932,
      "Ġmainly": 4933,
      "Ġdecided": 4934,
      "pan": 4935,
      "Ġdie": 4936,
      "ishop": 4937,
      "Ġmartin": 4938,
      "Ġconfir": 4939,
      "Ġbecomes": 4940,
      "achusetts": 4941,
      "Ġobjectives": 4942,
      "Ġevaluated": 4943,
      "Ġemissions": 4944,
      "Ġmeasurements": 4945,
      "Ġintegration": 4946,
      "Ġpermit": 4947,
      "Ġ-.": 4948,
      "Ġinvested": 4949,
      "orial": 4950,
      "Ġhousehold": 4951,
      "Ġedition": 4952,
      "gl": 4953,
      "Ġlenders": 4954,
      "Ġattention": 4955,
      "Ġcategories": 4956,
      "Ġsir": 4957,
      "Ġfairly": 4958,
      "Ġactress": 4959,
      "Ġgrew": 4960,
      "Ġassigned": 4961,
      "Ġproducer": 4962,
      "Ġdistributors": 4963,
      "file": 4964,
      "month": 4965,
      "Ġfish": 4966,
      "itting": 4967,
      "Ġinfluence": 4968,
      "Ġtotaling": 4969,
      "Ġemerging": 4970,
      "Ġsettled": 4971,
      "Ġamb": 4972,
      "Ġlicensing": 4973,
      "build": 4974,
      "miss": 4975,
      "Ġhaz": 4976,
      "Ġneigh": 4977,
      "Ġallowances": 4978,
      "Ġtakes": 4979,
      "Ġsaint": 4980,
      "Ġregistrants": 4981,
      "Ġcontingencies": 4982,
      "Ġmom": 4983,
      "Ġexpiration": 4984,
      "Ġflat": 4985,
      "Ġprepay": 4986,
      "atriate": 4987,
      "Ġfraud": 4988,
      "war": 4989,
      "Ġweakness": 4990,
      "Ġoversight": 4991,
      "Ġproved": 4992,
      "lements": 4993,
      "Ġthought": 4994,
      "Ġcooper": 4995,
      "Ġfeatured": 4996,
      "Ġdeter": 4997,
      "Ġic": 4998,
      "Ġencour": 4999,
      "Ġusers": 5000,
      "Ġrecording": 5001,
      "Ġcarr": 5002,
      "Ġclimate": 5003,
      "light": 5004,
      "trans": 5005,
      "ria": 5006,
      "Ġpick": 5007,
      "igence": 5008,
      "Ġunderwriting": 5009,
      "bridge": 5010,
      "Ġwild": 5011,
      "rem": 5012,
      "Ġparent": 5013,
      "Ġrussia": 5014,
      "Ġguys": 5015,
      "Ġjoining": 5016,
      "ugby": 5017,
      "Ġfred": 5018,
      "utive": 5019,
      "Ġholder": 5020,
      "Ġplacement": 5021,
      "Ġwriters": 5022,
      "Ġsex": 5023,
      "Ġconsisting": 5024,
      "Ġvac": 5025,
      "Ġreputation": 5026,
      "Ġmassachusetts": 5027,
      "Ġconstant": 5028,
      "Ġrunning": 5029,
      "Ġextend": 5030,
      "Ġmath": 5031,
      "Ġchanging": 5032,
      "Ġserves": 5033,
      "aving": 5034,
      "Ġsingles": 5035,
      "Ġparticipate": 5036,
      "Ġow": 5037,
      "Ġquickly": 5038,
      "Ġimplemented": 5039,
      "Ġdiss": 5040,
      "Ġsupporting": 5041,
      "Ġspeed": 5042,
      "agon": 5043,
      "Ġconsent": 5044,
      "bar": 5045,
      "Ġcritic": 5046,
      "Ġinflation": 5047,
      "stream": 5048,
      "iary": 5049,
      "Ġmotor": 5050,
      ";\"": 5051,
      "Ġib": 5052,
      "________________": 5053,
      "Ġaware": 5054,
      "Ġvess": 5055,
      "Ġcricket": 5056,
      "ser": 5057,
      "Ġtrend": 5058,
      "Ġgal": 5059,
      "Ġjoseph": 5060,
      "qualified": 5061,
      "Ġscale": 5062,
      "Ġpu": 5063,
      "Ġrepresentatives": 5064,
      "Ġrig": 5065,
      "Ġfamilies": 5066,
      "Ġcab": 5067,
      "Ġdeep": 5068,
      "met": 5069,
      "Ġlands": 5070,
      "Ġsplit": 5071,
      "Ġscientific": 5072,
      "Ġash": 5073,
      "Ġbecoming": 5074,
      "Ġislands": 5075,
      "Ġconcerning": 5076,
      "Ġlay": 5077,
      "Ġbaseball": 5078,
      ".:": 5079,
      "orm": 5080,
      "Ġko": 5081,
      "Ġdiscounted": 5082,
      "Ġtouch": 5083,
      "ows": 5084,
      "ecutive": 5085,
      "Ġguess": 5086,
      "Ġwinter": 5087,
      "Ġsupported": 5088,
      "Ġsecondary": 5089,
      "Ġclassification": 5090,
      "cer": 5091,
      "Ġintr": 5092,
      "Ġstructures": 5093,
      "Ġllp": 5094,
      "Ġwriter": 5095,
      "Ġreading": 5096,
      "vals": 5097,
      "look": 5098,
      "Ġkr": 5099,
      "Ġjack": 5100,
      "Ġobtaining": 5101,
      "Ġscored": 5102,
      "ns": 5103,
      "force": 5104,
      "aces": 5105,
      "Ġmichigan": 5106,
      "Ġeffort": 5107,
      "inating": 5108,
      "ider": 5109,
      "ounds": 5110,
      "Ġhockey": 5111,
      "Ġretired": 5112,
      "Ġconjunction": 5113,
      "cing": 5114,
      "Ġwoman": 5115,
      "stone": 5116,
      "Ġanth": 5117,
      "Ġreasons": 5118,
      "Ġdisclosed": 5119,
      "Ġefficiency": 5120,
      "ibles": 5121,
      "Ġpaint": 5122,
      "aded": 5123,
      "Ġjim": 5124,
      "Ġmanagers": 5125,
      "Ġdefinitive": 5126,
      "Ġreconcil": 5127,
      "ci": 5128,
      "Ġcer": 5129,
      "Ġstan": 5130,
      "Ġexclusive": 5131,
      "Ġsecure": 5132,
      "Ġago": 5133,
      "Ġtests": 5134,
      "Ġprepaid": 5135,
      "non": 5136,
      "Ġunique": 5137,
      "Ġempire": 5138,
      "Ġgetting": 5139,
      "cred": 5140,
      "iques": 5141,
      "Ġdetails": 5142,
      "Ġprincipally": 5143,
      "Ġwholesale": 5144,
      "vi": 5145,
      "Ġarticles": 5146,
      "Ġgraph": 5147,
      "Ġqualify": 5148,
      "endar": 5149,
      "Ġwanted": 5150,
      "Ġfunctional": 5151,
      "Ġsometimes": 5152,
      "star": 5153,
      "oly": 5154,
      "Ġsearch": 5155,
      "Ġtemp": 5156,
      "Ġvocals": 5157,
      "Ġot": 5158,
      "Ġschol": 5159,
      "Ġenforcement": 5160,
      "Ġvalued": 5161,
      "jan": 5162,
      "Ġraised": 5163,
      "Ġnation": 5164,
      "sequ": 5165,
      "Ġpict": 5166,
      "free": 5167,
      "backed": 5168,
      "ji": 5169,
      "Ġdoubtful": 5170,
      "Ġheavy": 5171,
      "Ġspecialty": 5172,
      "Ġrequirement": 5173,
      "Ġfc": 5174,
      "weight": 5175,
      "Ġseasons": 5176,
      "ounder": 5177,
      "Ġactor": 5178,
      "ilipp": 5179,
      "Ġelement": 5180,
      "career": 5181,
      "Ġbid": 5182,
      "Ġmedicare": 5183,
      "Ġventures": 5184,
      "ums": 5185,
      "Ġcommissions": 5186,
      "-.": 5187,
      "Ġdiagn": 5188,
      "Ġguidelines": 5189,
      "Ġsupplies": 5190,
      "Ġremo": 5191,
      "iffs": 5192,
      "Ġnearly": 5193,
      "'d": 5194,
      "iano": 5195,
      "Ġtelec": 5196,
      "Ġswaps": 5197,
      "bro": 5198,
      "Ġchallenges": 5199,
      "Ġcitiz": 5200,
      "Ġoperates": 5201,
      "urer": 5202,
      "Ġsurround": 5203,
      "Ġnewsp": 5204,
      "Ġwords": 5205,
      "family": 5206,
      "Ġplays": 5207,
      "life": 5208,
      "Ġnative": 5209,
      "Ġtopic": 5210,
      "Ġincremental": 5211,
      "ained": 5212,
      "Ġadvisory": 5213,
      "Ġmarine": 5214,
      "Ġcorresponding": 5215,
      "Ġretro": 5216,
      "Ġtar": 5217,
      "Ġblood": 5218,
      "Ġfifth": 5219,
      "Ġthereto": 5220,
      "Ġpi": 5221,
      "Ġprovider": 5222,
      "Ġcalculation": 5223,
      "Ġpattern": 5224,
      "Ġreducing": 5225,
      "Ġpostretirement": 5226,
      "Ġmunicipality": 5227,
      "Ġ..": 5228,
      "Ġheadquarters": 5229,
      "ira": 5230,
      "Ġvirt": 5231,
      "Ġrevised": 5232,
      "Ġhedges": 5233,
      "ati": 5234,
      "Ġtang": 5235,
      "Ġcalendar": 5236,
      "Ġfellow": 5237,
      "Ġpoet": 5238,
      "Ġdrugs": 5239,
      "Ġmonitoring": 5240,
      "Ġcolumbia": 5241,
      "Ġboy": 5242,
      "Ġcru": 5243,
      "enty": 5244,
      "Ġduke": 5245,
      "bel": 5246,
      "ora": 5247,
      "Ġsole": 5248,
      "Ġnoncontrolling": 5249,
      "Ġsatisfy": 5250,
      "Ġmetal": 5251,
      "Ġsummarizes": 5252,
      "Ġforced": 5253,
      "english": 5254,
      "Ġtraffic": 5255,
      "worth": 5256,
      "Ġenable": 5257,
      "Ġqualitative": 5258,
      "ato": 5259,
      "icted": 5260,
      "Ġprospects": 5261,
      "Ġdisput": 5262,
      "sub": 5263,
      "wan": 5264,
      "ifies": 5265,
      "Ġbear": 5266,
      "Ġpreceding": 5267,
      "Ġlisting": 5268,
      "Ġinvolving": 5269,
      "Ġfriend": 5270,
      "Ġlee": 5271,
      "Ġeveryone": 5272,
      "Ġhal": 5273,
      "ias": 5274,
      "Ġethics": 5275,
      "Ġborrower": 5276,
      "oral": 5277,
      "Ġcaptain": 5278,
      "Ġpsych": 5279,
      "Ġjurisdiction": 5280,
      "Ġutilize": 5281,
      "Ġmusical": 5282,
      "Ġaer": 5283,
      "che": 5284,
      "Ġfloor": 5285,
      "Ġburn": 5286,
      "Ġteleph": 5287,
      "Ġprison": 5288,
      "Ġ$,,,": 5289,
      "Ġkent": 5290,
      "Ġjob": 5291,
      "Ġice": 5292,
      "Ġlouisiana": 5293,
      "gian": 5294,
      "Ġye": 5295,
      "Ġjeff": 5296,
      "Ġunderstanding": 5297,
      "Ġcycle": 5298,
      "ux": 5299,
      "Ġgrade": 5300,
      "Ġvoice": 5301,
      "Ġmissing": 5302,
      "Ġstad": 5303,
      "Ġcontest": 5304,
      "Ġoccurs": 5305,
      "Ġengage": 5306,
      "Ġseverance": 5307,
      "gas": 5308,
      "Ġoppos": 5309,
      "Ġwithdraw": 5310,
      "Ġsymb": 5311,
      "Ġterminate": 5312,
      "Ġkong": 5313,
      "Ġmotion": 5314,
      "Ġseasonal": 5315,
      "Ġpresence": 5316,
      "she": 5317,
      "Ġwinning": 5318,
      "atures": 5319,
      "effect": 5320,
      "Ġsector": 5321,
      "Ġresolution": 5322,
      "Ġfactor": 5323,
      "Ġsurface": 5324,
      "bus": 5325,
      "Ġprofits": 5326,
      "pm": 5327,
      "Ġpron": 5328,
      "icts": 5329,
      "Ġattended": 5330,
      "aniel": 5331,
      "Ġjohnson": 5332,
      "Ġtrib": 5333,
      "Ġaven": 5334,
      "Ġwales": 5335,
      "there": 5336,
      "Ġreplacement": 5337,
      "foot": 5338,
      "elling": 5339,
      "Ġyouth": 5340,
      "Ġcreek": 5341,
      "Ġhus": 5342,
      "Ġagents": 5343,
      "iles": 5344,
      "Ġray": 5345,
      "zz": 5346,
      "Ġsport": 5347,
      "agre": 5348,
      "Ġscore": 5349,
      "Ġthousand": 5350,
      "Ġworth": 5351,
      "Ġusa": 5352,
      "Ġprofile": 5353,
      "stein": 5354,
      "Ġcrude": 5355,
      "Ġexpressed": 5356,
      "Ġreviewed": 5357,
      "Ġhonor": 5358,
      "Ġundert": 5359,
      "Ġboston": 5360,
      "pat": 5361,
      "Ġfurthermore": 5362,
      "omet": 5363,
      "Ġdrama": 5364,
      "Ġdead": 5365,
      "Ġspain": 5366,
      "aints": 5367,
      "Ġcertainly": 5368,
      "uate": 5369,
      "otive": 5370,
      "Ġreve": 5371,
      "town": 5372,
      "Ġpassed": 5373,
      "archy": 5374,
      "Ġtrail": 5375,
      "Ġsab": 5376,
      "has": 5377,
      "km": 5378,
      "Ġratings": 5379,
      "Ġmir": 5380,
      "Ġconsequ": 5381,
      "films": 5382,
      "elebr": 5383,
      "Ġhomes": 5384,
      "Ġjustice": 5385,
      "Ġram": 5386,
      "Ġbott": 5387,
      "Ġmerchand": 5388,
      "ros": 5389,
      "Ġlord": 5390,
      "Ġthing": 5391,
      "Ġmcc": 5392,
      "Ġguard": 5393,
      "Ġholds": 5394,
      "arian": 5395,
      "Ġintent": 5396,
      "Ġappeal": 5397,
      "ĊĠĊ": 5398,
      "Ġguarantees": 5399,
      "Ġnewly": 5400,
      "ingu": 5401,
      "Ġindenture": 5402,
      "shire": 5403,
      "Ġpul": 5404,
      "%)": 5405,
      "Ġfast": 5406,
      "Ġrepayment": 5407,
      "apeut": 5408,
      "elect": 5409,
      "Ġinvestigation": 5410,
      "Ġran": 5411,
      "Ġbass": 5412,
      "pop": 5413,
      "Ġenough": 5414,
      "tv": 5415,
      "Ġfal": 5416,
      "Ġsolution": 5417,
      "Ġseeking": 5418,
      "language": 5419,
      "Ġlatin": 5420,
      "Ġslightly": 5421,
      "hol": 5422,
      "Ġarab": 5423,
      "mat": 5424,
      "Ġcriminal": 5425,
      "Ġwireless": 5426,
      "Ġbeach": 5427,
      "Ġclasses": 5428,
      "hy": 5429,
      "Ġstone": 5430,
      "Ġrequiring": 5431,
      "kins": 5432,
      "Ġefficient": 5433,
      "Ġqualifying": 5434,
      "Ġdistributed": 5435,
      "roup": 5436,
      "ludes": 5437,
      "fs": 5438,
      "uar": 5439,
      "Ġdeterior": 5440,
      "Ġta": 5441,
      "Ġgiving": 5442,
      "Ġbacklog": 5443,
      "Ġpetro": 5444,
      "which": 5445,
      "Ġorch": 5446,
      "Ġhong": 5447,
      "resh": 5448,
      "Ġrestaurant": 5449,
      "Ġthreat": 5450,
      "Ġsrt": 5451,
      "Ġrural": 5452,
      "Ġoutlook": 5453,
      "Ġcharacters": 5454,
      "Ġmerc": 5455,
      "Ġruns": 5456,
      "Ġsoviet": 5457,
      "Ġaffairs": 5458,
      "enge": 5459,
      "Ġchannels": 5460,
      "vin": 5461,
      "Ġplaint": 5462,
      "Ġlegislative": 5463,
      "Ġalleged": 5464,
      "Ġ--------------------------------": 5465,
      "Ġprogramming": 5466,
      "dav": 5467,
      "Ġenhance": 5468,
      "bank": 5469,
      "Ġcells": 5470,
      "Ġbehav": 5471,
      "earing": 5472,
      "iencies": 5473,
      "Ġwhy": 5474,
      "Ġansw": 5475,
      "rad": 5476,
      "Ġthr": 5477,
      "fect": 5478,
      "Ġparish": 5479,
      "Ġdisposition": 5480,
      "Ġhier": 5481,
      "Ġenacted": 5482,
      "aled": 5483,
      "issipp": 5484,
      "disc": 5485,
      "recurring": 5486,
      "Ġprote": 5487,
      "Ġassistant": 5488,
      "Ġcelebr": 5489,
      "banes": 5490,
      "Ġsponsor": 5491,
      "Ġbell": 5492,
      "Ġphilos": 5493,
      "rian": 5494,
      "tw": 5495,
      "Ġirish": 5496,
      "Ġinability": 5497,
      "ram": 5498,
      "Ġaffiliate": 5499,
      "Ġfeed": 5500,
      "Ġowns": 5501,
      "obs": 5502,
      "Ġshot": 5503,
      "Ġlock": 5504,
      "Ġfdic": 5505,
      "than": 5506,
      "tm": 5507,
      "rical": 5508,
      "Ġbudget": 5509,
      "Ġprojections": 5510,
      "Ġsciences": 5511,
      "Ġcontact": 5512,
      "Ġutilized": 5513,
      "Ġproducing": 5514,
      "efin": 5515,
      "Ġsense": 5516,
      "Ġmu": 5517,
      "former": 5518,
      "Ġcloud": 5519,
      "bury": 5520,
      "Ġunderstand": 5521,
      "Ġobservable": 5522,
      "uge": 5523,
      "eman": 5524,
      "Ġspir": 5525,
      "Ġfab": 5526,
      "Ġorganic": 5527,
      "Ġphilipp": 5528,
      "Ġspect": 5529,
      "Ġsarbanes": 5530,
      "Ġdistinct": 5531,
      "olidated": 5532,
      "Ġrul": 5533,
      "Ġnev": 5534,
      "Ġappears": 5535,
      "Ġestablishing": 5536,
      "Ġterritory": 5537,
      "Ġdun": 5538,
      "Ġassessing": 5539,
      "Ġsym": 5540,
      "Ġmisstat": 5541,
      "Ġpronoun": 5542,
      "Ġshorter": 5543,
      "Ġfailed": 5544,
      "Ġacceptance": 5545,
      "azz": 5546,
      "Ġcollected": 5547,
      "Ġrespects": 5548,
      "Ġquantitative": 5549,
      "Ġvalid": 5550,
      "rison": 5551,
      "yan": 5552,
      "Ġtrustee": 5553,
      "Ġrecru": 5554,
      "Ġtechniques": 5555,
      "Ġhun": 5556,
      "Ġexists": 5557,
      "anda": 5558,
      "adel": 5559,
      "count": 5560,
      "Ġpermits": 5561,
      "Ġaffecting": 5562,
      "Ġemployed": 5563,
      "Ġunpaid": 5564,
      "Ġexceeds": 5565,
      "Ġtargets": 5566,
      "Ġdeclined": 5567,
      "awa": 5568,
      "Ġbrief": 5569,
      "Ġmig": 5570,
      "Ġpursue": 5571,
      "ression": 5572,
      "Ġpp": 5573,
      "Ġtrip": 5574,
      "Ġregiment": 5575,
      "Ġna": 5576,
      "Ġfriends": 5577,
      "Ġaz": 5578,
      "Ġcultural": 5579,
      "Ġapprovals": 5580,
      "Ġwarranty": 5581,
      "Ġmostly": 5582,
      "ading": 5583,
      "aust": 5584,
      "Ġvendors": 5585,
      "Ġacts": 5586,
      "urrence": 5587,
      "Ġmarketable": 5588,
      "riers": 5589,
      "tel": 5590,
      "Ġindefin": 5591,
      "enth": 5592,
      "unic": 5593,
      "Ġbol": 5594,
      "Ġelectricity": 5595,
      "oxley": 5596,
      "Ġdefeated": 5597,
      "Ġregulated": 5598,
      "Ġeditor": 5599,
      "iable": 5600,
      "Ġgulf": 5601,
      "Ġreorgan": 5602,
      "Ġelections": 5603,
      "Ġpartnerships": 5604,
      "Ġmatches": 5605,
      "Ġcommercialization": 5606,
      "Ġliquidation": 5607,
      "Ġ.*": 5608,
      "Ġmorgan": 5609,
      "oon": 5610,
      "Ġwilliams": 5611,
      "Ġsupplementary": 5612,
      "Ġpersp": 5613,
      "Ġ----------------": 5614,
      "Ġjer": 5615,
      "Ġinception": 5616,
      "Ġrelief": 5617,
      "Ġincl": 5618,
      "mich": 5619,
      "Ġjones": 5620,
      "Ġguest": 5621,
      "Ġbelieved": 5622,
      "Ġmiles": 5623,
      "Ġlived": 5624,
      "Ġformation": 5625,
      "Ġolder": 5626,
      "Ġinterview": 5627,
      "Ġways": 5628,
      "Ġimpacts": 5629,
      "Ġware": 5630,
      "lease": 5631,
      "andon": 5632,
      "astic": 5633,
      "Ġru": 5634,
      "Ġacceptable": 5635,
      "Ġrow": 5636,
      "Ġinterpretation": 5637,
      "asts": 5638,
      "Ġtools": 5639,
      "Ġcharacteristics": 5640,
      "rid": 5641,
      "dis": 5642,
      "Ġhighway": 5643,
      "Ġtherapeut": 5644,
      "Ġcopy": 5645,
      "bt": 5646,
      "idents": 5647,
      "Ġlp": 5648,
      "Ġspr": 5649,
      "fairvalue": 5650,
      "tim": 5651,
      "Ġprin": 5652,
      "Ġupgr": 5653,
      "Ġexpects": 5654,
      "Ġgoverning": 5655,
      "Ġpun": 5656,
      "Ġoccas": 5657,
      "Ġbab": 5658,
      "Ġtrying": 5659,
      "Ġfrancisco": 5660,
      "Ġparticipating": 5661,
      "Ġdemocratic": 5662,
      "Ġaspects": 5663,
      "Ġluc": 5664,
      "uction": 5665,
      "Ġos": 5666,
      "Ġdisplay": 5667,
      "Ġhung": 5668,
      "mc": 5669,
      "oy": 5670,
      "Ġprint": 5671,
      "Ġchallenge": 5672,
      "Ġavenue": 5673,
      "Ġships": 5674,
      "Ġtreated": 5675,
      "Ġupper": 5676,
      "Ġcontrolled": 5677,
      "prof": 5678,
      "emat": 5679,
      "Ġdestroy": 5680,
      "Ġstadium": 5681,
      "Ġterror": 5682,
      "Ġcomputed": 5683,
      "iga": 5684,
      "chester": 5685,
      "Ġsurvey": 5686,
      "Ġratios": 5687,
      "Ġdefer": 5688,
      "during": 5689,
      "Ġpap": 5690,
      "univers": 5691,
      "Ġly": 5692,
      "Ġborrowers": 5693,
      "Ġhydro": 5694,
      "Ġprize": 5695,
      "Ġrugby": 5696,
      "Ġcomplaint": 5697,
      "ble": 5698,
      "Ġsupre": 5699,
      "national": 5700,
      "Ġdedicated": 5701,
      "Ġrestaurants": 5702,
      "Ġchapter": 5703,
      "Ġsamp": 5704,
      "Ġukrain": 5705,
      "Ġgenerating": 5706,
      "Ġcolorado": 5707,
      "lude": 5708,
      "Ġexecution": 5709,
      "eli": 5710,
      "pet": 5711,
      "ema": 5712,
      "Ġbron": 5713,
      "tery": 5714,
      "inputs": 5715,
      "Ġeps": 5716,
      "Ġelsewhere": 5717,
      "itude": 5718,
      "Ġaim": 5719,
      "issippi": 5720,
      "Ġscreen": 5721,
      "cements": 5722,
      "Ġpublish": 5723,
      "mentmember": 5724,
      "Ġprotest": 5725,
      "Ġpoor": 5726,
      "Ġunknown": 5727,
      "issory": 5728,
      "Ġdebentures": 5729,
      "Ġqueen": 5730,
      "Ġsolar": 5731,
      "Ġscen": 5732,
      "Ġconsiders": 5733,
      "ruptions": 5734,
      "Ġrepresentative": 5735,
      "Ġsucceed": 5736,
      "Ġtermin": 5737,
      "Ġcin": 5738,
      "Ġcounsel": 5739,
      "Ġdraft": 5740,
      "riage": 5741,
      "Ġdim": 5742,
      "irst": 5743,
      "oo": 5744,
      "Ġak": 5745,
      "cies": 5746,
      "anth": 5747,
      "consolidated": 5748,
      "omen": 5749,
      "Ġexposed": 5750,
      "onomy": 5751,
      "Ġba": 5752,
      "Ġcovering": 5753,
      "Ġdenom": 5754,
      "Ġrevolution": 5755,
      "Ġoce": 5756,
      "Ġbrig": 5757,
      "teen": 5758,
      "Ġapart": 5759,
      "Ġtelephone": 5760,
      "ï¿½ï¿½ï¿½ï¿½ï¿½ï¿½ï¿½ï¿½": 5761,
      "Ġnations": 5762,
      "hr": 5763,
      "public": 5764,
      "Ġhab": 5765,
      "Ġtransform": 5766,
      "ouri": 5767,
      "Ġedward": 5768,
      "Ġtemper": 5769,
      "Ġpoll": 5770,
      "Ġchampion": 5771,
      "itu": 5772,
      "nesota": 5773,
      "bas": 5774,
      "Ġslide": 5775,
      "Ġresource": 5776,
      "add": 5777,
      "Ġped": 5778,
      "clin": 5779,
      "fairvalueinputs": 5780,
      "fairvalueinputslevel": 5781,
      "Ġconsultants": 5782,
      "Ġinjury": 5783,
      "iece": 5784,
      "Ġdynam": 5785,
      "Ġmoment": 5786,
      "Ġclubs": 5787,
      "onso": 5788,
      "affili": 5789,
      "Ġvictory": 5790,
      "Ġintell": 5791,
      "Ġpromissory": 5792,
      "Ġasian": 5793,
      "Ġlose": 5794,
      "Ġmanufacturer": 5795,
      "Ġreconciliation": 5796,
      "rease": 5797,
      "gs": 5798,
      "Ġmike": 5799,
      "Ġpros": 5800,
      "fully": 5801,
      "Ġgives": 5802,
      "Ġpoly": 5803,
      "Ġanalyst": 5804,
      "author": 5805,
      "================": 5806,
      "fund": 5807,
      "iel": 5808,
      "Ġfilings": 5809,
      "pay": 5810,
      "ua": 5811,
      "onsin": 5812,
      "Ġdark": 5813,
      "dem": 5814,
      "Ġrise": 5815,
      "Ġtrue": 5816,
      "Ġ)%": 5817,
      "Ġannivers": 5818,
      "Ġcastle": 5819,
      "arent": 5820,
      "Ġtun": 5821,
      "akers": 5822,
      "Ġtalked": 5823,
      "isconsin": 5824,
      "fort": 5825,
      "Ġdar": 5826,
      "Ġoperator": 5827,
      "burgh": 5828,
      "Ġiron": 5829,
      "Ġdismiss": 5830,
      "Ġcomedy": 5831,
      "fairvalueinputslevelmember": 5832,
      "Ġassign": 5833,
      "Ġdod": 5834,
      "Ġreliability": 5835,
      "Ġdirection": 5836,
      "Ġdan": 5837,
      "Ġranging": 5838,
      "Ġwhe": 5839,
      "Ġcircuit": 5840,
      "best": 5841,
      "yer": 5842,
      "Ġargent": 5843,
      "Ġeliminated": 5844,
      "Ġgi": 5845,
      "Ġrelates": 5846,
      "Ġsemi": 5847,
      "Ġnevada": 5848,
      "ila": 5849,
      "Ġmississippi": 5850,
      "Ġfun": 5851,
      "Ġdecreases": 5852,
      "Ġhierarchy": 5853,
      "Ġwatch": 5854,
      "Ġgenus": 5855,
      "Ġhelped": 5856,
      "Ġbio": 5857,
      "Ġdelin": 5858,
      "david": 5859,
      "Ġdivided": 5860,
      "ackson": 5861,
      "Ġbob": 5862,
      "Ġfootballer": 5863,
      "Ġcities": 5864,
      "Ġtrademarks": 5865,
      "song": 5866,
      "Ġles": 5867,
      "Ġprop": 5868,
      "Ġexecuted": 5869,
      "defined": 5870,
      "Ġremoved": 5871,
      "Ġminutes": 5872,
      "Ġtherapy": 5873,
      "Ġintegral": 5874,
      "iat": 5875,
      "Ġcycl": 5876,
      "aper": 5877,
      "Ġmarc": 5878,
      "Ġmovie": 5879,
      "Ġarchitecture": 5880,
      "Ġmitig": 5881,
      "Ġreceiving": 5882,
      "Ġpremier": 5883,
      "Ġkorea": 5884,
      "Ġcub": 5885,
      "Ġcorps": 5886,
      "Ġsatisfact": 5887,
      "odies": 5888,
      "Ġpromotion": 5889,
      "Ġpaying": 5890,
      "Ġbackground": 5891,
      "Ġdomin": 5892,
      "Ġseat": 5893,
      "Ġexamination": 5894,
      "Ġsecurit": 5895,
      "Ġinvolves": 5896,
      "Ġrecoverable": 5897,
      "Ġprince": 5898,
      "Ġmaryland": 5899,
      "Ġinsured": 5900,
      "ilit": 5901,
      "Ġvs": 5902,
      "Ġadj": 5903,
      "lines": 5904,
      "ucky": 5905,
      "Ġdriving": 5906,
      "Ġfrequently": 5907,
      "Ġsettlements": 5908,
      "Ġpoland": 5909,
      "ellow": 5910,
      "Ġthemselves": 5911,
      "Ġdat": 5912,
      "Ġil": 5913,
      "Ġtower": 5914,
      "aka": 5915,
      "sing": 5916,
      "Ġsurg": 5917,
      "Ġda": 5918,
      "ounter": 5919,
      "Ġdetailed": 5920,
      "Ġobjective": 5921,
      "general": 5922,
      "Ġbishop": 5923,
      "Ġcrew": 5924,
      "Ġactuar": 5925,
      "Ġclaimed": 5926,
      "long": 5927,
      "Ġexpertise": 5928,
      "org": 5929,
      "book": 5930,
      "Ġtransf": 5931,
      "Ġpasseng": 5932,
      "Ġcommunication": 5933,
      "Ġtam": 5934,
      "Ġplatforms": 5935,
      "Ġroll": 5936,
      "roph": 5937,
      "Ġcable": 5938,
      "ibly": 5939,
      "quency": 5940,
      "Ġdiscovery": 5941,
      "Ġutilization": 5942,
      "Ġguaranteed": 5943,
      "Ġentry": 5944,
      "Ġrecurring": 5945,
      "Ġdefinition": 5946,
      "Ġbird": 5947,
      "Ġforma": 5948,
      "ador": 5949,
      "Ġconsumm": 5950,
      "Ġcry": 5951,
      "Ġmutual": 5952,
      "Ġstop": 5953,
      "Ġleaders": 5954,
      "Ġquite": 5955,
      "Ġsupreme": 5956,
      "Ġextra": 5957,
      "onduct": 5958,
      "Ġproport": 5959,
      "Ġorganized": 5960,
      "oms": 5961,
      "Ġrelate": 5962,
      "mad": 5963,
      "Ġabandon": 5964,
      "ova": 5965,
      "Ġdeficit": 5966,
      "Ġintroduction": 5967,
      "Ġassociates": 5968,
      "performing": 5969,
      "hous": 5970,
      "Ġrose": 5971,
      "Ð¸": 5972,
      "Ġcreation": 5973,
      "Ġentr": 5974,
      "Ġflight": 5975,
      "Ġliterature": 5976,
      "Ġark": 5977,
      "Ġgreek": 5978,
      "Ġandrew": 5979,
      "Ġsatell": 5980,
      "Ġintangibles": 5981,
      "even": 5982,
      "iger": 5983,
      "Ġcolumn": 5984,
      "Ġbeat": 5985,
      "Ġmonet": 5986,
      "Ġacademic": 5987,
      "expense": 5988,
      "Ġwrest": 5989,
      "Ġcham": 5990,
      "clinical": 5991,
      "asters": 5992,
      "aya": 5993,
      "Ġshared": 5994,
      "Ġcomposed": 5995,
      "Ġsaying": 5996,
      "Ġspot": 5997,
      "Ġborder": 5998,
      "Ġdiscounts": 5999,
      "Ġgirl": 6000,
      "Ġregularly": 6001,
      "Ġcomparison": 6002,
      "Ġwr": 6003,
      "Ġcharl": 6004,
      "Ġacting": 6005,
      "://": 6006,
      "Ġpak": 6007,
      "Ġnecessarily": 6008,
      "present": 6009,
      "Ġbound": 6010,
      "Ġdutch": 6011,
      "Ġmarketplace": 6012,
      "Ġphilosoph": 6013,
      "serv": 6014,
      "Ġshipping": 6015,
      "Ġmedicine": 6016,
      "undred": 6017,
      "Ġing": 6018,
      "Ġaffiliated": 6019,
      "Ġrealize": 6020,
      "Ġillust": 6021,
      "Ġproblem": 6022,
      "Ġminority": 6023,
      "ogen": 6024,
      "Ġutilities": 6025,
      "di": 6026,
      "Ġtechnological": 6027,
      "Ġreverse": 6028,
      "Ġrenewal": 6029,
      "Ġsupplier": 6030,
      "Ġswitch": 6031,
      "Ġrid": 6032,
      "anes": 6033,
      "nam": 6034,
      "du": 6035,
      "Ġcitizens": 6036,
      "Ġtwenty": 6037,
      "Ġrand": 6038,
      "Ġgather": 6039,
      "ishment": 6040,
      "Ð°": 6041,
      "Ġministry": 6042,
      "Ġindiana": 6043,
      "Ġmembership": 6044,
      "Ġnic": 6045,
      "Ġhazard": 6046,
      "Ġwisconsin": 6047,
      "Ġwing": 6048,
      "Ġjac": 6049,
      "isters": 6050,
      "Ġhardware": 6051,
      "Ġalliance": 6052,
      "ugg": 6053,
      "Ġconformity": 6054,
      "Ġreplace": 6055,
      "Ġurban": 6056,
      "aug": 6057,
      "Ġmissouri": 6058,
      "Ġposted": 6059,
      "Ġminnesota": 6060,
      "lec": 6061,
      "Ġappearance": 6062,
      "Ġiran": 6063,
      "onia": 6064,
      "Ġconcerns": 6065,
      "Ġrol": 6066,
      "ÅĤ": 6067,
      "Ġstudied": 6068,
      "Ġanniversary": 6069,
      "Ġanything": 6070,
      "Ġexpensed": 6071,
      "itage": 6072,
      "ailing": 6073,
      "ipts": 6074,
      "Ġuser": 6075,
      "Ġcreating": 6076,
      "Ġaccident": 6077,
      "Ġdeclines": 6078,
      "iy": 6079,
      "Ġlatter": 6080,
      "ela": 6081,
      "cher": 6082,
      "Ġkil": 6083,
      "date": 6084,
      "Ġhaw": 6085,
      "Ġexit": 6086,
      "Ġton": 6087,
      "Ġconfidential": 6088,
      "Ġreclassified": 6089,
      "Ġcarbon": 6090,
      "Ġannum": 6091,
      "vol": 6092,
      "Ġimproving": 6093,
      "izona": 6094,
      "Ġrain": 6095,
      "Ġleave": 6096,
      "ding": 6097,
      "Ġrough": 6098,
      "Ġremediation": 6099,
      "Ġtownship": 6100,
      "Ġidentification": 6101,
      "Ġzero": 6102,
      "Ġperspective": 6103,
      ")()": 6104,
      "lav": 6105,
      "aught": 6106,
      "uries": 6107,
      "uated": 6108,
      "Ġseparately": 6109,
      "Ġasked": 6110,
      "Ġprovinc": 6111,
      "Ġexped": 6112,
      "Ġscotland": 6113,
      "Ġfu": 6114,
      "Ġcampus": 6115,
      "fall": 6116,
      "Ġsister": 6117,
      "Ġavoid": 6118,
      "Ġarticle": 6119,
      "Ġresidents": 6120,
      "Ġjul": 6121,
      "ensions": 6122,
      "Ġstars": 6123,
      "Ġbern": 6124,
      "Ġallowing": 6125,
      "uty": 6126,
      "uston": 6127,
      "Ġunfavor": 6128,
      "Ġinfant": 6129,
      "Ġinnovation": 6130,
      "char": 6131,
      "Ġfounder": 6132,
      "Ġcurrencies": 6133,
      "Ġconcept": 6134,
      "turn": 6135,
      "cal": 6136,
      "Ġpurchas": 6137,
      "Ġtargeted": 6138,
      "rics": 6139,
      "Ġadditions": 6140,
      "mann": 6141,
      "Ġimpose": 6142,
      "icks": 6143,
      "Ġactuarial": 6144,
      "vard": 6145,
      "flow": 6146,
      "osh": 6147,
      "Ġassure": 6148,
      "Ġcounterpart": 6149,
      "istered": 6150,
      "Ġbc": 6151,
      "Ġfacult": 6152,
      "Ġmaintains": 6153,
      "ĠâĢ¢": 6154,
      "Ġtheory": 6155,
      "Ġclosely": 6156,
      "Ġbh": 6157,
      "contract": 6158,
      "Ġagricultural": 6159,
      "Ġconsecutive": 6160,
      "Ġaccountants": 6161,
      "Ġdance": 6162,
      "Ġsuperior": 6163,
      "Ġflu": 6164,
      "eless": 6165,
      "Ġspend": 6166,
      "Ġsupervision": 6167,
      "Ġnotable": 6168,
      "Ġwonder": 6169,
      "Ġsanct": 6170,
      "Ġlyn": 6171,
      "ensity": 6172,
      "brit": 6173,
      "Ġpoliticians": 6174,
      "Ġportions": 6175,
      "Ġthir": 6176,
      "polit": 6177,
      "Ġnick": 6178,
      "Ġbrothers": 6179,
      "Ġattractive": 6180,
      "Ġoverview": 6181,
      "Ġexcluded": 6182,
      "Ġleasing": 6183,
      "Ġsummarized": 6184,
      "Ġactors": 6185,
      "Ġalbert": 6186,
      ":#": 6187,
      "ti": 6188,
      "Ġconcentration": 6189,
      "now": 6190,
      "Ġbach": 6191,
      "Ġroyalties": 6192,
      "atically": 6193,
      "Ġwww": 6194,
      "south": 6195,
      "ressed": 6196,
      "fill": 6197,
      "Ġduration": 6198,
      "Ġjackson": 6199,
      "erto": 6200,
      "bed": 6201,
      "Ġkenn": 6202,
      "Ġban": 6203,
      "Ġbritain": 6204,
      "Ġsymbol": 6205,
      "lict": 6206,
      "thur": 6207,
      "Ġinstructions": 6208,
      "Ġreligious": 6209,
      "Ġleaving": 6210,
      "Ġhu": 6211,
      "Ġrecognizes": 6212,
      "Ġperiodically": 6213,
      "may": 6214,
      "season": 6215,
      "world": 6216,
      "Ġbancorp": 6217,
      "first": 6218,
      "Ġorigin": 6219,
      "pers": 6220,
      "Ġportug": 6221,
      "Ġautomotive": 6222,
      "Ġlaboratory": 6223,
      "western": 6224,
      "illy": 6225,
      "Ġsteve": 6226,
      "uten": 6227,
      "Ġdifficulties": 6228,
      "Ġexport": 6229,
      "Ġexchang": 6230,
      "Ġgolden": 6231,
      "Ġrs": 6232,
      "Ġinside": 6233,
      "Ġachievement": 6234,
      "Ġdial": 6235,
      "illa": 6236,
      "Ġfores": 6237,
      "oration": 6238,
      "Ġmas": 6239,
      "Ġcart": 6240,
      "memb": 6241,
      "Ġcatal": 6242,
      "abama": 6243,
      "oting": 6244,
      "gn": 6245,
      "Ġprivacy": 6246,
      "lah": 6247,
      "balance": 6248,
      "Ġcalls": 6249,
      "span": 6250,
      "Ġmarsh": 6251,
      "seg": 6252,
      "Ġprospective": 6253,
      "Ġoperators": 6254,
      "Ġhundred": 6255,
      "Ġdiam": 6256,
      "ione": 6257,
      "Ġmemorial": 6258,
      "Ġjudge": 6259,
      "Ġexecutives": 6260,
      "abeth": 6261,
      "olitan": 6262,
      "dney": 6263,
      "Ġken": 6264,
      "Ġtry": 6265,
      "Ġcombinations": 6266,
      "Ġselection": 6267,
      "Ġpromoted": 6268,
      "Ð¾": 6269,
      "employee": 6270,
      "Ġassuming": 6271,
      "Ġcos": 6272,
      "Ġcommonly": 6273,
      "sports": 6274,
      "ez": 6275,
      "Ġlearning": 6276,
      "Ġpeace": 6277,
      "text": 6278,
      "Ġjon": 6279,
      "Ġrepair": 6280,
      "Ġincident": 6281,
      "Ġshift": 6282,
      "Ġsubscription": 6283,
      "Ġindemnification": 6284,
      "Ġott": 6285,
      "Ġjoe": 6286,
      "Ġsituation": 6287,
      "ski": 6288,
      "how": 6289,
      "Ġmetrop": 6290,
      "Ġhusband": 6291,
      "Ġcommander": 6292,
      "Ġattacks": 6293,
      "mas": 6294,
      "ommunic": 6295,
      "Ġhouses": 6296,
      "Ġracing": 6297,
      "income": 6298,
      "aska": 6299,
      "Ġvon": 6300,
      "Ġvert": 6301,
      "Ġmerchandise": 6302,
      "och": 6303,
      "wind": 6304,
      "Ġduties": 6305,
      "oir": 6306,
      "isa": 6307,
      "phy": 6308,
      "Ġanton": 6309,
      "invest": 6310,
      "Ġdrivers": 6311,
      "Ġtemple": 6312,
      "Ġnether": 6313,
      "nic": 6314,
      "Ġtend": 6315,
      "Ġrecall": 6316,
      "Ġtracks": 6317,
      "clos": 6318,
      "Ġsg": 6319,
      "Ġelev": 6320,
      "Ġorchest": 6321,
      "gers": 6322,
      "Ġconflict": 6323,
      "Ġbang": 6324,
      "phia": 6325,
      "Ġchris": 6326,
      "Ġmanufactured": 6327,
      "Ġrailroad": 6328,
      "Ġincreasingly": 6329,
      "kin": 6330,
      "Ġstories": 6331,
      "Ġpromin": 6332,
      "Ġpled": 6333,
      "Ġrot": 6334,
      "Ġtables": 6335,
      "Ġmixed": 6336,
      "Ġdilutive": 6337,
      "Ġmachine": 6338,
      "Ġoak": 6339,
      "Ġmaxim": 6340,
      "ifiable": 6341,
      "osph": 6342,
      "Ġcomposition": 6343,
      "Ġflag": 6344,
      "shore": 6345,
      "Ġarrest": 6346,
      "govern": 6347,
      "Ġarizona": 6348,
      "itzer": 6349,
      "ube": 6350,
      "ils": 6351,
      "Ġdriver": 6352,
      "Ġsections": 6353,
      "Ġsenate": 6354,
      "cript": 6355,
      "Ġfix": 6356,
      "Ġparents": 6357,
      "Ġshut": 6358,
      "Ġemphas": 6359,
      "Ġera": 6360,
      "Ġocean": 6361,
      "Ġdivest": 6362,
      "Ġbrad": 6363,
      "Ġconsequences": 6364,
      "kh": 6365,
      "Ġtenant": 6366,
      "Ġdoug": 6367,
      "Ġwinner": 6368,
      "apore": 6369,
      "Ġrecovered": 6370,
      "Ġoxford": 6371,
      "Ġbed": 6372,
      "Ġbelong": 6373,
      "Ġgaming": 6374,
      "Ġtoward": 6375,
      "Ġhandling": 6376,
      "Ġalabama": 6377,
      "Ġsharing": 6378,
      "Ġpublishing": 6379,
      "inson": 6380,
      "ih": 6381,
      "Ġtalent": 6382,
      "Ġneighbor": 6383,
      "Ġmayor": 6384,
      "intern": 6385,
      "Ġnin": 6386,
      "Ġkansas": 6387,
      "Ġrecommend": 6388,
      "Ġremainder": 6389,
      "Ġabsol": 6390,
      "onto": 6391,
      "Ġattend": 6392,
      "Ġsac": 6393,
      "Ġmechanism": 6394,
      "Ġfutures": 6395,
      "Ġbomb": 6396,
      "michael": 6397,
      "Ġshell": 6398,
      "ocated": 6399,
      "Ġdoctor": 6400,
      "dep": 6401,
      "while": 6402,
      "Ġexcell": 6403,
      "oty": 6404,
      "Ġenhanced": 6405,
      "Ġimper": 6406,
      "Ġimposed": 6407,
      "istribut": 6408,
      "Ġshar": 6409,
      "Ġtay": 6410,
      "erate": 6411,
      "establish": 6412,
      "adelphia": 6413,
      "Ġarise": 6414,
      "Ġtelecommunic": 6415,
      "bearing": 6416,
      "Ġdram": 6417,
      "ulations": 6418,
      "Ġstorm": 6419,
      "Ġappoint": 6420,
      "Ġrefund": 6421,
      "Ġparticipated": 6422,
      "Ġconstructed": 6423,
      "Ġfacilit": 6424,
      "Ġgarden": 6425,
      "Ġretention": 6426,
      "ali": 6427,
      "Ġeag": 6428,
      "Ġphysicians": 6429,
      "Ġcompeted": 6430,
      "Ġexpanding": 6431,
      "Ġlegacy": 6432,
      "Ġmap": 6433,
      "members": 6434,
      "po": 6435,
      "Ġforesee": 6436,
      "Ġcasual": 6437,
      "Ġconfidence": 6438,
      "Ġdiscovered": 6439,
      "onsored": 6440,
      "Ġax": 6441,
      "Ġunfavorable": 6442,
      "dy": 6443,
      "Ġhospitals": 6444,
      "Ġdry": 6445,
      "Ġfaculty": 6446,
      "Ġfirms": 6447,
      "Ġassistance": 6448,
      "body": 6449,
      "ilton": 6450,
      "british": 6451,
      "sky": 6452,
      "ulpt": 6453,
      "ording": 6454,
      "Ġengineer": 6455,
      "isation": 6456,
      "Ġanimal": 6457,
      "urity": 6458,
      "owa": 6459,
      "Ġreflecting": 6460,
      "eme": 6461,
      "Ġwars": 6462,
      "opher": 6463,
      "Ġpurchasing": 6464,
      "Ġauto": 6465,
      "Ġfine": 6466,
      "Ġfreed": 6467,
      "Ġvolunt": 6468,
      "Ġrepurchases": 6469,
      "Ġphotograph": 6470,
      "plus": 6471,
      "onic": 6472,
      "high": 6473,
      "Ġnetherlands": 6474,
      "Ġkill": 6475,
      "igen": 6476,
      "hs": 6477,
      "áĦ": 6478,
      "Ġontar": 6479,
      "áħ": 6480,
      "Ġpitch": 6481,
      "what": 6482,
      "Ġnewspaper": 6483,
      "Ġpit": 6484,
      "Ġtruck": 6485,
      "Ġtrig": 6486,
      "Ġcoord": 6487,
      "Ġontario": 6488,
      "Ġspin": 6489,
      "Ġhazardous": 6490,
      "Ã¸": 6491,
      "una": 6492,
      "Ġscottish": 6493,
      "Ġformat": 6494,
      "Ġmagn": 6495,
      "Ġalexander": 6496,
      "Ġfhl": 6497,
      "ume": 6498,
      "Ġtenants": 6499,
      "Ġpackaging": 6500,
      "frank": 6501,
      "embl": 6502,
      "Ġidentical": 6503,
      "Ġlawsuits": 6504,
      "Ġformal": 6505,
      "Ġsustained": 6506,
      "Ġjewish": 6507,
      "lahoma": 6508,
      "Ġdetermines": 6509,
      "Ġprospect": 6510,
      "Ġalleg": 6511,
      "Ġpremi": 6512,
      "Ġgoes": 6513,
      "Ġacquiring": 6514,
      "Ġmind": 6515,
      "Ġkim": 6516,
      "lers": 6517,
      "Ġcontribute": 6518,
      "Ġdaniel": 6519,
      "Ġindefinite": 6520,
      "Ġapproximate": 6521,
      "Ġmoreover": 6522,
      "Ġexpensive": 6523,
      "Ġpriority": 6524,
      "personal": 6525,
      "leum": 6526,
      "Ġassessed": 6527,
      "gun": 6528,
      "mi": 6529,
      "lyn": 6530,
      "develop": 6531,
      "zech": 6532,
      "Ġpromote": 6533,
      "Ġtenness": 6534,
      "Ġsurrounding": 6535,
      "Ġâ": 6536,
      "change": 6537,
      "ologist": 6538,
      "Ġouts": 6539,
      "Ġrapidly": 6540,
      "emet": 6541,
      "Ġcontaining": 6542,
      "common": 6543,
      "een": 6544,
      "Ġattach": 6545,
      "Ġpowers": 6546,
      "Ġredeemable": 6547,
      "Ġcris": 6548,
      "Ġheritage": 6549,
      "Ġusage": 6550,
      "Ġafford": 6551,
      "\"|": 6552,
      "through": 6553,
      "Ġfresh": 6554,
      "his": 6555,
      "Ġimage": 6556,
      "Ġcommenced": 6557,
      "Ġwidely": 6558,
      "Ġlimitation": 6559,
      "cel": 6560,
      "Ġtennessee": 6561,
      "Ġslo": 6562,
      "Ġentering": 6563,
      "decrease": 6564,
      "Ġlender": 6565,
      "ashion": 6566,
      "athan": 6567,
      "Ġrecip": 6568,
      "Ġparticipant": 6569,
      "Ġguide": 6570,
      "Ġancient": 6571,
      "Ġcra": 6572,
      "Ġnegoti": 6573,
      "Ġstream": 6574,
      "Ġspirit": 6575,
      "Ġpolish": 6576,
      "inder": 6577,
      "emen": 6578,
      "Ġfigure": 6579,
      "Ġthereby": 6580,
      "operating": 6581,
      "Ġassessments": 6582,
      "Ġoccurrence": 6583,
      "Ġ(-)": 6584,
      "Ġsanta": 6585,
      "Ġbehavior": 6586,
      "Ġbru": 6587,
      "Ġemployer": 6588,
      "Ġconstitu": 6589,
      "Ġsevent": 6590,
      "izon": 6591,
      "Ġroles": 6592,
      "Ġwinners": 6593,
      "downs": 6594,
      "Ġexpatriate": 6595,
      "credit": 6596,
      "Ġtangible": 6597,
      "err": 6598,
      "Ġchron": 6599,
      "Ġextingu": 6600,
      "Ġoccupancy": 6601,
      "Ġdog": 6602,
      "Ġpredecess": 6603,
      "Ġcars": 6604,
      "Ġuns": 6605,
      "Ġexpired": 6606,
      "Ġbattal": 6607,
      "olis": 6608,
      "Ġdescent": 6609,
      "Ġsubstitut": 6610,
      "Ġhouston": 6611,
      "Ġepa": 6612,
      "ima": 6613,
      "Ġjean": 6614,
      "Ġbure": 6615,
      "Ġunconsolidated": 6616,
      "Ġproducers": 6617,
      "Ġdiscl": 6618,
      "Ġformula": 6619,
      "Ġtransfers": 6620,
      "Ġdisagre": 6621,
      "Ġnut": 6622,
      "izable": 6623,
      "osis": 6624,
      "Ġrub": 6625,
      "Ġcrime": 6626,
      "Ġsto": 6627,
      "plans": 6628,
      "Ġabb": 6629,
      "Ġdetect": 6630,
      "Ġenforce": 6631,
      "Ġhotels": 6632,
      "Ġrout": 6633,
      "Ġmilestone": 6634,
      "umber": 6635,
      "observ": 6636,
      "Ġsmart": 6637,
      "sey": 6638,
      "Ġresist": 6639,
      "Ġcorporations": 6640,
      "authorized": 6641,
      "eland": 6642,
      "tic": 6643,
      "Ġremarks": 6644,
      "Ġcrown": 6645,
      "zh": 6646,
      "regon": 6647,
      "Ġegy": 6648,
      "rations": 6649,
      "Ġgovernments": 6650,
      "Ġsetting": 6651,
      "Ġstatistics": 6652,
      "Ġrepe": 6653,
      "laws": 6654,
      "Ġexecute": 6655,
      "inity": 6656,
      "Ġmedium": 6657,
      "audited": 6658,
      "Ġzone": 6659,
      "Ġestablishment": 6660,
      "Ġtai": 6661,
      "Ġprofitable": 6662,
      "Ġgraduated": 6663,
      "Ġsubmit": 6664,
      "filed": 6665,
      "Ġturning": 6666,
      "Ġlar": 6667,
      "reshold": 6668,
      "Ġexact": 6669,
      "ighter": 6670,
      "Ġ$,,.": 6671,
      "zy": 6672,
      "Ġfacts": 6673,
      "aa": 6674,
      "Ġformerly": 6675,
      "Ġbeaut": 6676,
      "Ġegypt": 6677,
      "omin": 6678,
      "heim": 6679,
      "eek": 6680,
      "Ġfamous": 6681,
      "leg": 6682,
      "Ġmall": 6683,
      "Ġpush": 6684,
      "educ": 6685,
      "Ġglass": 6686,
      "Ġflood": 6687,
      "ionally": 6688,
      "Ġmolec": 6689,
      "Ġsemic": 6690,
      "izabeth": 6691,
      "Ġrepurchased": 6692,
      "Ġbench": 6693,
      "urities": 6694,
      "istingu": 6695,
      "hon": 6696,
      "ni": 6697,
      "Ġprofessionals": 6698,
      "ounted": 6699,
      "Ġcontemporary": 6700,
      "Ġlesser": 6701,
      "Ġtab": 6702,
      "Ġassumption": 6703,
      "Ġappearances": 6704,
      "Ġforeseeable": 6705,
      "Ġextrem": 6706,
      "Ġhay": 6707,
      "dig": 6708,
      "Ġsquadron": 6709,
      "Ġvictoria": 6710,
      "Ġoregon": 6711,
      "Ġfreight": 6712,
      "Ġstable": 6713,
      "definedbenefit": 6714,
      "Ġcertificates": 6715,
      "Ġsteps": 6716,
      "Ġadopt": 6717,
      "Ġhope": 6718,
      "Ġreorganization": 6719,
      "Ġregulators": 6720,
      "Ġconsidering": 6721,
      "Ġthreshold": 6722,
      "eller": 6723,
      "Ġappreciation": 6724,
      "Ġremov": 6725,
      "iled": 6726,
      "Ġembed": 6727,
      "Ġberlin": 6728,
      "Ġlawsuit": 6729,
      "Ġgallery": 6730,
      "Ġfox": 6731,
      "rum": 6732,
      "Ġrare": 6733,
      "Ġtail": 6734,
      "Ġidentifiable": 6735,
      "Ġdiagnost": 6736,
      "inet": 6737,
      "Ġkel": 6738,
      "Ġordered": 6739,
      "scholes": 6740,
      "Ġvotes": 6741,
      "olved": 6742,
      "Ġhi": 6743,
      "Ġsalaries": 6744,
      "Ġhurric": 6745,
      "Ġkorean": 6746,
      "Ġfinish": 6747,
      "Ġupdated": 6748,
      "rim": 6749,
      "Ġinitiative": 6750,
      "Ġgirls": 6751,
      "bell": 6752,
      "Ġwins": 6753,
      "Ġflexibility": 6754,
      "ounded": 6755,
      "Ġhour": 6756,
      "Ġenterprises": 6757,
      "Ġadapt": 6758,
      "Ġclearly": 6759,
      "Ġtroops": 6760,
      "Ġtitled": 6761,
      "Ġsculpt": 6762,
      "sequently": 6763,
      "Ġ($.": 6764,
      "Ġalt": 6765,
      "Ġsingapore": 6766,
      "Ġoklahoma": 6767,
      "Ġpetroleum": 6768,
      "plan": 6769,
      "Ġarkansas": 6770,
      "financ": 6771,
      "Ġcourts": 6772,
      "Ġopera": 6773,
      "Ġpra": 6774,
      "ads": 6775,
      "further": 6776,
      "Ġcompeting": 6777,
      "Ġcarriers": 6778,
      "Ġenab": 6779,
      "Ġalone": 6780,
      "Ġintercompany": 6781,
      "Ġidea": 6782,
      "Ġfurniture": 6783,
      "Ġmarriage": 6784,
      "Ġsatellite": 6785,
      "observable": 6786,
      "Ġhorse": 6787,
      "Ġfiles": 6788,
      "mont": 6789,
      "Ġferc": 6790,
      "Ġcollections": 6791,
      "Ġmetropolitan": 6792,
      "Ġbasin": 6793,
      "Ġcav": 6794,
      "icut": 6795,
      "Ġinstallation": 6796,
      "Ġconnected": 6797,
      "Ġtranslated": 6798,
      "cribed": 6799,
      "Ġfields": 6800,
      "Ġconservation": 6801,
      "Ġreceipt": 6802,
      "Ġnaval": 6803,
      "Ġaid": 6804,
      "utenant": 6805,
      "Ġphiladelphia": 6806,
      "Ġturned": 6807,
      "base": 6808,
      "Ġkir": 6809,
      "Ġchoice": 6810,
      "urement": 6811,
      "Ġreact": 6812,
      "Ġeducational": 6813,
      "Ġactively": 6814,
      "abil": 6815,
      "Ġ----------": 6816,
      "Ġthinking": 6817,
      "Ġsud": 6818,
      ".'": 6819,
      "ocation": 6820,
      "Ġepisodes": 6821,
      "Ġrendered": 6822,
      "Ġlem": 6823,
      "Ġatlantic": 6824,
      "Ġts": 6825,
      "Ġtree": 6826,
      "losses": 6827,
      "fairval": 6828,
      "Ġintelligence": 6829,
      "Ġinfringement": 6830,
      "ibli": 6831,
      "Ġanswer": 6832,
      "Ġduly": 6833,
      "Ġbrian": 6834,
      "elle": 6835,
      "Ġcod": 6836,
      "Ġcurt": 6837,
      "Ġmature": 6838,
      "collect": 6839,
      "div": 6840,
      "Ġadvisors": 6841,
      "Ġalongside": 6842,
      "Ġsevere": 6843,
      "mpic": 6844,
      "Ġpleased": 6845,
      "Ġreportable": 6846,
      "Ġdistribute": 6847,
      "Ġinstalled": 6848,
      "wis": 6849,
      "Ġsemiconduct": 6850,
      "oe": 6851,
      "Ġinstitutional": 6852,
      "Ġmurder": 6853,
      "Ġhands": 6854,
      "Ġfashion": 6855,
      "Ġleon": 6856,
      "Ġengagement": 6857,
      "rie": 6858,
      "fac": 6859,
      "Ġcovers": 6860,
      "Ġdc": 6861,
      "Ġolympic": 6862,
      "Ġimpos": 6863,
      "urers": 6864,
      "rete": 6865,
      "according": 6866,
      "Ġproc": 6867,
      "Ġviet": 6868,
      "Ġconclus": 6869,
      "akh": 6870,
      "aling": 6871,
      "Ġhouseholds": 6872,
      "Ġprominent": 6873,
      "Ġron": 6874,
      "Ġacres": 6875,
      "Ġincentives": 6876,
      "Ġfloating": 6877,
      "elihood": 6878,
      "ses": 6879,
      "amin": 6880,
      "Ġmaria": 6881,
      "Ġimmediate": 6882,
      "Ġhind": 6883,
      "Ġadding": 6884,
      "Ġretailers": 6885,
      "group": 6886,
      "Ġterminal": 6887,
      "acceler": 6888,
      "Ġpronouncements": 6889,
      "Ġislam": 6890,
      "Ġauth": 6891,
      "Ġdefendants": 6892,
      "Ġfro": 6893,
      "Ġcards": 6894,
      "Ġsession": 6895,
      "ao": 6896,
      "Ġdelayed": 6897,
      "Ġreserved": 6898,
      "Ġspeak": 6899,
      "Ġtitles": 6900,
      "Ġunauthorized": 6901,
      "Ġcad": 6902,
      "risk": 6903,
      "Ġcontext": 6904,
      "amort": 6905,
      "zen": 6906,
      "Ġsund": 6907,
      "film": 6908,
      "Ġbearing": 6909,
      "Ġfalls": 6910,
      "anguages": 6911,
      "aining": 6912,
      "Ġsustainability": 6913,
      "Ġserious": 6914,
      "Ġsimilarly": 6915,
      "Ġfeaturing": 6916,
      "capital": 6917,
      "Ġ$.,": 6918,
      "Ġnearby": 6919,
      "Ġcarl": 6920,
      "Ġtold": 6921,
      "Ġ-).": 6922,
      "Ġpiano": 6923,
      "Ġunith": 6924,
      "Ġrepublican": 6925,
      "Ġimpairments": 6926,
      "Ġsuite": 6927,
      "Ġkentucky": 6928,
      "Ġnarrow": 6929,
      "compl": 6930,
      "front": 6931,
      "Ġsuccessor": 6932,
      "university": 6933,
      "when": 6934,
      "Ġtu": 6935,
      "ourse": 6936,
      "effective": 6937,
      "Ġapplies": 6938,
      "adequ": 6939,
      "Ġprc": 6940,
      "nat": 6941,
      "Ġjazz": 6942,
      "Ġdeputy": 6943,
      "Ġdidn": 6944,
      "Ġaccurately": 6945,
      "international": 6946,
      "final": 6947,
      "Ġsoccer": 6948,
      "ches": 6949,
      "Ġstring": 6950,
      "Ġgreg": 6951,
      "Ġdistingu": 6952,
      "Ġcommercialize": 6953,
      "Ġbrook": 6954,
      "Ġvessels": 6955,
      "Ġche": 6956,
      "Ġsolely": 6957,
      "Ġmitigate": 6958,
      "Ġtalking": 6959,
      "esis": 6960,
      "women": 6961,
      "Ġtask": 6962,
      "ogue": 6963,
      "Ġpharmaceuticals": 6964,
      "Ġbegins": 6965,
      "Ġfines": 6966,
      "Ġnich": 6967,
      "Ġfundament": 6968,
      "Ġqueens": 6969,
      "Ġhosted": 6970,
      "Ġinfantry": 6971,
      "Ġworkforce": 6972,
      "Ġviolations": 6973,
      "aq": 6974,
      "Ġpayroll": 6975,
      "Ġutilizing": 6976,
      "Ġfid": 6977,
      "mil": 6978,
      "Ġscholars": 6979,
      "Ġconsequently": 6980,
      "Ġ.',": 6981,
      "princip": 6982,
      "Ġsoldiers": 6983,
      "Ġimplied": 6984,
      "Ġmeetings": 6985,
      "box": 6986,
      "Ġplaintiffs": 6987,
      "Ġchoose": 6988,
      "Ġexceeded": 6989,
      "Ġresc": 6990,
      "Ġinitiated": 6991,
      "Ġexception": 6992,
      "Ġced": 6993,
      "Ġsolo": 6994,
      "Ġprepayment": 6995,
      "Ġskills": 6996,
      "Ġjobs": 6997,
      "Ġ---------": 6998,
      "Ġtoronto": 6999,
      "football": 7000,
      "inum": 7001,
      "oman": 7002,
      "iang": 7003,
      "zo": 7004,
      "Ġconfirmed": 7005,
      "Ġmerchant": 7006,
      "orig": 7007,
      "ulate": 7008,
      "Ġachieving": 7009,
      "Ġunobservable": 7010,
      "Ġtrademark": 7011,
      "offic": 7012,
      "Ġconstr": 7013,
      "Ġleasehold": 7014,
      "Ġelectronics": 7015,
      "vo": 7016,
      "Ġsydney": 7017,
      "Ġtaylor": 7018,
      "Ġpiece": 7019,
      "Ġgene": 7020,
      "amm": 7021,
      "igr": 7022,
      "Ġmonetary": 7023,
      "Ġmemory": 7024,
      "ĠÐ": 7025,
      "Ġfhlb": 7026,
      "Ġreceives": 7027,
      "Ġhyp": 7028,
      "Ġseparation": 7029,
      "Ġembedded": 7030,
      "Ġtrav": 7031,
      "Ġdisruption": 7032,
      "financial": 7033,
      "Ġswim": 7034,
      "Ġcommercially": 7035,
      "Ġdies": 7036,
      "Ġstages": 7037,
      "Ġwilson": 7038,
      "Ġmodification": 7039,
      "pal": 7040,
      "emetery": 7041,
      "suc": 7042,
      "Ġyields": 7043,
      "unte": 7044,
      "music": 7045,
      "Ġabsor": 7046,
      "accr": 7047,
      "Ġford": 7048,
      "eco": 7049,
      "Ġcant": 7050,
      "Ġsky": 7051,
      "Ġmeaningful": 7052,
      "Ġrenamed": 7053,
      "topic": 7054,
      "Ġsubmission": 7055,
      "anna": 7056,
      "Ġheat": 7057,
      "Ġalter": 7058,
      "Ġdesignation": 7059,
      "adian": 7060,
      "Ġorth": 7061,
      "Ġmexican": 7062,
      "itness": 7063,
      "Ġgathering": 7064,
      "Ġconvent": 7065,
      "Ġemper": 7066,
      "urt": 7067,
      "Ġsensitive": 7068,
      "Ġunvested": 7069,
      "Ġfactory": 7070,
      "accrual": 7071,
      "pur": 7072,
      "Ġmedicaid": 7073,
      "Ġproductivity": 7074,
      "Ġsustainable": 7075,
      "Ġerror": 7076,
      "Ġbrok": 7077,
      "accelerated": 7078,
      "Ġbarrel": 7079,
      "Ġnorthwest": 7080,
      "Ġyeah": 7081,
      "Ġcemetery": 7082,
      "Ġlever": 7083,
      "Ġgent": 7084,
      "Ġlien": 7085,
      "Ġdiverse": 7086,
      "Ġhart": 7087,
      "Ġtelecommunications": 7088,
      "Ġsought": 7089,
      "Ġcounterparties": 7090,
      "empts": 7091,
      "Ġstephen": 7092,
      "Ġcertified": 7093,
      "Ġdatab": 7094,
      "rovers": 7095,
      "Ġdesigns": 7096,
      "bourne": 7097,
      "Ġdisruptions": 7098,
      "Ġinteractive": 7099,
      "Ġah": 7100,
      "Ġweap": 7101,
      "Ġconnecticut": 7102,
      "Ġfaith": 7103,
      "Ġwhereby": 7104,
      "Ġinadequ": 7105,
      "Ġdisch": 7106,
      "iest": 7107,
      "Ġtick": 7108,
      "Ġhills": 7109,
      "izer": 7110,
      "Ġmiller": 7111,
      "Ġpilot": 7112,
      "Ġobligated": 7113,
      "Ġimplementing": 7114,
      "thew": 7115,
      "Ġforfeited": 7116,
      "Ġlady": 7117,
      "Ġvision": 7118,
      "wart": 7119,
      "oln": 7120,
      "Ġcontractors": 7121,
      "Ġdavis": 7122,
      "Ġregardless": 7123,
      "cles": 7124,
      "gest": 7125,
      "Ġmethodology": 7126,
      "Ġsynth": 7127,
      "Ġrelation": 7128,
      "Ġcompletely": 7129,
      "Ġcopies": 7130,
      "Ġelectrical": 7131,
      "Ġprotoc": 7132,
      "Ġshortly": 7133,
      "writer": 7134,
      "Ġquantities": 7135,
      "vd": 7136,
      "success": 7137,
      "Ġengineers": 7138,
      "Ġundisc": 7139,
      "Ġconcert": 7140,
      "ropical": 7141,
      "Ġreject": 7142,
      "Ġwelcome": 7143,
      "urb": 7144,
      "Ġlikelihood": 7145,
      "Ġeu": 7146,
      "run": 7147,
      "rell": 7148,
      "Ġelizabeth": 7149,
      "restr": 7150,
      "Ġindones": 7151,
      "Ġger": 7152,
      "Ġcommittees": 7153,
      "Ġhan": 7154,
      "Ġ-----------": 7155,
      "Ġproportion": 7156,
      "Ġduty": 7157,
      "Ġpossibility": 7158,
      "wealth": 7159,
      "Ġholid": 7160,
      "Ġfrequency": 7161,
      "Ġss": 7162,
      "vis": 7163,
      "Ġbaron": 7164,
      "Ġ-------": 7165,
      "Ġlanguages": 7166,
      "cos": 7167,
      "erce": 7168,
      "Ġrenewable": 7169,
      "Ġern": 7170,
      "Ġprelim": 7171,
      "Ġast": 7172,
      "Ġsponsoring": 7173,
      "Ġestablishes": 7174,
      "Ġeric": 7175,
      "Ġpertain": 7176,
      "Ġshif": 7177,
      "Ġbbc": 7178,
      "Ġbronze": 7179,
      "Ġdispositions": 7180,
      "Ġexistence": 7181,
      "Ġcontrolling": 7182,
      "Ġemergency": 7183,
      "Ġju": 7184,
      "ourcing": 7185,
      "Ġassume": 7186,
      "Ġlind": 7187,
      "Ġstrike": 7188,
      "Ġearning": 7189,
      "Ġmusicians": 7190,
      "obile": 7191,
      "Ġconservative": 7192,
      "Ġsimpl": 7193,
      "Ġwarehouse": 7194,
      "Ġencounter": 7195,
      "Ġarms": 7196,
      "Ġrab": 7197,
      "william": 7198,
      "Ġdipl": 7199,
      "Ġcow": 7200,
      "urg": 7201,
      "Ġauthorization": 7202,
      "held": 7203,
      "Ġsoutheast": 7204,
      "inger": 7205,
      "Ġvolunte": 7206,
      "Ġpages": 7207,
      "Ġtons": 7208,
      "Ġpeer": 7209,
      "ship": 7210,
      "oren": 7211,
      "Ġenhanc": 7212,
      "casts": 7213,
      "Ġaggress": 7214,
      "Ġcambridge": 7215,
      "austral": 7216,
      "Ġwy": 7217,
      "uda": 7218,
      "Ġerr": 7219,
      "uff": 7220,
      "ears": 7221,
      "Ġretrosp": 7222,
      "lan": 7223,
      "Ġthereof": 7224,
      "fred": 7225,
      "Ġcausing": 7226,
      "die": 7227,
      "Ġsid": 7228,
      "Ġcommerce": 7229,
      "Ġarrived": 7230,
      "orship": 7231,
      "Ġsimple": 7232,
      "Ġvacc": 7233,
      "Ġng": 7234,
      "Ġphysician": 7235,
      "Ġinput": 7236,
      "Ġraces": 7237,
      "Ġbases": 7238,
      "iser": 7239,
      "ceived": 7240,
      "Ġxbr": 7241,
      "Ġshowed": 7242,
      "dc": 7243,
      "empl": 7244,
      "Ġseems": 7245,
      "post": 7246,
      "ori": 7247,
      "Ġetc": 7248,
      "Ġheavily": 7249,
      "Ġyellow": 7250,
      "Ġdistricts": 7251,
      "Ġadvisor": 7252,
      "outs": 7253,
      "Ġtested": 7254,
      "service": 7255,
      "Ġcollective": 7256,
      "Ġdistance": 7257,
      "Ġappra": 7258,
      "Ġpolitics": 7259,
      "ĠÂ£": 7260,
      "Ġamer": 7261,
      "Ġpier": 7262,
      "Ġtank": 7263,
      "Ġindirectly": 7264,
      "Ġinters": 7265,
      "Ġlogistics": 7266,
      "Ġramp": 7267,
      "Ġdocumentary": 7268,
      "Ðµ": 7269,
      "biography": 7270,
      "Ġsuffered": 7271,
      "Ġbottom": 7272,
      "Ġpuerto": 7273,
      "Ġcrisis": 7274,
      "Ġveter": 7275,
      "ttp": 7276,
      "awards": 7277,
      "ector": 7278,
      "Ġprinciple": 7279,
      "Ġpatterns": 7280,
      "Ġdiseases": 7281,
      "ystem": 7282,
      "Ġpredecessor": 7283,
      "Ġmountains": 7284,
      "Ġsixth": 7285,
      "wegian": 7286,
      "pass": 7287,
      "eces": 7288,
      "Ġoccupied": 7289,
      "Ġofficials": 7290,
      "Ġdiversity": 7291,
      "Ġfell": 7292,
      "Ġtread": 7293,
      "iny": 7294,
      "aret": 7295,
      "elor": 7296,
      "Ġprompt": 7297,
      "Ġring": 7298,
      "Ġedge": 7299,
      "ipped": 7300,
      "Ġcostly": 7301,
      "ady": 7302,
      "Ġcontinuous": 7303,
      "Ġlap": 7304,
      "Ä±": 7305,
      "Ġdenominated": 7306,
      "ibliography": 7307,
      "Ġlieutenant": 7308,
      "Ġfiction": 7309,
      "Ġswedish": 7310,
      "Ġarthur": 7311,
      "Ġofficially": 7312,
      "Ġtrusts": 7313,
      "Ġrevealed": 7314,
      "Ġcarrier": 7315,
      "aga": 7316,
      "Ġinnovative": 7317,
      "Ġrising": 7318,
      "iant": 7319,
      "Ġsuitable": 7320,
      "Ġfalse": 7321,
      "four": 7322,
      "Ġroughly": 7323,
      "Ġsor": 7324,
      "ibilities": 7325,
      "argo": 7326,
      "Ġros": 7327,
      "len": 7328,
      "aped": 7329,
      "Ġmedian": 7330,
      "mm": 7331,
      "deal": 7332,
      "erted": 7333,
      "yard": 7334,
      "insic": 7335,
      "Ġboys": 7336,
      "Ġoutl": 7337,
      "ran": 7338,
      "Ġlam": 7339,
      "cor": 7340,
      "Ġdiscussions": 7341,
      "erald": 7342,
      "gated": 7343,
      "ras": 7344,
      "Ġclosure": 7345,
      "Ġwindows": 7346,
      "ika": 7347,
      "Ġzh": 7348,
      "Ġey": 7349,
      "Ġapplying": 7350,
      "Ġturkey": 7351,
      "comes": 7352,
      "Ġbag": 7353,
      "Ġmarked": 7354,
      "adesh": 7355,
      "Ġbattalion": 7356,
      "Ġgained": 7357,
      "Ġmalays": 7358,
      "amortized": 7359,
      "Ġbureau": 7360,
      "erb": 7361,
      "Ġinfluenced": 7362,
      "Ġattempts": 7363,
      "Ġpartial": 7364,
      "Ġross": 7365,
      "Ġuniversal": 7366,
      "Ġcancell": 7367,
      "grade": 7368,
      "Ġinhib": 7369,
      "Ġiowa": 7370,
      "Ġnoninterest": 7371,
      "Ġ(,,)": 7372,
      "Ġchallenging": 7373,
      "rets": 7374,
      "north": 7375,
      "ea": 7376,
      "Ġones": 7377,
      "business": 7378,
      "Ġsle": 7379,
      "aki": 7380,
      "ng": 7381,
      "print": 7382,
      "Ġprevention": 7383,
      "Ġcapitalization": 7384,
      "Ġsweden": 7385,
      "Ġcustomary": 7386,
      "ello": 7387,
      "Ġwealth": 7388,
      "Ġpenalty": 7389,
      "Ġsurn": 7390,
      "licts": 7391,
      "Ġcapture": 7392,
      "Ġorigination": 7393,
      "Ġka": 7394,
      "soft": 7395,
      "Ġcp": 7396,
      "Ġemperor": 7397,
      "Ġindividually": 7398,
      "Ġgate": 7399,
      "Ġrome": 7400,
      "Ġexperiment": 7401,
      "Ġtheater": 7402,
      "Ġexceptions": 7403,
      "uv": 7404,
      "Ġleaves": 7405,
      "pson": 7406,
      "Ġscene": 7407,
      "Ġtum": 7408,
      "Ġsemiconductor": 7409,
      "Ġbears": 7410,
      "iling": 7411,
      "Ġreferences": 7412,
      "Ġstudios": 7413,
      "Ġcancelled": 7414,
      "mid": 7415,
      "Ġtypical": 7416,
      "Ġefficacy": 7417,
      "kel": 7418,
      "Ġexpires": 7419,
      "Ġviolation": 7420,
      "acent": 7421,
      "Ġcel": 7422,
      "principal": 7423,
      "ava": 7424,
      "Ġprosecut": 7425,
      "Ġentirely": 7426,
      "Ġoriginated": 7427,
      "mart": 7428,
      "Ġbra": 7429,
      "Ġturk": 7430,
      "Ġanderson": 7431,
      "Ġorchestra": 7432,
      "Ġbringing": 7433,
      "iform": 7434,
      "Ġstanding": 7435,
      "Ġintends": 7436,
      "Ġpublications": 7437,
      "Ġintrinsic": 7438,
      "Ġward": 7439,
      "Ġclassical": 7440,
      "ucks": 7441,
      "Ġcold": 7442,
      "itzerland": 7443,
      "Ġversions": 7444,
      "Ġkal": 7445,
      "Ġkid": 7446,
      "step": 7447,
      "ĠĊĠĊĠĊĠĊ": 7448,
      "Ġstanley": 7449,
      "watch": 7450,
      "===": 7451,
      "Ġhero": 7452,
      "Ġnr": 7453,
      "Ġcaption": 7454,
      "Ġvul": 7455,
      "Ġ$(": 7456,
      "Ġmortgages": 7457,
      "Ġlies": 7458,
      "Ġready": 7459,
      "Ġintermed": 7460,
      "ek": 7461,
      "Ġkev": 7462,
      "Ġinadequate": 7463,
      "Ġaviation": 7464,
      "Ġenjo": 7465,
      "Ġfat": 7466,
      "ĠâĢĺ": 7467,
      "Ġdisrupt": 7468,
      "Ġenroll": 7469,
      "Ġinstances": 7470,
      "cost": 7471,
      "utsch": 7472,
      "Ġeconomics": 7473,
      "Ġkat": 7474,
      "www": 7475,
      "Ġconven": 7476,
      "room": 7477,
      "osen": 7478,
      "Ġfav": 7479,
      "anticip": 7480,
      "ighth": 7481,
      "agen": 7482,
      "aria": 7483,
      "Ġpreliminary": 7484,
      "edia": 7485,
      "Ġpreclinical": 7486,
      "exc": 7487,
      "Ġimperial": 7488,
      "Ġoverhead": 7489,
      "Ġfederation": 7490,
      "Ġfelt": 7491,
      "Ġcombat": 7492,
      "Ġmah": 7493,
      "Ġproceeding": 7494,
      "also": 7495,
      "Ġopposed": 7496,
      "Ġhedged": 7497,
      "Ġwilling": 7498,
      "ista": 7499,
      "issue": 7500,
      "Ġfreedom": 7501,
      "Ġcrow": 7502,
      "Ġvendor": 7503,
      "Ġlowest": 7504,
      "Ġtaiwan": 7505,
      "Ġphilippines": 7506,
      "Ġczech": 7507,
      "pton": 7508,
      "Ġrecoveries": 7509,
      "Ġphilosophy": 7510,
      "Ġremoval": 7511,
      "Ġbodies": 7512,
      "Ġprotein": 7513,
      "Ġcomplement": 7514,
      "Ġmes": 7515,
      "lik": 7516,
      "Ġinclusion": 7517,
      "uses": 7518,
      "Ġoffshore": 7519,
      "Ġcounterparty": 7520,
      "power": 7521,
      "aza": 7522,
      "french": 7523,
      "dale": 7524,
      "Ġapprec": 7525,
      "Ġpakistan": 7526,
      "Ġdisagreements": 7527,
      "Ġcease": 7528,
      "anz": 7529,
      "Ġmatt": 7530,
      "issu": 7531,
      "ami": 7532,
      "Ġcaptured": 7533,
      "order": 7534,
      "Ġsuit": 7535,
      "christ": 7536,
      "adjust": 7537,
      "Ġgil": 7538,
      "Ġexhibition": 7539,
      "Ġdor": 7540,
      "Ġheard": 7541,
      "Ġlabour": 7542,
      "Ġpione": 7543,
      "Ġharbor": 7544,
      "gh": 7545,
      "Ġextremely": 7546,
      "Ġidentity": 7547,
      "Ġmeets": 7548,
      "Ġnurs": 7549,
      "Ġmarketed": 7550,
      "............": 7551,
      "ignated": 7552,
      "Ġvalu": 7553,
      "Ġtreadway": 7554,
      "Ġrefers": 7555,
      "uls": 7556,
      "plish": 7557,
      "eee": 7558,
      "Ġfluctuate": 7559,
      "ality": 7560,
      "cm": 7561,
      "Ġmedalists": 7562,
      "style": 7563,
      "Ġcomputing": 7564,
      "chnology": 7565,
      "oto": 7566,
      "Ġteacher": 7567,
      "Ġdub": 7568,
      "Ġmales": 7569,
      "Ġfulfill": 7570,
      "otic": 7571,
      "Ġtool": 7572,
      "Ġsimply": 7573,
      "pool": 7574,
      "Ġpromotional": 7575,
      "Ġsubjects": 7576,
      "Ġtwice": 7577,
      "gines": 7578,
      "Ġmp": 7579,
      "Ġreturning": 7580,
      "Ġfcc": 7581,
      "Ġsouthwest": 7582,
      "bles": 7583,
      "Ġsoph": 7584,
      "ensis": 7585,
      "Ġissuances": 7586,
      "Ġvic": 7587,
      "Ġsail": 7588,
      "sures": 7589,
      "Ġrepaid": 7590,
      "Ġoutcomes": 7591,
      "Ġbarb": 7592,
      "Ġvisual": 7593,
      "tc": 7594,
      "Ġadult": 7595,
      "anga": 7596,
      "Ġfinding": 7597,
      "Ġdownturn": 7598,
      "Ġbarg": 7599,
      "Ġexposures": 7600,
      "Ġinterested": 7601,
      "Ġwed": 7602,
      "german": 7603,
      "Ġpossibly": 7604,
      "Ġaccruals": 7605,
      "Ġbilled": 7606,
      "Ġserb": 7607,
      "spe": 7608,
      "Ġcancel": 7609,
      "Ġaudience": 7610,
      "Ġnortheast": 7611,
      "Ġsatisfaction": 7612,
      "onym": 7613,
      "uem": 7614,
      "Ġmuslim": 7615,
      "Ġ():": 7616,
      "Ġtherm": 7617,
      "Ġextinguishment": 7618,
      "Ġindicates": 7619,
      "orge": 7620,
      "Ġ====": 7621,
      "lie": 7622,
      "Ġresign": 7623,
      "brid": 7624,
      "Ġsher": 7625,
      "Ġdifficulty": 7626,
      "ager": 7627,
      "Ġdivisions": 7628,
      "Ġod": 7629,
      "efe": 7630,
      "direct": 7631,
      "Ġatm": 7632,
      "rep": 7633,
      "Ġagree": 7634,
      "Ġbroadcasting": 7635,
      "Ġexamples": 7636,
      "Ġdestroyed": 7637,
      "Ġunamortized": 7638,
      "Ġipo": 7639,
      "Ġweekly": 7640,
      "Ġpublication": 7641,
      "Ġbranches": 7642,
      "haps": 7643,
      "Ġcredited": 7644,
      "del": 7645,
      "mill": 7646,
      "Ġcollectively": 7647,
      "Ġaccomplish": 7648,
      "Ġfru": 7649,
      "cow": 7650,
      "Ġfighting": 7651,
      "Ġtob": 7652,
      "Ġsons": 7653,
      "Ġdiego": 7654,
      "Ġxbrl": 7655,
      "Ġky": 7656,
      "Ġbull": 7657,
      "Ġjudic": 7658,
      "Ġopposition": 7659,
      "Ġvisit": 7660,
      "Ġshipments": 7661,
      "Ġlewis": 7662,
      "oen": 7663,
      "Ġchamber": 7664,
      "Ġgolf": 7665,
      "orders": 7666,
      "Ġreinvest": 7667,
      "Ġinternationally": 7668,
      "Ġrober": 7669,
      "Ġbullet": 7670,
      "Ġmetrics": 7671,
      "Ġbachelor": 7672,
      "Ġestimating": 7673,
      "Ġinvestigations": 7674,
      "Ġbatt": 7675,
      "Ġchronic": 7676,
      "anian": 7677,
      "Ġsurren": 7678,
      "third": 7679,
      "Ġengines": 7680,
      "Ġseats": 7681,
      "conn": 7682,
      "Ġswe": 7683,
      "Ġaudio": 7684,
      "allas": 7685,
      "ercial": 7686,
      "Ġbrigade": 7687,
      "Ġaqu": 7688,
      "Ġaver": 7689,
      "Ġcontrovers": 7690,
      "Ġgab": 7691,
      "Ġcyber": 7692,
      "Ġmovements": 7693,
      "Ġconducting": 7694,
      "ries": 7695,
      "onn": 7696,
      "Ġsensit": 7697,
      "production": 7698,
      "rent": 7699,
      "incoln": 7700,
      "Ġkevin": 7701,
      "Ġhighlight": 7702,
      "Ġdos": 7703,
      "formerly": 7704,
      "Ġexplo": 7705,
      "Ġauction": 7706,
      "Ġaccommod": 7707,
      "Ġvolatile": 7708,
      "building": 7709,
      "leans": 7710,
      "san": 7711,
      "Ġfame": 7712,
      "Ġchase": 7713,
      "Ġswitzerland": 7714,
      "Ġcomposer": 7715,
      "Ġnominated": 7716,
      "olympic": 7717,
      "robert": 7718,
      "rees": 7719,
      "Ġconflicts": 7720,
      "Ġsubstances": 7721,
      "hand": 7722,
      "Ġessential": 7723,
      "Ġcerem": 7724,
      "Ġattributed": 7725,
      "since": 7726,
      "Ġends": 7727,
      "Ġadequacy": 7728,
      "Ġshopping": 7729,
      "Ġpace": 7730,
      "Ġ(.%)": 7731,
      "Ġreleases": 7732,
      "Ġconvention": 7733,
      "populated": 7734,
      "Ġparam": 7735,
      "Ġpatri": 7736,
      "Ġborrowed": 7737,
      "only": 7738,
      "Ġlinear": 7739,
      "Ġgran": 7740,
      "Ġwaters": 7741,
      "Ġdak": 7742,
      "itf": 7743,
      "ito": 7744,
      "Ġheight": 7745,
      "alb": 7746,
      "Ġlev": 7747,
      "aneous": 7748,
      "Ġku": 7749,
      "asty": 7750,
      "Ġfigures": 7751,
      "Ġunitholders": 7752,
      "Ġgeneric": 7753,
      "otal": 7754,
      "Ġinhab": 7755,
      "Ġrico": 7756,
      "Ġsteam": 7757,
      "Ġsuspended": 7758,
      "Ġstrugg": 7759,
      "Ġcritics": 7760,
      "Ġukraine": 7761,
      "Ġeverything": 7762,
      "Ġmerged": 7763,
      "Ġinvas": 7764,
      "uemeas": 7765,
      "fairvaluemeas": 7766,
      "ÑĢ": 7767,
      "Ġretire": 7768,
      "Ġcollateralized": 7769,
      "Ġdisclose": 7770,
      "Ñģ": 7771,
      "Ġhearing": 7772,
      "lock": 7773,
      "Ġvoluntary": 7774,
      "unk": 7775,
      "Ġlosing": 7776,
      "Ġamounted": 7777,
      "Ġrecy": 7778,
      "Ġpipelines": 7779,
      "club": 7780,
      "Ġfant": 7781,
      "Ġsnow": 7782,
      "Ġfemales": 7783,
      "alt": 7784,
      "Ġdefeat": 7785,
      "Ġcauses": 7786,
      "Ġshop": 7787,
      "Ġcontam": 7788,
      "Ġagriculture": 7789,
      "Ġul": 7790,
      "hel": 7791,
      "Ġwhit": 7792,
      "night": 7793,
      "Ġtennis": 7794,
      "Ġviews": 7795,
      "Ġanalyt": 7796,
      "Ġsexual": 7797,
      "Ġpicture": 7798,
      "chang": 7799,
      "wing": 7800,
      "Ġ(;": 7801,
      "Ġrequested": 7802,
      "Ġcorner": 7803,
      "ections": 7804,
      "Ġrestoration": 7805,
      "Ġhabit": 7806,
      "Ġnothing": 7807,
      "rail": 7808,
      "Ġ($)": 7809,
      "break": 7810,
      "Ġreceipts": 7811,
      "Ġ$..": 7812,
      "Ġliberal": 7813,
      "Ġchosen": 7814,
      "Ġnorway": 7815,
      "pol": 7816,
      "Ġdistributor": 7817,
      "Ġatlanta": 7818,
      "enez": 7819,
      "Ġraj": 7820,
      "Ġprovincial": 7821,
      "Ġtall": 7822,
      "Ġimportance": 7823,
      "but": 7824,
      "Ġroc": 7825,
      "Ġstatute": 7826,
      "iva": 7827,
      "Ġmodifications": 7828,
      "Ġcounties": 7829,
      "Ġunders": 7830,
      "Ġrivers": 7831,
      "Ġhaven": 7832,
      "Ġster": 7833,
      "Ġanimals": 7834,
      "canadian": 7835,
      "Ġmisstatement": 7836,
      "scott": 7837,
      "Ġsignatures": 7838,
      "Ġfur": 7839,
      "Ġdemands": 7840,
      "aro": 7841,
      "Ġargentina": 7842,
      "Ġprocessed": 7843,
      "Ġjam": 7844,
      "Ġtheme": 7845,
      "Ġgram": 7846,
      "Ġyounger": 7847,
      "card": 7848,
      "Ġorient": 7849,
      "second": 7850,
      "nas": 7851,
      "Ġfolk": 7852,
      "core": 7853,
      "Ġobserved": 7854,
      "Ġpainting": 7855,
      "illery": 7856,
      "Ġconsumption": 7857,
      "expected": 7858,
      "Ġcm": 7859,
      "Ġeye": 7860,
      "Ġpas": 7861,
      "week": 7862,
      "Ġdensity": 7863,
      "Ġni": 7864,
      "Ġnovels": 7865,
      "Ġmonu": 7866,
      "performance": 7867,
      "Ġterritories": 7868,
      "Ġwol": 7869,
      "Ġdetection": 7870,
      "Ġproposal": 7871,
      "Ġhorizon": 7872,
      "Ġadequately": 7873,
      "Ġcatch": 7874,
      "Ġbrokerage": 7875,
      "itely": 7876,
      "Ġrsus": 7877,
      "Ġabsence": 7878,
      "Ġclassic": 7879,
      "Ġcapacities": 7880,
      "Ġgam": 7881,
      "Ġevaluates": 7882,
      "two": 7883,
      "Ġ...": 7884,
      "Ġteaching": 7885,
      "Ġneither": 7886,
      "Ġfrancis": 7887,
      "Ġtherein": 7888,
      "Ġcalling": 7889,
      "east": 7890,
      "Ġrenov": 7891,
      "Ġranked": 7892,
      "Ġdelinquent": 7893,
      "Ġunus": 7894,
      "ĊĠĊĊ": 7895,
      "rock": 7896,
      "Ġbought": 7897,
      "Ġundiscounted": 7898,
      "Ġkick": 7899,
      "vill": 7900,
      "Ġcool": 7901,
      "Ġholly": 7902,
      "Ġmathemat": 7903,
      "Ġfounding": 7904,
      "rence": 7905,
      "Ġfrag": 7906,
      "such": 7907,
      "Ġsecuritization": 7908,
      "Ġsi": 7909,
      ",)": 7910,
      "Ġwhenever": 7911,
      "Ġdrum": 7912,
      "ologists": 7913,
      "erick": 7914,
      "oster": 7915,
      "gium": 7916,
      "Ġeliminate": 7917,
      "Ġsignal": 7918,
      "Ġcopper": 7919,
      "Ġidentifying": 7920,
      "Ð½": 7921,
      "mel": 7922,
      "Ġpossess": 7923,
      "euro": 7924,
      "Ġnam": 7925,
      "Ġgree": 7926,
      "cape": 7927,
      "Ġnap": 7928,
      "Ġremote": 7929,
      "Ġpep": 7930,
      "james": 7931,
      "set": 7932,
      "bibliography": 7933,
      "sfas": 7934,
      "Ġdealer": 7935,
      "Ġdrawn": 7936,
      "Ġinject": 7937,
      "olas": 7938,
      "Ġsimon": 7939,
      "Ġneighborhood": 7940,
      "Ġcomfort": 7941,
      "Ġpassenger": 7942,
      "ril": 7943,
      "Ġchile": 7944,
      "Ġpremises": 7945,
      "ordon": 7946,
      "alo": 7947,
      "Ġconsultant": 7948,
      "Ġprotected": 7949,
      "Ġmd": 7950,
      "Ġpresidential": 7951,
      "icon": 7952,
      "Ġorleans": 7953,
      "Ġpieces": 7954,
      "Ġscre": 7955,
      "Ġshel": 7956,
      "urements": 7957,
      "Ġoral": 7958,
      "Ġforecasted": 7959,
      "Ġvocal": 7960,
      "Ġore": 7961,
      "Ġlith": 7962,
      "Ġspecialized": 7963,
      "Ġcook": 7964,
      "inding": 7965,
      "Ġbarr": 7966,
      "management": 7967,
      "Ġalph": 7968,
      "Ġjes": 7969,
      "Ġperformances": 7970,
      "caa": 7971,
      "uity": 7972,
      "rix": 7973,
      "Ġbuck": 7974,
      "astroph": 7975,
      "Ġmeasuring": 7976,
      "Ġmg": 7977,
      "yth": 7978,
      "antly": 7979,
      "Ġtag": 7980,
      "Ġnegotiated": 7981,
      "ims": 7982,
      "temporary": 7983,
      "Ġyards": 7984,
      "Ġmilestones": 7985,
      "commercial": 7986,
      "Ġbah": 7987,
      "aco": 7988,
      "Ġtherapeutic": 7989,
      "Ġcondensed": 7990,
      "Ġsax": 7991,
      "Ġsituated": 7992,
      "Ġperhaps": 7993,
      "Ġpressures": 7994,
      "Ġbiote": 7995,
      "aken": 7996,
      "Ġhired": 7997,
      "Ġhugh": 7998,
      "Ġamericas": 7999,
      "Ġvarying": 8000,
      "Ġmail": 8001,
      "Ġsin": 8002,
      "acle": 8003,
      "Ġdeutsch": 8004,
      "ictional": 8005,
      "Ġelectronically": 8006,
      "Ġspee": 8007,
      "Ġkhan": 8008,
      "aver": 8009,
      "Ġhelpful": 8010,
      "Ġhoward": 8011,
      "elson": 8012,
      "Ġfaced": 8013,
      "imb": 8014,
      "Ġdeductions": 8015,
      "Ġdemonstrated": 8016,
      "Ġhers": 8017,
      "kar": 8018,
      "inals": 8019,
      "Ġrealization": 8020,
      "Ġsurplus": 8021,
      "Ġpalace": 8022,
      "Ġ.,": 8023,
      "Ġpc": 8024,
      "Ġinternally": 8025,
      "Ġindications": 8026,
      "**": 8027,
      "Ġsuggested": 8028,
      "Ġautomatically": 8029,
      "ologies": 8030,
      "anger": 8031,
      "Ġarmed": 8032,
      "bul": 8033,
      "Ġjump": 8034,
      "Ġstatutes": 8035,
      "Ġinvolvement": 8036,
      "Ġassert": 8037,
      "Ġexperiences": 8038,
      "Ġliver": 8039,
      "Ġfly": 8040,
      "Ġutah": 8041,
      "Ġanalyz": 8042,
      "Ġloyal": 8043,
      "reme": 8044,
      "Ġcommonwealth": 8045,
      "definedbenefitmember": 8046,
      "Ġassociate": 8047,
      "Ġsecrets": 8048,
      "Ġerrors": 8049,
      "burn": 8050,
      "Ġauditors": 8051,
      "rill": 8052,
      "plansdefinedbenefitmember": 8053,
      "Ġresigned": 8054,
      "Ġsatisfied": 8055,
      "Ġunderground": 8056,
      "Ġdrums": 8057,
      "Ġenables": 8058,
      "Ġnaz": 8059,
      "Ġforegoing": 8060,
      "Ġinstance": 8061,
      "Ġsettle": 8062,
      "ogy": 8063,
      "Ġtrump": 8064,
      "Ġsignature": 8065,
      "Ġcoaches": 8066,
      "Ġhelping": 8067,
      "Ġafterno": 8068,
      "Ġdouglas": 8069,
      "Ġstake": 8070,
      "Ġcs": 8071,
      "closure": 8072,
      "iami": 8073,
      "mes": 8074,
      "Ġintegrate": 8075,
      "Ġberg": 8076,
      "dil": 8077,
      "consum": 8078,
      "Ġcharacterized": 8079,
      "Ġdrop": 8080,
      "Ġgreatest": 8081,
      "Ġportfolios": 8082,
      "Ġcapability": 8083,
      "Ġhorn": 8084,
      "Ġkept": 8085,
      "Ġreliance": 8086,
      "Ġstarts": 8087,
      "Ġdeprec": 8088,
      "dam": 8089,
      "Ġqueb": 8090,
      "ois": 8091,
      "osa": 8092,
      "Ġboat": 8093,
      "Ġlyr": 8094,
      "Ġdave": 8095,
      "Ġaccountant": 8096,
      "Ġfract": 8097,
      "Ġsells": 8098,
      "ilation": 8099,
      "Ġpatrick": 8100,
      "Ġprove": 8101,
      "Ġadjacent": 8102,
      "Ġindicative": 8103,
      "ĊĠ": 8104,
      "tes": 8105,
      "Ġinterior": 8106,
      "Ġdelivering": 8107,
      "Ġlincoln": 8108,
      "Ġmisc": 8109,
      "Ġreconc": 8110,
      "Ġvertical": 8111,
      "grad": 8112,
      "Ġreadily": 8113,
      "Ġapparent": 8114,
      "pts": 8115,
      "omas": 8116,
      "aced": 8117,
      "awn": 8118,
      "Ġroof": 8119,
      "Ġingred": 8120,
      "Ġpreferences": 8121,
      "Ġjournalist": 8122,
      "Ġabsolute": 8123,
      "oli": 8124,
      "white": 8125,
      "Ġstabil": 8126,
      "ambig": 8127,
      "Ġlect": 8128,
      "Ġsalt": 8129,
      "Ġvel": 8130,
      "Ġantib": 8131,
      "Ġrated": 8132,
      "election": 8133,
      "geography": 8134,
      "Ġdiamond": 8135,
      "Ġadvoc": 8136,
      "Ġprivately": 8137,
      "Ġmacro": 8138,
      "Ġtrains": 8139,
      "Ġappearing": 8140,
      "japan": 8141,
      "Ġresponsibilities": 8142,
      "death": 8143,
      "eries": 8144,
      "Ġwrestling": 8145,
      "Ġstronger": 8146,
      "Ġreliable": 8147,
      "Ġdin": 8148,
      "specific": 8149,
      "Ġtreaty": 8150,
      "ario": 8151,
      "Ġindicators": 8152,
      "Ġbrazilian": 8153,
      "Ġscoring": 8154,
      "Ġkings": 8155,
      "Ġbot": 8156,
      "Ġhip": 8157,
      "incent": 8158,
      "Ġtied": 8159,
      "television": 8160,
      "Ġdatabase": 8161,
      "product": 8162,
      "Ġdealers": 8163,
      "quarter": 8164,
      "Ġnotional": 8165,
      "Ġskin": 8166,
      "Ġdeleg": 8167,
      "Ġreaching": 8168,
      "Ġharris": 8169,
      "Ġsensitivity": 8170,
      "quis": 8171,
      "Ġiraq": 8172,
      "Ġarbit": 8173,
      "king": 8174,
      "Ġweaknesses": 8175,
      "Ġpad": 8176,
      "Ġtreasurer": 8177,
      "Ġhamp": 8178,
      "imummember": 8179,
      "Ġfabric": 8180,
      "Ġresidual": 8181,
      "canc": 8182,
      "finals": 8183,
      "Ġapprove": 8184,
      "Ġmandatory": 8185,
      "Ġadam": 8186,
      "Ġtried": 8187,
      "Ġshowing": 8188,
      "Ġsomewhat": 8189,
      "Ġcompleting": 8190,
      "Ġraising": 8191,
      "Ġandre": 8192,
      "kyo": 8193,
      "Ġbattery": 8194,
      "Ġsurve": 8195,
      "Ġvessel": 8196,
      "fri": 8197,
      "Ġlooks": 8198,
      "collectively": 8199,
      "Ġappeals": 8200,
      "Ġtemperature": 8201,
      "Ġtimber": 8202,
      "recurringmember": 8203,
      "Ġunsuccess": 8204,
      "Ġliable": 8205,
      "Ġ----------------------------------------------------------------": 8206,
      "fairvaluemeasurements": 8207,
      "Ġhealthy": 8208,
      "later": 8209,
      "max": 8210,
      "Ġconstitute": 8211,
      "Ġeducated": 8212,
      "Ġcatastroph": 8213,
      "Ġleads": 8214,
      "Ġswiss": 8215,
      "Ġsurgery": 8216,
      "lord": 8217,
      "Ġliterary": 8218,
      "Ġdol": 8219,
      "ographic": 8220,
      "anim": 8221,
      "Ġalco": 8222,
      "Ġmeant": 8223,
      "Ġafternoon": 8224,
      "Ġvillages": 8225,
      "Ġconcentrations": 8226,
      "Ġjay": 8227,
      "Ġflying": 8228,
      "Ġallen": 8229,
      "Ġbrid": 8230,
      "Ġdisputes": 8231,
      "ivate": 8232,
      "Ġprevailing": 8233,
      "Ġbund": 8234,
      "Ġhans": 8235,
      "Ġnegotiations": 8236,
      "Ġpin": 8237,
      "Ġexcludes": 8238,
      "Ġcommodities": 8239,
      "Ġfaster": 8240,
      "Ġinterpretations": 8241,
      "Ġtransp": 8242,
      "Ġaustria": 8243,
      "Ġholy": 8244,
      "afe": 8245,
      "results": 8246,
      "Ġgraduate": 8247,
      "Ġcolonial": 8248,
      "Ġbos": 8249,
      "uma": 8250,
      "inst": 8251,
      "Ġindication": 8252,
      "Ġrecycl": 8253,
      "Ġowed": 8254,
      "rome": 8255,
      "Ġpresently": 8256,
      "writers": 8257,
      "uese": 8258,
      "uz": 8259,
      "Ġargu": 8260,
      "wall": 8261,
      "Ġsponsored": 8262,
      "Ġcapable": 8263,
      "Ġprocedure": 8264,
      "Ġshape": 8265,
      "Ġlod": 8266,
      "oh": 8267,
      "load": 8268,
      "bra": 8269,
      "gi": 8270,
      "Ġpoetry": 8271,
      "Ġconstitution": 8272,
      "Ġcomics": 8273,
      "Ġtech": 8274,
      "Ġquebec": 8275,
      "Ġrenewed": 8276,
      "Ġfewer": 8277,
      "lowing": 8278,
      "Ġadvertis": 8279,
      "Ġlux": 8280,
      "vak": 8281,
      "Ġanthony": 8282,
      "gain": 8283,
      "Ġbes": 8284,
      "Ġali": 8285,
      "Ġaccretion": 8286,
      "Ġgp": 8287,
      "imm": 8288,
      "Ġhem": 8289,
      "Ġaccelerate": 8290,
      "Ġfargo": 8291,
      "Ġacid": 8292,
      "Ġawareness": 8293,
      "Ġcontempl": 8294,
      "Ġphone": 8295,
      "Ġprud": 8296,
      "van": 8297,
      "Ġnormally": 8298,
      "door": 8299,
      "Ġbylaws": 8300,
      "Ġsed": 8301,
      "Ġadministered": 8302,
      "lab": 8303,
      "Ġtow": 8304,
      "Ġvaluations": 8305,
      "oted": 8306,
      "arts": 8307,
      "Ġuc": 8308,
      "icit": 8309,
      "Ġdemonstrate": 8310,
      "ambiguation": 8311,
      "Ġlag": 8312,
      "Ġdeals": 8313,
      "Ġpictures": 8314,
      "Ġdecide": 8315,
      "Ġattached": 8316,
      "electric": 8317,
      "Ġaw": 8318,
      "Ġbrun": 8319,
      "Ġdallas": 8320,
      "commun": 8321,
      "Ġoffsetting": 8322,
      "aho": 8323,
      "Ġfacilitate": 8324,
      "Ġexercises": 8325,
      "à¤": 8326,
      "Ġtox": 8327,
      "Ġign": 8328,
      "Ġremember": 8329,
      "Ġlaure": 8330,
      "Ġintegrity": 8331,
      "Ġstatist": 8332,
      "Ġvie": 8333,
      "Ġdodd": 8334,
      "Ġraid": 8335,
      "Ġirs": 8336,
      "Ġdisapp": 8337,
      "Ġmarg": 8338,
      "Ġproposals": 8339,
      "fi": 8340,
      "wick": 8341,
      "Ġenjoy": 8342,
      "Ġvietnam": 8343,
      "Ġdispl": 8344,
      "Ġsanctions": 8345,
      "Ġmelbourne": 8346,
      "enna": 8347,
      "Ġsays": 8348,
      "ollect": 8349,
      "chem": 8350,
      "arel": 8351,
      "Ġarena": 8352,
      "Ġparall": 8353,
      "struction": 8354,
      "Ġstarring": 8355,
      "Ġbak": 8356,
      "Ġantonio": 8357,
      "Ġwithhold": 8358,
      "uration": 8359,
      "Ġmetro": 8360,
      "apers": 8361,
      "Ġlocom": 8362,
      "Ġburied": 8363,
      "Ġ]": 8364,
      "Ġbroader": 8365,
      "Ġgang": 8366,
      "Ġhey": 8367,
      "hard": 8368,
      "omer": 8369,
      "Ġtony": 8370,
      "chi": 8371,
      "Ġpenet": 8372,
      "Ġlists": 8373,
      "official": 8374,
      "Ġpod": 8375,
      "Ġtokyo": 8376,
      "Ġcommencing": 8377,
      "Ġmoscow": 8378,
      "apolis": 8379,
      "econom": 8380,
      "Ġcaution": 8381,
      "etime": 8382,
      "Ġartillery": 8383,
      "Ġchemicals": 8384,
      "Ġcape": 8385,
      "Ġbry": 8386,
      "iot": 8387,
      "Ġkitt": 8388,
      "Ġwalter": 8389,
      "din": 8390,
      "ovic": 8391,
      "roit": 8392,
      "Ġomn": 8393,
      "gor": 8394,
      "Ġdetermin": 8395,
      "Ġhamilton": 8396,
      "iph": 8397,
      "Ġcoff": 8398,
      "Ġevolving": 8399,
      "Ġinspired": 8400,
      "Ġroy": 8401,
      "Ġtender": 8402,
      "Ġdeclar": 8403,
      "Ġefficiencies": 8404,
      "Ġcann": 8405,
      "neg": 8406,
      "Ġdiversified": 8407,
      "cd": 8408,
      "Ġbright": 8409,
      "Ġdream": 8410,
      "cp": 8411,
      "Ġrecruit": 8412,
      "crit": 8413,
      "Ġpanel": 8414,
      "veland": 8415,
      "Ġproperly": 8416,
      "Ġfib": 8417,
      "Ġnomine": 8418,
      "established": 8419,
      "sources": 8420,
      "Ġresistance": 8421,
      "Ġaccurate": 8422,
      "Ġhappy": 8423,
      "onian": 8424,
      "Ġinterstate": 8425,
      "Ġparag": 8426,
      "paul": 8427,
      "Ġdefence": 8428,
      "excluding": 8429,
      "Ġadap": 8430,
      "Ġtaught": 8431,
      "Ġabandoned": 8432,
      "Ġarc": 8433,
      "ĠâĢł": 8434,
      "Ġanalysts": 8435,
      "hai": 8436,
      "Ġbrain": 8437,
      "Ġportray": 8438,
      "oor": 8439,
      "Ġrecre": 8440,
      "liest": 8441,
      "Ġdal": 8442,
      "Ġcasualty": 8443,
      "some": 8444,
      "Ġug": 8445,
      "usa": 8446,
      "-)": 8447,
      "Ġtropical": 8448,
      "store": 8449,
      "Ġdomain": 8450,
      "Ġauditor": 8451,
      "Ġphill": 8452,
      "Ġacre": 8453,
      "agan": 8454,
      "Ġnorwegian": 8455,
      "disambiguation": 8456,
      "Ġcloth": 8457,
      "Ġorange": 8458,
      "Ġgib": 8459,
      "Ġgets": 8460,
      "Ġredeemed": 8461,
      "Ġuniversities": 8462,
      "Ġspectrum": 8463,
      "Ġsalv": 8464,
      "australian": 8465,
      "Ġcharts": 8466,
      "Ġsty": 8467,
      "Ġgap": 8468,
      "Ġvirtual": 8469,
      "ordan": 8470,
      "Ġmm": 8471,
      "Ġreservoir": 8472,
      "race": 8473,
      "call": 8474,
      "lights": 8475,
      "profit": 8476,
      "Ġhub": 8477,
      "Ġattempted": 8478,
      "atories": 8479,
      "Ġdilution": 8480,
      "Ġsurpr": 8481,
      "Ġpenny": 8482,
      "Ġbiggest": 8483,
      "russ": 8484,
      "rett": 8485,
      "Ġrecoverability": 8486,
      "Ġintroduce": 8487,
      "Ġpredomin": 8488,
      "Ġdenied": 8489,
      "Ġfiber": 8490,
      "Ġpractical": 8491,
      "''": 8492,
      "agues": 8493,
      "iral": 8494,
      "Ġspok": 8495,
      "Ġvig": 8496,
      "Ġsri": 8497,
      "Ġclark": 8498,
      "gate": 8499,
      "Ġdakota": 8500,
      "Ġathletic": 8501,
      "green": 8502,
      "Ġdiplom": 8503,
      "Ġescrow": 8504,
      "Ġbann": 8505,
      "Ġvenez": 8506,
      "Ġtas": 8507,
      "Ġonto": 8508,
      "astern": 8509,
      "chen": 8510,
      "Ġminimize": 8511,
      "Ġisol": 8512,
      "Ġbuying": 8513,
      "Ġpackage": 8514,
      "sportspeople": 8515,
      "Ġrooms": 8516,
      "Ġqueensland": 8517,
      "Ġhelps": 8518,
      "Ġrepayments": 8519,
      "Ġprobability": 8520,
      "Ġcurve": 8521,
      "Ġmode": 8522,
      "Ġpowerful": 8523,
      "Ġexpectation": 8524,
      "Ġhud": 8525,
      "Ġsuspension": 8526,
      "Ġarchae": 8527,
      "Ġsie": 8528,
      "Ġpir": 8529,
      "Ġdiscretionary": 8530,
      "Ġsportspeople": 8531,
      "Ġpainter": 8532,
      "Ġdecor": 8533,
      "Ġvoted": 8534,
      "Ġsides": 8535,
      "Ġcfo": 8536,
      "Ġsuff": 8537,
      "original": 8538,
      "Ġhair": 8539,
      "ocese": 8540,
      "Ġmoon": 8541,
      "rat": 8542,
      "coming": 8543,
      "asy": 8544,
      "Ġruling": 8545,
      "inte": 8546,
      "energy": 8547,
      "Ġmodest": 8548,
      "Ġpurchasers": 8549,
      "Ġjourney": 8550,
      "nan": 8551,
      "Ġunres": 8552,
      "Ġamericans": 8553,
      "Ġseventh": 8554,
      "military": 8555,
      "Ġcommunist": 8556,
      "Ġfailures": 8557,
      "Ġtrees": 8558,
      "theastern": 8559,
      "Ġpromul": 8560,
      "Ġappointment": 8561,
      "Ġnig": 8562,
      "Ġfocusing": 8563,
      "Ġmoore": 8564,
      "Ġlinked": 8565,
      "Ġwondering": 8566,
      "Ġholiday": 8567,
      "si": 8568,
      "aine": 8569,
      "Ġsecuring": 8570,
      "Ġbelgium": 8571,
      "Ġdoor": 8572,
      "Ġrif": 8573,
      "Ġbudd": 8574,
      "Ġeasy": 8575,
      "Ġrepairs": 8576,
      "ublin": 8577,
      "Ġathletics": 8578,
      "Ġkam": 8579,
      "Ġbath": 8580,
      "Ġhypoth": 8581,
      "uritiesmember": 8582,
      "Ġvulner": 8583,
      "Ġalternatives": 8584,
      "Ġpair": 8585,
      "Ġarrested": 8586,
      "Ġcolomb": 8587,
      "iding": 8588,
      "emporarily": 8589,
      "Ġunlike": 8590,
      "Ġchristmas": 8591,
      "alone": 8592,
      "Ġmi": 8593,
      "Ġchurches": 8594,
      "Ġstress": 8595,
      "Ġmps": 8596,
      "acco": 8597,
      "Ġorph": 8598,
      "Ġremove": 8599,
      "Ġnan": 8600,
      "Ġissuing": 8601,
      "Ġgreece": 8602,
      "ugu": 8603,
      "Ġprohibited": 8604,
      "Ġcomputation": 8605,
      "Ġisraeli": 8606,
      "Ġbillboard": 8607,
      "Ġunexpected": 8608,
      "Ġmerit": 8609,
      "Ġimmun": 8610,
      "Ġtight": 8611,
      "video": 8612,
      "nov": 8613,
      "Ġment": 8614,
      "Ġaccred": 8615,
      "Ġmalaysia": 8616,
      "Ġdynasty": 8617,
      "Ġmatthew": 8618,
      "Ġfan": 8619,
      "Ġbou": 8620,
      "pension": 8621,
      "Ġfans": 8622,
      "emia": 8623,
      "Ġ(.%": 8624,
      "Ġbeneficially": 8625,
      "Ġjews": 8626,
      "lon": 8627,
      "Ġaged": 8628,
      "Ġseeks": 8629,
      "Ġdiagnostic": 8630,
      "Ġjoh": 8631,
      "Ġherewith": 8632,
      "Ġplanet": 8633,
      "Ġhurricane": 8634,
      "Ġstability": 8635,
      "Ġcontroller": 8636,
      "Ġcrash": 8637,
      "Ġhistorian": 8638,
      "Ġmiami": 8639,
      "Ġwave": 8640,
      "Ġdoesn": 8641,
      "Ġotc": 8642,
      "Ġroberts": 8643,
      "Ġpetition": 8644,
      "enz": 8645,
      "Ġsurname": 8646,
      "ivals": 8647,
      "mr": 8648,
      "itter": 8649,
      "Ġbreaches": 8650,
      "Ġknight": 8651,
      "mun": 8652,
      "nc": 8653,
      "atus": 8654,
      "Ġgary": 8655,
      "Ġryan": 8656,
      "Ġdeplet": 8657,
      "Ġjudicial": 8658,
      "Ġconce": 8659,
      "dan": 8660,
      "elli": 8661,
      "Ġdesc": 8662,
      "anche": 8663,
      "usal": 8664,
      "restricted": 8665,
      "Ġdropped": 8666,
      "Ġpreference": 8667,
      "oples": 8668,
      "ospace": 8669,
      "abad": 8670,
      "acad": 8671,
      "Ġqualification": 8672,
      "Ġconsiderable": 8673,
      "aven": 8674,
      "Ġapprais": 8675,
      "histor": 8676,
      "Ġconcess": 8677,
      "Ġharry": 8678,
      "backs": 8679,
      "Ġcalculate": 8680,
      "Ġhire": 8681,
      "Ġearl": 8682,
      "Ġairlines": 8683,
      "nings": 8684,
      "Ġsyndic": 8685,
      "Ġreclassification": 8686,
      "Ġjane": 8687,
      "commer": 8688,
      "Ġborough": 8689,
      "ailand": 8690,
      "Ġeagle": 8691,
      "Ġry": 8692,
      "Ġseed": 8693,
      "Ġessentially": 8694,
      "Ġdeductible": 8695,
      "iner": 8696,
      "Ġmisstatements": 8697,
      "Ġextract": 8698,
      "gov": 8699,
      "Ġspeech": 8700,
      "Ġstructural": 8701,
      "Ġamaz": 8702,
      "Ġdiesel": 8703,
      "iments": 8704,
      "Ġgay": 8705,
      "Ġcommissioned": 8706,
      "aux": 8707,
      "Ġpositioned": 8708,
      "likely": 8709,
      "Ġtribut": 8710,
      "Ġastr": 8711,
      "Ġcompounds": 8712,
      "commerce": 8713,
      "Ġmomentum": 8714,
      "Ġissuable": 8715,
      "series": 8716,
      "eton": 8717,
      "ommission": 8718,
      "fairvaluemeasurementsrecurringmember": 8719,
      "Ġanch": 8720,
      "Ġroads": 8721,
      "Ġcreative": 8722,
      "Ġsucceeded": 8723,
      "sufficient": 8724,
      "type": 8725,
      "Ġrear": 8726,
      "Ġfixt": 8727,
      "Ġgrown": 8728,
      "Ġsingers": 8729,
      "Ġinteract": 8730,
      "hed": 8731,
      "eur": 8732,
      "Ġshipment": 8733,
      "Ġreligion": 8734,
      "ĠÎ": 8735,
      "Ġlatest": 8736,
      "Ġ@": 8737,
      "Ġautomobile": 8738,
      "Ġmck": 8739,
      "Ġlane": 8740,
      "Ġinqu": 8741,
      "Ġdeficiencies": 8742,
      "Ġlynch": 8743,
      "Ġfoods": 8744,
      "Ġmol": 8745,
      "jud": 8746,
      "Ġdamaged": 8747,
      "Ġattain": 8748,
      "Ġliberty": 8749,
      "Ġille": 8750,
      "Ġstem": 8751,
      "Ġvariations": 8752,
      "vision": 8753,
      "Ġintense": 8754,
      "Ġload": 8755,
      "smember": 8756,
      "Ġcoron": 8757,
      "Ġmarks": 8758,
      "Ġperfect": 8759,
      "hop": 8760,
      "Ġreality": 8761,
      "Ġraf": 8762,
      "Ġwolf": 8763,
      "Ġrio": 8764,
      "Ġstrict": 8765,
      "Ġeasily": 8766,
      "Ġunresolved": 8767,
      "Ġmines": 8768,
      "Ġalan": 8769,
      "Ġfundamental": 8770,
      "Ġprogramme": 8771,
      "Ġtaxation": 8772,
      "Ġthirty": 8773,
      "Ġnyse": 8774,
      "Ġmatching": 8775,
      "Ġlang": 8776,
      "iors": 8777,
      "Ġattest": 8778,
      "Ġbranded": 8779,
      "Ġtissue": 8780,
      "Ġdean": 8781,
      "Ġlegend": 8782,
      "indian": 8783,
      "asu": 8784,
      "Ġsimult": 8785,
      "sea": 8786,
      "Ġexcited": 8787,
      "Ġintention": 8788,
      "ibus": 8789,
      "Ġmills": 8790,
      "Ġindonesia": 8791,
      "Ġresort": 8792,
      "Ġstructured": 8793,
      "Ġdegrees": 8794,
      "bet": 8795,
      "Ġundertake": 8796,
      "Ġvaluable": 8797,
      "Ġcontrast": 8798,
      "Ġsach": 8799,
      "Ġsubjective": 8800,
      "estyle": 8801,
      "employment": 8802,
      "Ġvent": 8803,
      "Ġtells": 8804,
      "Ġcompetitions": 8805,
      "education": 8806,
      "Ġparks": 8807,
      "fef": 8808,
      "Ġexamining": 8809,
      "Ġspacewatch": 8810,
      "Ġcontributing": 8811,
      "uman": 8812,
      "Ġoccurring": 8813,
      "Ġvenezuel": 8814,
      "tsburgh": 8815,
      "enny": 8816,
      "yers": 8817,
      "Ġstim": 8818,
      "Ġpeoples": 8819,
      "Ġrequis": 8820,
      "oenix": 8821,
      "tit": 8822,
      "Ġcu": 8823,
      "Ġstrip": 8824,
      "Ġexempt": 8825,
      "Ġ):": 8826,
      "Ġearliest": 8827,
      "Ġtrained": 8828,
      "Ġkl": 8829,
      "Ġtradition": 8830,
      "Ġforfeitures": 8831,
      "Ġliv": 8832,
      "Ġbowl": 8833,
      "osc": 8834,
      "affiliated": 8835,
      "Ġbiological": 8836,
      "Ġplate": 8837,
      "Ġgordon": 8838,
      "Ġappreciate": 8839,
      "mic": 8840,
      "Ġcontracted": 8841,
      "Ġperpet": 8842,
      "Ġadvice": 8843,
      "mentsmember": 8844,
      "Ġmetals": 8845,
      "bean": 8846,
      "Ġinspection": 8847,
      "died": 8848,
      "Ġlandscape": 8849,
      "Ġranges": 8850,
      "Ġuncollect": 8851,
      "Ġrussell": 8852,
      "Ġdecades": 8853,
      "Ġbilling": 8854,
      "Ġsubscrib": 8855,
      "Ġfm": 8856,
      "Ġimag": 8857,
      "Ġwish": 8858,
      "Ġfill": 8859,
      "Ġdefending": 8860,
      "Ġva": 8861,
      "Ġimages": 8862,
      "Ġsupports": 8863,
      "Ġmist": 8864,
      "Ġsituations": 8865,
      "Ġheading": 8866,
      "Ġearthqu": 8867,
      "Ġdisability": 8868,
      "Ġstrik": 8869,
      "inking": 8870,
      "igrants": 8871,
      "Ġvegas": 8872,
      "Ġrush": 8873,
      "Ġaired": 8874,
      "Ġgrey": 8875,
      "Ġlyrics": 8876,
      "Ġpy": 8877,
      "Ġrick": 8878,
      "ateur": 8879,
      "Ġexpose": 8880,
      "Ġmitch": 8881,
      "oz": 8882,
      "notable": 8883,
      "omy": 8884,
      "Ġrequests": 8885,
      "/(": 8886,
      "Ġnarr": 8887,
      "Ġvit": 8888,
      "Ġaustin": 8889,
      "integr": 8890,
      "Ġnik": 8891,
      "Ġalum": 8892,
      "Ġbuff": 8893,
      "Ġenrol": 8894,
      "antic": 8895,
      "Ġminimal": 8896,
      "ÑĤ": 8897,
      "Ġmanchester": 8898,
      "Ġbulletin": 8899,
      "Ġphilip": 8900,
      "Ġrobust": 8901,
      "rin": 8902,
      "Ġfurnished": 8903,
      "otte": 8904,
      "Ġextreme": 8905,
      "Ġ---": 8906,
      "loyd": 8907,
      "Ġclearing": 8908,
      "Ġsave": 8909,
      "usive": 8910,
      "Ġmusician": 8911,
      "Ġwebsites": 8912,
      "kshire": 8913,
      "Ġshipped": 8914,
[...]
